#version: 0.2 - Trained by `huggingface/tokenizers`
으 로
했 다
에 서
있 다
하 는
하 고
이 다
니 다
2 0
한 다
0 0
이 라
지 난
있 는
습 니다
까 지
면 서
지 만
20 1
한 국
대 한
서 울
부 터
것 으로
들 이
었 다
대 표
통 령
1 0
기 업
대 통령
에 게
정 부
된 다
됐 다
적 으로
밝 혔
적 인
사 업
위 해
에 는
하 기
위 원
시 장
밝혔 다
이라 고
미 국
1 9
통 해
이 어
지 역
다 는
대 해
말 했다
지 원
하 게
이 번
시 간
투 자
의 원
관 계
중 국
다 고
관 련
억 원
들 의
가 능
자 는
장 은
우 리
들 은
되 는
하 지
국 민
보 다
진 행
조 사
았 다
이 날
1 1
3 0
문 제
함 께
하 다
들 어
위 한
등 을
1 2
사 진
때 문
경 기
장 을
지난 해
연 구
에 도
제 공
이 상
후 보
교 육
라 고
00 0
경 우
산 업
기 술
사 회
북 한
에서 는
도 록
개 발
하 며
계 획
금 융
것 이
였 다
이 후
해 야
올 해
비 스
국 내
같 은
상 황
회 의
최 근
만 원
예 정
아 니
사 를
졌 다
민 주
1 5
따 라
사 람
르 면
기 를
대 로
서 비스
입 니다
현 재
하 면
하 겠
으 며
거 래
정 책
대 상
세 계
장 이
경 찰
리 는
했 습니다
일 본
기 록
필 요
따 르면
결 과
국 회
전 문
그 러
성 이
관 리
운 영
설 명
은 행
자 가
되 고
들 을
것 은
가 장
사 는
국 가
자 리
시 작
프 로
삼 성
사 용
정 보
라 는
스 트
기 관
이 는
제 품
기 준
평 가
규 모
장 관
하 면서
성 을
이 용
1 8
했다 고
하 지만
지 는
2 5
학 교
것 이다
지 를
안 전
보 고
20 0
발 표
문 화
사 실
증 가
1 3
위원 회
력 을
특 히
이 나
오 는
추 진
이 에
생 각
는 데
이 를
대 비
1 4
모 두
검 찰
다 양
서 는
다 른
그 는
1 일
5 0
판 매
오 후
1 6
센 터
리 고
동 안
7 일
확 인
환 경
이라 는
정 치
도 로
참 여
발 생
정 을
명 이
성 장
아 이
기 간
오 전
열 린
업 체
시 아
있 어
분 석
이 고
민주 당
상 승
2 4
부 산
상 을
때문 에
학 생
선 거
관계 자는
활 동
나 타
가 운
지 고
피 해
없 다
수 는
지 금
전 망
레 이
사 가
다양 한
많 은
가운 데
부 분
것 을
최 고
트 럼
자 신
기 에
트럼 프
전 자
랜 드
화 를
공 개
5 년
한다 고
도 시
확 대
내 용
없 는
로 나
마 트
정 상
이라 며
혐 의
리 를
시 설
추 가
기 대
1 00
당 시
하 나
수 준
이 런
강 조
부 는
들 에게
고 객
등 이
있 습니다
결 정
국 제
라 인
씨 는
달 러
사 건
2 2
코 로나
있다 고
미 래
수 사
등 의
점 을
회 사
시 민
알 려
가 격
그 룹
마 련
최 대
로 운
강 화
자 유
가 는
2 3
보 인
청 와
페 이
상 품
바 이
개 선
스 타
공 동
기 가
현 대
현 지
예정 이다
왔 다
전 국
청와 대
시 스
포 함
주 택
다 시
거 나
활 용
여 러
1 년
없 이
사 이
4 0
소 비
명 을
직 원
과 정
에서 도
전 체
주 의
있 도록
생 산
재 인
한국 당
인 터
그 런
한다 는
2 8
매 출
예 상
했 고
방 문
있다 는
7 년
중 앙
지 적
안 을
문 재인
지 방
자 의
건 설
자 동
일 부
대표 는
발 전
치 를
분 야
도 를
2 6
주 장
않 는
아니 라
높 은
사 고
회 장
통 신
영 업
3 년
경 쟁
위 를
라 이
지 지
개 월
들 과
영 향
만 큼
했 던
해 외
해 서
직 접
글 로
병 원
주 요
났 다
단 체
보 험
설명 했다
이 유
협 력
노 동
특 별
여 성
모 습
파 트
요 구
경 영
주 민
기 존
이 익
준 비
가 지
2 9
증 권
개 인
중 심
수 도
오 늘
명 의
데 이
적 용
모 든
이 미
수 가
2 년
지 속
회 를
리 아
자 를
t v
이 었다
생 활
업 계
성 과
적 극
받 고
받 아
시스 템
한 편
참 석
i n
처 럼
관 광
대 학
4 년
분 기
나 라
해 당
세 를
대통령 은
다 음
판 단
구 성
항 공
글로 벌
그러 나
행 사
앞 서
원 은
기 도
의 견
업 무
어 려
불 어
렸 다
수 출
합 니다
전 략
있 을
제 로
두 고
새 로운
보 도
1 7
평 균
상 태
구 조
6 년
대통령 이
리 가
겠 다
영 상
감 독
재 판
수 익
현 장
대 구
그 램
주 는
원 을
대 책
처 음
우 려
방 송
롯 데
외 국
관 심
e r
출 시
보인 다
또 한
6 0
받 은
중 요
회 담
혁 신
하 여
게 임
식 을
하 락
l g
유 지
지난 달
만 에
가 족
대 응
합 의
역 시
금 을
정 도
스 마트
등 에
자 체
인 사
계획 이다
인 이
시 는
8 년
기 로
하겠 다
언 론
더 불어
계 약
개 최
책 임
기 는
내 년
건 강
앞 으로
중 소
교 통
s k
보 면
않 고
자 료
선 정
브 랜드
러 스
않 은
주 가
인 은
전 했다
각 각
논 의
되 지
반 도
공 급
가 구
계 속
성 공
이 뤄
강조 했다
코로나 19
있 었다
신 청
효 과
영 화
종 목
확 보
지 도
인 천
수 를
사 의
으 면
많 이
스 크
본 부
으 나
감 소
정부 가
비 롯
차 량
프로 그램
했 지만
7 0
렇 게
니 까
원 이
통 합
일 반
대상 으로
인 트
운 동
코 스
번 째
카 드
예 산
실 시
의원 은
하기 로
소 득
만 들
아 파트
o n
자동 차
선 을
행 정
원 내
위원 장
일 까지
국 정
기 다
의 혹
목 표
의 료
제 도
국민 의
보 호
대 출
늘 어
제 를
받 는
광 주
제 주
협 의
i t
복 지
따 른
시 행
핵 심
전문 가
외 교
대 회
실 적
설 치
같 이
조 정
있 고
가 치
정 당
3 월
대 를
역 할
수 요
고 용
도 입
안 정
있 었
떨 어
부 담
일 부터
조 선
a i
력 이
드 러
공 식
일 자리
자 인
더 욱
라 며
집 중
포 인트
과 학
기 반
8 0
바 로
나 는
선 수
반 영
냈 다
등 으로
대통령 의
또 는
치 료
좋 은
시 에
기 능
원 에
종 합
4 월
구 속
단 지
물 론
6 월
이 동
이 며
때문 이다
자 로
의 미
이 야
사 장
공 공
그 리고
거 리
해 결
대 선
어 떤
부 문
되 면
원 의
수 석
l e
정부 의
방 식
않 았다
사 무
정부 는
단 계
세 대
전 에
나 온
도 가
씨 가
더불어 민주당
고 려
과 의
데이 터
부 가
제 가
받 았다
조 성
중 인
프 리
보 여
모 델
기 획
9 년
비 판
자 산
무 역
i c
찾 아
신 고
5 월
권 을
아 닌
하 려
구 축
1 만
201 5년
만 들어
부 동
인 을
n e
비 용
위 치
공 정
조 치
기 념
했다 는
입 장
제 시
않 았
당 국
그 래
a r
시 키
분 양
라 도
제 기
검 토
변 화
인 정
청 년
크 게
a n
공 간
공 사
9 월
반 기
제 보
가능 성이
개 혁
차 례
유 럽
5 00
자신 의
대 전
스 는
보 유
다 만
자 들이
감 염
201 7년
전 년
논 란
오 른
부 를
일 을
자유 한국당
발 언
e n
우 선
베 이
관련 해
전 환
되 어
구 매
서 를
온 라인
마 음
7 월
밖 에
작 업
아 직
부동 산
문 을
지 급
김 정
돌 아
별 로
드 는
s t
제 한
매 수
12 월
10 월
감 을
물 을
주 시
교 수
1 월
지 가
대 형
진 다
창 업
일 이
정 의
어 떻
투 표
처 리
스 포
인 도
상 당
평 화
인 의
조 직
받 을
미 사
덧 붙
자 금
노 력
영 국
움 을
현지 시간
개 정
안 에
중 이다
전 기
과정 에서
박 근
넘 어
케 이
트 를
201 6년
인 상
있 으며
참 가
우 수
식 품
어 린
5 일
에 너
아 시아
위 에
박근 혜
신 규
시 즌
반 면
선 택
남 북
8 월
어떻 게
이 하
알려 졌다
측 은
변 호
협 상
전 을
감 사
림 픽
근 로
9 0
방 법
총 리
하 루
서비스 를
제 작
필요 한
바 른
안 보
확 산
최 초
기록 했다
중소 기업
전 달
사업 을
시 험
국 무
하 이
2 월
여 행
방 침
것 도
만 나
a t
11 월
2 7
요 청
인 공
대 가
전 해
규 제
도 는
위 험
3 일
보 내
장 애
검 사
2 1
나 가
비 율
보 수
스 를
나 오
다 가
나타 났다
최 종
지 에
향 후
것 이라고
차 지
이 해
분 의
민 국
원 에서
올 림픽
들 도
있 지만
대 변
주 식
체 험
소 속
사 례
임 금
범 죄
사 태
금 리
차 를
사 망
가 입
경 남
대한 민국
이 와
전 히
이 었
모 바
장 에서
반 대
정상 회담
인터 넷
대 화
경 험
기 본
연 합
방 향
러 시아
비 교
k b
호 텔
않 을
소비 자
체 계
혐의 로
3 5
전 날
본 격
2 7일
제 조
영향 을
국 방
보 는
201 4년
이 사
공 연
재 단
모바 일
치 는
덧붙 였다
로 부터
유 통
대 부분
결 국
협 회
경기 도
하는 데
쳤 다
에 선
r e
이 제
이 란
지 정
억원 을
문제 가
와 의
아 니다
하 도록
중 단
쇼 핑
활 성
20 일
되 면서
인 데
주 목
민 간
강 원
제 출
무 리
이 렇게
연 결
시 가
원 으로
나 서
르 는
주 변
점 에서
k t
2 1일
ne w
과 거
체 결
있 게
인 근
대표 가
울 산
수 수
확 진
공 격
3 00
에너 지
텐 츠
먼 저
진 단
10 일
점 검
전 용
마 을
위 반
중심 으로
2 일
진 출
담 당
보 건
미사 일
1 7일
펀 드
경 북
연 속
실 제
점 이
장 기
올 라
최 저
금 지
하 거나
높 아
위 는
소 를
통 한
수 입
위 기
선 언
이 름
명 으로
a l
배 우
어 렵
2 차
역할 을
제 재
훈 련
가능 한
c o
삼성 전자
발 견
소 년
비 중
201 7
방 안
씨 의
소 재
제 외
채 용
그 동안
한 미
했 으며
전 시
국민의 당
사 랑
상 대
t h
공 무
콘 텐츠
섰 다
건 축
현 실
등 록
하 자
4 일
외국 인
불 법
9 일
이 벤
언 급
소 개
인 지
리 스
협 약
6 일
영업 이익
디 어
근 무
회 장은
부 족
출 신
상 장
버 스
량 을
내 부
공 항
지 구
설 립
대해 서
장 의
이 기
인 해
주 로
가능 성
20 00
인터 뷰
8 일
달 라
14 일
북한 의
15 일
미국 의
이 자
편 의
28 일
스포 츠
입 장을
문제 를
느 냐
매 우
a p
대 에
12 일
리 그
하 던
업 종
이 전
내 려
주 도
는 다
갖 고
그 렇
개 의
13 일
19 일
대해 서는
활동 을
역 사
방 안을
그런 데
취 업
3 6
가 를
11 일
통 과
지적 했다
이 달
1 000
일 정
플 랫
메 이
예 방
조사 를
있는 데
예 술
강 남
조 합
코 리아
c e
마 다
보 였다
사 항
해 도
26 일
지 하
부 모
30 일
했 는데
비 를
관 한
하 다는
립 니다
23 일
주장 했다
공 유
홍 보
법 인
세 종
플랫 폼
18 일
질 문
구 체
16 일
앞 두고
희 망
25 일
누 리
i s
받 았
마 이
금 액
스 로
치 고
201 8년
22 일
지 능
놓 고
적 이
장 에
자 연
최 소
24 일
통 화
5 000
소 방
디 자인
홈 페이
않 아
20 년
해 양
올 랐
장관 은
각 종
작 품
조 금
기 소
하기 도
할 인
바이 오
가능 하다
내 고
우리 나라
장 과
마 지
목 소
파 악
전 남
스마트 폰
거 쳐
가 까
보 이
자 들의
의 도
토 론
위 로
간 의
주 고
바이 러스
촬 영
어 느
사회 적
작 년
대 신
3 4
정 권
인 증
회 복
b c
한 반도
프 랑
여 론
비 서
네 이
임 대
확 정
국 토
겠 다는
운 용
플 레이
독 일
선 발
비 해
기업 의
수 상
혜 택
비롯 해
어린 이
조 건
o r
선 고
워 크
디 지
동 의
의 회
사 전
의견 을
않는 다
재 정
특 검
심 사
상 이
군 사
29 일
서울 시
마지 막
19 9
유 치
배 치
법 원
3 1일
페이 스
하겠 다는
회 견
여 야
자 와
자 기
세 가
그러 면서
부 의
노 조
전망 이다
3 3
의원 이
매 도
미 세
전 쟁
4 5
201 8
인 수
중요 한
너 무
광 고
부 에
인 식
없 어
량 이
수 행
르 게
자 원
경찰 은
창 출
제 안
디지 털
2 만
브 리
공 감
공 모
일 리
끌 어
보 장
관 은
시장 에서
부 정
하 다고
갔 다
정보 를
스 터
보 이고
나온 다
신 용
추 천
인 한
내용 을
자 치
않 다
머 니
표 현
3 7
이 재
움 이
상 담
보 기
제 대로
말 을
억원 으로
정 신
명 은
등 은
달 리
야 당
a s
지 로
아 울
법 무
테 이
강 력
3 8
시장 은
위원 장은
어 나
열 고
체 육
설 계
회 에서
누 구
롭 게
인 구
작 성
학 과
하겠 다고
베 트
대 학교
더 라도
1 조
사 와
김정 은
수 원
들 에
프 트
규모 의
기준 으로
스 코
소 송
반도 체
스 토
n s
것 이라는
1 차
했 을
사 드
모습 을
기술 을
사 로
매 매
촉 구
중 한
린 다
스 가
위 가
서 로
프 라
투 입
뿐 만
정 확
대 의
활성 화
이 들은
측 면
차 이
이 러
충 분
상황 에서
헌 법
행 을
동 시에
201 3년
북한 이
베트 남
건 물
마 케
어려 운
결과 를
총 선
인 권
연 금
없 었다
줄 어
무 엇
차 별
재 산
자 들은
당 선
교 수는
m o
규 정
사람 이
스 의
new s
같 다
지 나
여러 분의
행 동
됐 습니다
정 규
효 율
나 선
되 며
그래 서
t o
화 학
영 상을
음 을
임 을
회 가
탄 핵
주 를
출 마
대 북
못 한
시 각
겠 습니다
됩 니다
청 구
프로 젝
움 직
전 통
대 체
뉴 욕
수익 률
긴 급
3 9
지 분
형 태
후보 는
청 소년
기 구
청 은
말 씀
소 통
운 드
미세 먼
사실 상
제보 를
회의 에서
변 경
내 는
지 면서
공 시
이 른
지원 을
이상 의
간 담
카 오
북 미
아울 러
환 자
있 기
리 지
이 들
고 속
a d
인공 지능
장 비
있 던
전 북
여 전히
장 으로
밝혔 습니다
마케 팅
반 응
바 람
이번 에
알 고
분 위
통 상
월 드
불 과
신 뢰
만 든
3 000
만원 을
길 을
나 왔다
제품 을
벤 처
화 재
얼 마
플 러스
리 에
신 한
르 고
회 원
전 반
남 성
내 놓
점 은
테 크
10 년
기 사
회의 를
되 었다
우리 는
씨 를
검찰 은
4 차
바 탕
기다 립니다
우리 가
절 차
6 5
료 를
의 무
시간 을
율 이
연구 원은
부 장
등 급
상황 을
연구 소
중 에
인 으로
세 월
주 거
발표 했다
연 계
사실 을
시장 의
모 집
4 8
청 문
네 트
집 행
평 창
쉽 게
사 법
수 의
인 력
독 자
관 이
이벤 트
국회 에서
방침 이다
관 에서
오 픈
무 료
개 를
5 g
고 민
상 공
이러 한
보 안
가 고
법 률
유 엔
안 타
가 량
r o
4 9
이 같이
집 계
계 열
5 5
비롯 한
그 의
정 기
아 동
행 복
었 던
화 장
맞 아
명 에
부 와
기 여
관 을
양 국
시간 이
시 도
상 위
애 플
페이스 북
출 연
처 벌
이유 로
프리 미
등 학교
201 2년
정 도로
실 을
보 다는
화 된
국 립
매 년
발 사
지 켜
30 분
프랑 스
자 율
시 티
추 정
b s
둘 러
예상 된다
하겠 습니다
당 이
예 비
선 물
사 상
이 루
왼 쪽
액 은
나 갈
널 드
공 원
대 는
율 은
가 진
약 속
가 정
한 화
점 으로
비 가
교 체
봤 다
동 물
됐다 고
친 구
카 카오
필요 하다
3 2
위 의
공무 원
가 지고
데 일리
준 다
확 실
백 화
마 무리
홍 콩
못 했다
실 시간
대통령 과
지금 까지
대변 인은
메 시
채 널
3 개
보 니
비 핵
바 란
자 에
4 7
단 은
중국 의
소 식
혐의 를
완 화
비 상
위 협
시장 에
군 은
살 펴
관심 이
사 에서
음 식
개 편
뛰 어
부 품
k r
이 트
충 남
역 을
보 이는
취 임
5 9
판 결
도 널드
발생 한
특 정
en t
심 의
독 립
대 중
마 스크
시 청
여 의도
로 는
안 이
3 1
e c
연구 원
수 밖에
작 용
신 종
해 석
관심 을
기 초
내 가
응 답
단 을
음 악
량 은
주 주
동 기
지 시
으로 는
처음 으로
스 스로
파 크
공 장
특 수
보도 했다
니 스
채 권
구 청
겼 다
유 명
상 대로
히 려
수도 권
철 수
연 장
실 에서
건 을
시 절
결 제
전 화
스 티
심 을
바탕 으로
자 에게
실 제로
최 순
시 켜
당 은
4 6
복 합
평 양
올랐 다
봉 사
처 분
그 대로
보 증
열 리는
측 이
감 이
i on
아 무
실 험
하 우
것 에
부 인
면 적
대 우
압 박
달 성
생 명
스 럽
겠 다고
시장 이
원 칙
주 년
부 진
벌 어
에 어
권 한
총 리는
낮 은
출 발
축 제
정책 을
재 무
오 히려
남 아
대 규모
계 를
자 본
기업 이
비 슷
축 구
점 에
수 록
지 수
세월 호
제 약
디 오
심 각
당 의
3 만
공 약
업 을
힘 을
최초 로
접 근
블 록
법 을
존 재
나 와
기 부
여 름
격 을
었 고
그 렇게
으로 부터
일 은
c c
진 흥
인 재
스 러
했 으나
최순 실
20 20년
저 는
도 의
운 전
해 소
상 의
s ns
코스 닥
발표 한
시장 을
원 하는
프로젝 트
5 2
원내 대표
가 가
부 과
발 굴
넘 는
새 누리
사 과
자 녀
재 난
출 범
조 치를
4 4
내 에
그 림
출 석
회 는
코스 피
e u
없 다는
다 운
미 디어
전 력
꾸 준
부 처
소 프트
회 장이
도 와
디 스
바란 다
만 의
상황 이
증 거
거 부
포함 한
밝 혀
성 에
물 질
잘 못
o t
김 영
맞 춰
충 북
이야 기
검 증
연 간
회 에
주 행
홈페이 지
프리미 엄
현대 차
인 프라
많 다
우 승
네이 버
요 금
조 원
드 시
분 명
계획 을
국회 의원
나 섰다
주 차
지 진
news 1
살 아
텔 레
갤 럭
i p
자 세
장애 인
긍 정
접 수
트 리
돈 을
7 5
1 인
201 9년
매 각
폭 력
실 질
흐 름
지속 적으로
거 의
1 억
c j
작 은
고 위
어 제
상 반기
관광 객
다 면
웨 이
열 어
지 사
라 우
품 질
임 시
아 주
못 하고
것 입니다
p c
외 부
u n
1 천
갤럭 시
위원 장이
네트 워크
션 을
제공 한다
4 개
5 개
이 스
임 명
었 습니다
리 스트
지역 의
어 요
곳 에
완 료
교 류
는 지
문제 는
였 던
결 혼
한국 의
반 발
반 드시
이 탈
면서 도
논란 이
정규 직
미세먼 지
생각 한다
당 부
가 상
가 스
없 다고
맞 춤
방식 으로
웨 어
필요 가
들 여
징 역
약 품
인 가
비핵 화
수 산
지 표
들 었다
하 반기
전 면
물 이
으로 써
의 사
연 기
것 과
밝 히
률 이
졌 습니다
질 환
들 고
장관 이
후보 가
만 족
형 사
여 기에
이 틀
행 사를
증가 했다
건 의
농 업
나 무
소 중한
풀 이
드 를
인 하
등 장
직 후
구 역
페 인
때 는
마 감
프 레
6 개월
9 시
시 대
대 기업
포 트
기 회를
강 한
근 거
5 6
주 문
밝 힌
역 대
골 프
조 작
신 속
특 징
젊 은
공 직
도 움이
의 해
돌 파
보고 서
능 력
바 다
변 동
기 온
거 주
이 지
방 지
로 서
되 기
철 도
가 동
8 4
고 도
공 업
블 랙
한다 면
진 을
통 계
집 단
좋 아
웠 다
면 세
조 국
부 회장
기 상
i m
수 용
율 을
우려 가
위치 한
분 이
전 자는
매 체
하 였다
재 생
화 제
신 설
관계 를
사람 들이
크 로
허 용
위해 서
바른 정당
거래 소
정 비
입 주
아 버
아니 냐
수 술
지 자체
방 역
학 습
브리 핑
생 태
19 8
이 로
5 7
전해 졌다
안 내
단 순
관계 자
회 계
취 소
g s
비 난
육 성
등 과
전 혀
최저 임금
4 00
진 술
기 의
위 안
여 부를
실 패
부 채
당 한
당 을
얘 기
10 시
정 한
받 지
특 허
스타 트
가 져
늘 었다
계약 을
투자 증권
유 의
입 을
커 피
화 가
시스템 을
목 적
사 장은
201 1년
이용 해
사이 트
일 으
s u
피해 를
단 이
대 행
th e
아 침
나 고
원내 대표는
아 마
불 가
대 사
김 현
이 지만
자료 를
불 편
5 8
로 봇
임 직원
지 키
적 절
위해 서는
자 격
유 가
지 의
경 고
인 기
파 이
동 원
됐 고
o s
상 에
일 단
리 기
지 검
폭 행
혁 명
아 래
적극 적으로
화 폐
곳 에서
취 재
리 즈
a 씨는
포 르
9 9
201 9
이 행
서울 중앙
추가 로
발 행
솔 루
트 로
정 이
외 에도
정치 적
b m
하려 는
정 말
점 수
지 수는
과 정을
e d
형 을
이 슈
앞 에서
등 에서
제공 하는
실 현
군 의
성과 를
함 을
상품 을
여 기
주 제로
e s
장 소
학 년
스 와
사 에
포 항
무 기
시작 했다
제 2
자리 를
률 은
e l
하 라
앞으로 도
상 호
평가 를
지역 에
증가 한
선 임
1 위
절 반
a c
이 데일리
으로 서
구 를
돼 야
입 국
여 자
구 하고
사업 에
유 일
k m
전 일
일 보
실 무
청 약
대 기
브 라
과 제
노 선
카 메
b i
창 원
백화 점
비 즈
진행 한다
고 발
완 성
단 독
도 전
e t
겨 울
불 안
이 드
손 해
피 스
철 저
혜택 을
효과 를
팀 은
구 간
% ,
행 위
조 기
기능 을
케 어
in g
걸 쳐
201 0
만 한
두 산
포 럼
택 시
파트 너
대해서 도
가 로
해 왔다
지 상
포함 해
개발 한
주 력
추 세
높 다
내 에서
표 준
나오 고
개 국
가 맹
친 환경
위원회 는
취 약
이야 기를
아 가
은행 은
6 6
수 사를
가능 성을
시키 는
참석 한
성 능
체 인
배 경
시작 으로
등 도
기 기
도 착
경찰 에
부 상
마 크
카 페
승 리
초 청
극 복
률 을
1 분기
주 석
a m
수 립
수 급
차 가
농 협
안 철수
기 억
답 변
로 드
늘어 난
총 장
책임 을
과학 기술
시 켰
품 을
졸 업
빠 르게
많 아
명 령
담 은
누 적
연 설
비 행
곳 이
내 린
개 헌
명 예
구 는
4 2
의 심
접 촉
겁 니다
셈 이다
강 제
통 일
공 천
타 임
속 에
사실 이
노 인
맞 는
성 적
선 박
만 을
소 유
동 반
코로나 바이러스
신 경
도 서
미국 이
에게 는
법 안
활용 해
씨 와
우 는
동 해
대 에서
기 금
쏟 아
동 일
기 계
어 디
시 리즈
관련 한
o c
6 8
시 기
새 로
거 듭
요 일
구 글
자 문
으 니
오 프
언 제
지역 에서
말 까지
15 0
고 양
나 머
4 3
주 기
원 전
회견 을
효과 가
자신 이
인 물
일 어
고속 도로
면 을
가 의
직 장
김 성
정 해
예 약
텔레 콤
다음 달
성 향
당 초
다 르
확인 할
프로그램 을
뱅 크
순 매수
적 이고
법 정
확 장
해 운
교육 을
경찰 청
가격 이
만 드는
상 임
테 러
20 대
예 측
심 리
봐 야
f t
카메 라
즐 길
거래 일
201 6
관련 된
사 퇴
투 명
6 7
축 소
감 안
바른 미래
4 000
개 입
억원 의
n a
에 이
꾸준 히
강력 한
상황 이다
습 니까
으 면서
얼 굴
세 로
3 개월
패 션
소 상공
전 주
사 라
i d
고 를
제 1
2010 년
가 치를
식 으로
유 리
2 개
첨 단
종 로
의혹 을
배 출
인 과
말 이
경쟁 력
사람 은
에 만
초 기
연 휴
주시 면
형 성
방문 해
서 초
이른 바
캠 프
스타트 업
매 장
4 만
다 소
5 만
받 습니다
합 병
le d
지 와
매출 액
공 화
최고 위원
당국 은
차 단
진행 된다
리 더
아 베
7 7
구 입
감염 증
공공 기관
영 장
진 입
펼 쳐
의 결
지 주
수준 으로
거 론
새 롭게
부 여
뜻 을
받는 다
어 를
i a
d b
답 했다
기반 으로
총 괄
l a
경 선
성 남
굉 장
크 다
운영 하는
사진 을
체 제
스러 운
였 습니다
시 킨
후보 자
질문 에
불 구하고
구체 적인
지 배
라 스
조 를
n h
동 아
도 에
미국 과
태 양
사 인
얼마 나
사업 은
가 계
별로 는
작업 을
나 왔
타 고
싱 턴
계 층
있어 서
어 야
호 남
알 아
선 도
터 를
캐 릭
실 천
4 1
현 황
번 호
본 다
제 일
의 를
절 차를
없 을
야 구
보 를
마 찬
그 린
이 끌
관 람
교육 청
악 화
품 목
라 면
양 성
로 를
통 제
경우 가
판단 되는
계 좌
피해 자
자리 에서
주 최
됐 던
있 지
시 범
2 천
맞춤 형
드 라
군 이
sk 텔레콤
최 선을
한 번
동 향
방 위
빠 른
관 세
나 이
불 러
충분 히
검찰 이
금 은
합 동
미 리
허 가
ce o
리 오
말 했습니다
감독 은
정치 권
중 간
p g
공 단
된다 고
6 9
새누리 당
노 력을
글 을
없 고
일본 의
잡 고
백 악
마찬 가지
속 에서
차 원에서
상 생
공감 언론
법무 부
h o
탑 재
현장 에서
성 은
의 한
론 을
올 리
예 고
라우 드
니 아
투자 를
비판 했다
라 운드
트 는
기 고
오 르
굉장 히
선 호
세 력
기 지
제 3
영 역
정 리
활용 한
어려 움을
나 오는
사건 을
김 종
전 이
책 을
소 환
가치 나
실시간 으로
자 이
사진 영상
수 로
호 소
대책 을
눈 에
보내 주시면
길 이
워 싱턴
관 측
향 해
6 000
합 리
동 맹
화제 성이
정확 한
반영 하겠습니다
사진영상 부
제보 받습니다
5 3
다 이
방 어
거 든
트 위
된다 는
올 렸다
가격 은
그 가
상 은
상태 다
수 치
있었 던
과 도
u s
중 구
결 합
최고 의
교 사
주 말
신 임
수요 가
보 일
변호 사
의 약품
사 우
국 의
이용 할
인 간
남 부
순 간
분석 했다
마 켓
커 뮤
만 으로
지 식
점 유
평 소
하고 자
6 00
상대 적으로
신 을
지 연
폐 쇄
것 처럼
커뮤 니
정부 와
기 아
촛 불
5 4
바 뀌
재 개
1 명
도 움을
상황 에
채 택
해 상
대 폭
직 무
였 고
클 럽
세 포
달 라고
티 브
안 은
어렵 다
급 여
내 다
올해 는
m a
데이터 를
세 워
국토 교통
동 계
지 법
떨어 진
최 신
새 벽
유 도
3 분기
동 을
대 리
개 별
국내 외
체 포
슈 퍼
투자 자
화장 품
7 8
검 색
수 주
현 금
적 이다
해 온
유 출
대 법원
거든 요
주 재
서울 대
대통령 을
운 행
결과 가
이 명
체 를
함 으로써
나 누
추 경
바 꾸
들어 가
이름 을
질 병
6 4
세 요
않 도록
찾 는
오 래
발언 을
년 대
대 법
나머 지
증 시
해 주
출 산
모 아
바 라
비 례
관 객
려 는
비슷 한
급 증
5 1
드 리
등 이다
손 을
스 피
원 인
오 피스
8 000
팀 이
분 류
성 장을
석 유
6 개
내용 이
우 고
곳 은
중 공업
싱 가
200 8년
터 리
목표 로
억 달러
종 료
분 을
사용 할
해 를
원 과
저 희
쉽 지
집 을
외 에
보 통
달 하는
모 양
장 치
초 반
빨 리
폭 발
따라 서
기 와
지 출
만 이
2 시
여 명이
앞 에
kb s
진 이
레 스
협 정
고 령
주 간
포 스코
우리 의
시작 한
상 무
원 장
컴 퓨
이 같은
자 주
전기 차
주 관
다 니
정보 통신
에서 의
기 울
미 술
4 분기
유 로
이탈 리아
매 일
폐 지
노 무
개 방
않 으면
향 상
보 복
화 에
이어 서
비 대
한 정
질 의
남 은
세 트
전 형
전 투
도 심
물 류
투 어
도 발
지하 철
분 쟁
보 상
설 정
지원 하는
지 면
복 귀
단 의
므 로
외교 부
센터 에서
후 원
노 트
들 로
서 류
연 대
실 장
디스 플레이
구성 된
높 이
7 000
대표 의
컨 설
권 력
갖 춘
유 니
추 석
연 방
업무 를
m m
초 과
인 용
까지 는
선 이
못 하는
보유 한
재 건축
시 킬
8 8
피 의
나 눔
모 니
전 한
아 름
폐 기
보 좌
수준 의
려 고
지방 선거
충 돌
순 환
의 지를
분 리
좋 다
싶 다
금융 투자
만 난
이 정
간 다
명 과
당부 했다
청 주
순 위
개 막
아 요
배 당
협 력을
포 기
건 이
곳 을
이유 는
만원 으로
걱 정
i b
신 세계
필 수
가까 운
반 복
융 합
리 어
대 학생
조 달
편 리
이루 어
민주 주의
조 차
완 전히
었 지만
200 9년
계 산
설 비
오른 쪽
진 료
비 아
음 성
단 기
고 가
점 도
트 렌
제외 한
5 천
결 정을
나 올
이 사회
연 락
결 의
줬 다
연 령
시설 을
측면 에서
강 경
내 일
싱가 포르
진행 된
단 속
7 9
이 들이
만 약
집계 됐다
기관 은
종 의
신 도시
고려 해
현 행
어 도
소 가
업계 에
분 께
목소 리를
인 들이
문 의
여론 조사
솔루 션
손 실
한 일
과 는
협약 을
홍 준
도 쿄
2 분기
부터 는
매 입
식 이
기록 하며
경기 를
법 에
f a
참석 해
표 를
판 사
의원 의
차 는
에 스
국 회의
격 리
전 에서
비중 이
인 기를
여 부
분야 에서
치 지
구 현
달 아
진행 하고
기 회
느 끼
사 이에
가까 이
단 일
메 뉴
d i
이상 이
훼 손
일 에
클 래
c h
6 3
비즈 니스
나 눠
비 리
간 편
경찰 이
중국 이
김 동
유 사
거 운
는데 요
진 은
올 린
뇌 물
계 기로
일 각
데 다
방 해
자 랑
오 염
점 이다
원 자
임 상
당 장
e m
강원 도
이 게
것이 란
됐다 는
제 거
마음 을
씨 에게
검찰 에
적 은
문제 에
11 시
유 기
피 부
8 5
테 마
표 시
국방 부
10 만
비 는
점 포
클 라우드
증 을
적 발
말 로
물 러
스 카
법 적
축 산
가능성 도
승 인
사 령
배 제
파 견
했 기
초 등학교
영 어
홈 런
9 5
수수 료
현재 까지
끝 에
목 을
저 녁
상승 했다
지 휘
취 득
중요 하다
캐릭 터
년 간
설명 이다
쪽 으로
홍준 표
총 리가
지 인
았 던
사고 가
회장 의
l o
미국 은
검 사를
누구 나
이었 던
6 1
부담 을
필 리
리 의
인터뷰 에서
환경 을
집 회
직 을
최 대한
희 생
정의 당
규모 로
지 어
판 을
질 을
제조 업
기대 한다
변 화를
2 조
지 사는
북한 은
가 전
감 시
지금 은
훨 씬
적극 적인
호 선
먼 트
있다 며
프리 카
베이 징
당 연
우 주
대표 적인
실 업
연 출
사회 의
게 시
수수 색
상 업
신 호
압 수수색
민 정
후 반
f c
황 교
이 처럼
바른미래 당
수 정
빠 져
면 접
7 2
본격 적인
낮 아
사업 이
아 내
이라 도
균 형
보 가
매 력
당 일
기 사는
시 위
평가 했다
공 을
전문가 들은
절 대
아 야
동 부
금 이
화 성
선 진
힘 들
상 징
여 당
내용 의
알려 진
y t
6 시
제 도를
문 이
경쟁 력을
블 루
어 머니
기업 에
모 르
유 해
진 영
컨설 팅
문 학
최소 화
타 워
많 았다
아이 디어
타 이
3 천
타 이어
기획 재
화 면
계 가
상당 히
지 니
만 달러
싶 은
직 전
기록 한
키 로
내용 은
협 업
전 세
자 금을
이어 질
하 더라도
히 는
겠 지만
ic t
승 객
사업 의
지역 을
김 태
순 이익
앞 둔
m bc
구 가
작 가
9 000
나 의
m s
직 업
활 약
진 보
고 급
건 으로
서 에
이미 지
받 게
강 릉
찬 성
크 리스
활 발
리 티
때 까지
유 입
허 위
p s
노 출
구 에
갖 추
명 확
패 키
재판 부는
기준 을
치 열
확인 됐다
다 수
하 늘
제 는
황교 안
돌 려
아이 폰
유 동
사 기
선 의
오 랜
유 튜
이 끌어
전략 을
공 기
김 경
6 2
유 예
권 고
자체 가
한 진
놀 이
호 주
까 요
스럽 게
수 소
불 확실
분 간
중심 의
흔 들
자료 사진
v r
건 립
기업 을
소 에서
산업 혁명
연구 개발
기대 된다
생각 이
소 화
콘 서
측 의
전망 했다
이 던
면세 점
치료 를
침 해
저 축
지 에서
c n
사이 버
트 랙
풍 부
북 핵
관 의
혔 다
규모 는
경기 에서
학 부모
권 에
삼성 전자는
노 후
기 재
역 량
감 정
가 을
모니 터
1 개
만들 기
차지 했다
심각 한
방 을
종목 의
8 00
넘 게
리 스크
남 자
대 만
열린 다
피해 가
이라 면
은행 이
나 설
저 렴
담 보
기 타
경험 을
역 량을
인 민
1 심
정 지
참석 했다
급 등
입 찰
자 회사
선 출
합 격
산업 의
드 로
순 매도
소 리
민 족
입 법
줄 었다
됐 지만
아니냐 는
유 승
상승 한
마 친
자세 한
스 에서
보 완
상 환
1 위를
네 시아
보 입니다
8 9
f o
생각 을
공개 했다
감소 했다
관계 가
i ot
차 기
2 억
적 합
벗 어나
19 7
우수 한
비 전
유 권
나 다
참여 한
구 의
국민 이
상 으로
대 화를
시키 고
담 배
화 물
시켰 다
았 고
모 임
되 자
교 환
내 렸다
드라 마
탄 도
특별 한
블록 체인
일 제
스타 일
하락 했다
수준 이다
고 등학교
더 해
3 차
바 닥
위원회 가
부 총리
미 니
산 림
태 풍
소상공 인
트위 터
인도 네시아
규모 가
소 형
발전 을
화 문
이명 박
지속 적인
착 수
시 트
임 원
종 사
능 력을
란 드
개 념
위 에서
6 만
자율 주행
전 담
퇴 직
든 지
고 소
총 재
기관 이
인 사를
농 가
시 코
광 역
lg 전자
은행 의
안 에서
아 르
7 00
a f
정 체
메시 지를
거래 를
그 리
an d
디 아
나타 냈다
배 상
이 내
데 요
비 트
안 팎
부분 이
호 흡
올 려
이 사장
시 의
지 게
근로 자
결과 에
한국 은
그룹 은
소 에
노 래
200 7년
관 에
식 당
중국 은
일 대
위원회 를
시 사
하나 로
박 람
느 낌
수준 을
테 스트
하면서 도
공 헌
처 를
아 쉬
기업 으로
2 명
열 었다
s e
대해 선
발생 했다
이 승
이 마트
단 에
이라 면서
발 급
자치 단체
청 산
유 력
이 중
실적 을
옮 겨
내 외
지적 이
비용 을
이벤 트를
부 대
대 문
협 조
조사 됐다
충 전
1 회
주 일
생 을
장 학
권 이
대표 와
의 사를
모 색
이 들의
7 개
리 포트
징 계
하 라고
강 하게
고 요
용 산
기 조
빅 데이터
전 경
넘 겨
불 이
컴퓨 터
s p
개발 을
분 에
배 달
차이 가
1 20
전 자가
미 를
토 대로
입 학
7 4
월드 컵
1 층
불 리는
주 체
푸 드
증 정
라이 온
국민 연금
구 로
대한 항공
실 행
일 상
엄 마
최 적
아 프리카
i g
헬 스
각 을
차 로
주 에
대표 를
춘 천
비 밀
승 을
배 터리
라이 브
진행 했다
박 스
박 물
위원장 의
한 은
서 부
광 화문
협 상을
개 설
됐 으며
이 면
생활 을
피 언
권 의
기업 은
남 편
오 고
폭 이
제공 하고
무엇 보다
at ion
정 밀
이 웃
용 인
움직 임
고 통
충 격
일 정을
판 정을
보 급
영 입
지원 한다
연 맹
재 배
불가 피
2 배
상 용
아 들
o f
커뮤니 티
눈 길을
그러 니까
장 면
문제 로
이 르
주 가는
만원 의
후 속
운영 하고
관 과
대표 이사
미래 에
무 너
원 유
생 존
회사 의
즉 각
동계 올림픽
커 지고
통 보
범 행
피 고
협의 회
마 저
머 물
수 습
반 박
차 세대
아 웃
기관 의
3 시
노무 현
수 능
점 과
파 리
금 감
내 리
매출 이
시 내
금 속
마 리
외 무
강 의
c m
반 려
후보 를
풀이 된다
담 긴
하락 한
학생 들이
지 기
진행 할
u r
북 부
보 낸
여 객
리 트
타 운
해 주는
억원 에
사람 을
총 장은
경우 에는
챔 피언
깊 은
그 간
듣 고
강 연
비 정규직
시 상
사용 하는
공정 거래
하려 고
친 박
져 야
편 성
플 레
시작 된
투 쟁
렀 다
둘러 싼
법 이
사업 자
케이 션
늘 고
레 드
제품 은
뮤 지
제공 할
댓 글
영 장을
금 리를
분야 의
모 여
말 한다
유튜 브
캐 나다
신 분
확 충
의견 이
있다 면
전 개
부 부
촉구 했다
해 수
드러 났다
수 업
동 구
사건 이
터 키
하나 의
그룹 의
세 부
아이 템
저 지
팀 을
사람 의
대 결
정부 에
t e
자리 에
정 식
통해 서
중 도
형태 로
8 시
선 생
헌법 재판
참여 하는
부담 이
금융 감독
고 교
있는 지
당 신
소프트 웨어
되 도록
이상 을
실 장은
재 료
살 인
급 격
기록 하고
일 시
못 해
기업 인
한 달
들어 서
치 면
철 강
토 지
겪 고
추진 하고
겨 냥
집 권
30 년
멕 시코
순 으로
망 을
브라 질
절 감
센터 를
착 용
비교 해
창 의
특징 이다
상 향
영향 으로
기 회가
북한 에
적으로 는
물 량
기업 들이
가 야
메 달
김 진
할 지
맞 은
심 한
발 을
쇼핑 몰
세 미
획 득
3 대
운 항
선 제
이익 을
이 노
단 축
산 하
메 르
관리 를
지역 은
7 시
필리 핀
동 에
전 원
자 들을
려 면
드 론
수 십
김 기
고 기
이용 한
입 증
박 영
식 에서
상 가
난 다
홈 쇼핑
i v
적 을
7 6
당 사
8 개
따 뜻
미 만
조 언
스 키
인 에
의 뢰
마 쳤다
물 가
때 도
지 자
실 태
스 에
세 에
교 과
요 즘
3 명
소 는
입 은
공간 을
와 이
해 왔
무 게
행 사는
속 도를
행 위를
신청 을
베 스트
놨 다
막 기
교 섭
환 영
하려 면
어 서
1 호
알려 져
실 에
돌 입
인사 청문
교 회
여 개
ft a
농 단
키 워
체계 를
막 을
반응 을
잡 아
혼 란
배 송
이 민
침 체
말 고
10 개
4 대
주가 가
내 지
동 참
정 착
7 만
측 에
의 장
오 를
운 전자
안정 적인
어려 워
사 들이
액 을
대 처
25 0
만들 고
정책 에
선 보인다
발 의
연 말
유 플러스
오프 라인
어 로
영업이익 은
찾 은
종 교
벤처 기업
개선 을
내 달
힌 다
공 략
태 국
유승 민
상 한
박 정
산 물
운동 을
그 럼
헌 재
d p
우 한
o p
주년 을
원 장은
개 통
9 8
전 부터
종 을
암 호
혹 은
귀 국
현 안
세 운
2 층
주 지
본격 적으로
아 는
가 슴
아 트
조사 에
맞 이
불 거
소 셜
액 이
종로 구
센터 는
소 장
조 절
후보 의
명 절
민 생
내다 봤다
본 인
즉 시
천 안
금 호
당 첨
살펴 보면
자 영업
강 도
할 머니
함 에
세 금
엔 진
진행 됐다
심 사를
멤 버
권 은
서 가
때 마다
이어 지고
의미 가
스 테이
중 견
보험 료
간 에
높 였다
떠 나
c t
명 했다
사항 을
모습 이
특 성
음 에도
7 3
재판 에
한국 과
유 산
전 당
수 색
타 격
있어 야
양 산
얘 기를
가능 해
엔 터
특 파
기간 을
시 리아
구조 조정
호텔 에서
누 가
식 에
5 시
의혹 이
스 위
수 단
사 유
쓰 고
중 개
예산 을
이 가
해 안
시 한
라이 프
제주 도
정 무
전 월
로 스
이 종
무 선
김 상
이 래
실 내
근 본
정 유
주 인공
전 무
문화 를
일 환
수 시
본부 장
100 만
회의 에
참 고
졌 고
건 조
국정 원
발생 하는
수 집
진 상
비중 은
서 구
분명 히
c ent
보건 복지
위 축
거 짓
사례 가
g m
세 탁
lg 유플러스
운 송
플 래
지 며
k e
김 포
파 업
잠 재
경 계
보유 하고
대 와
매출 은
알 파
추 구
테 인
권 리
나선 다
개발 에
성 의
입 사
그 레이
측 정
산업 통상
청와대 는
결정 했다
포 스트
스 페인
선 에
방 식을
김 해
ar t
촉 진
휴 대
동 료
4 천
방법 을
메 리
기존 의
호 는
외 환
위안 부
적 지
기록 을
리 며
나 섰
안 심
음 료
항 의
법 상
지역 사회
세 는
채 무
보 관
오 리
마 치
정 은
비율 이
해 제
탄 생
요구 하는
줄어 든
보 조
힘 든
바 꿔
혼 자
전 세계
저 장
미래 를
마 치고
훈련 을
중 기
점 차
노동 자
방향 을
건 에
처음 이다
회 사는
용 의
수익 성
제 휴
제시 했다
공 사는
3 억
방향 으로
살 해
강 화를
사회 복지
리 조
당국 이
가 해
영 양
국 세
4 시
적 폐
계열 사
전 파
국내 에서
지 침
고 등
목 적으로
산업통상 자원
유 아
심 판
국 장
함 이
증 언
원자 력
만들 었다
위 생
수익 을
미 치는
소송 을
리 얼
동 영상
적절 한
교 수가
화 와
활성 화를
말 레이
하이 닉
통합 당
출 입
시가 총
i l
분 위기
분 쯤
입 어
런 던
d a
부 실
승 용
서 민
해당 하는
박 사
오피스 텔
긴 장
쓰 는
대 외
발생 할
항 목
번째 로
s s
췄 다
연 수
랐 다
리 즘
화 로
범 위
확 대해
노 사
예 를
공 인
부 당
추진 할
늦 게
자 사
갑 자기
달 한다
메이 저
음 주
관 여
메 모
여 파
른 다
마련 했다
시 와
상 정
방문 한
청 탁
단 위
방 한
이제 는
k g
전망 된다
벌 금
무 려
의미 를
8 6
일 로
위원 장을
잇 따라
의 식
태양 광
라이온 봇
참여 해
검찰 의
충 청
대 거
자산 운용
어 가
환 자가
로 이
축 하
나 아가
부 탁
c l
터 미
본 부는
제 고
기 후
하다 가
조 명
부분 에
돼 지
어린이 집
요구 했다
업체 가
머 리
만 남
선 두
실 종
분위 기를
더 니
연 료
군 에
질 이
일자리 를
권한 대행
본부 장은
기획재 정부
내 야
무 슨
담 아
부 지
진행 한
7 1
사업 으로
브 렉
간담 회를
가 득
콘텐츠 를
고객 이
2 위
부분 을
물 리
주 어
핵 실험
삶 의
t f
콘서 트
판 문
이 닝
진 의
문화 예술
b o
m c
현장 에
끌 고
진행 되는
종 이
팀 의
모습 이다
앞 장
확진 자
노 총
주 한
19 6
국 제공
남 녀
30 대
제 의
송 파
백악 관
목 포
시 급
자 들에게
목소 리가
수 리
확진 자가
숙 박
기업 과
목소 리
소 녀
리 우
u l
변화 가
경 비
진 정
20 20
정상회담 을
지원 할
김 용
기 각
면 담
선 에서
활용 할
차 관
아닌 가
현 장을
기소 된
산업 단지
시 진
서울중앙 지검
응 급
대상 이
중 동
정 황
감 한
평 을
있 으면
아 세
뒀 다
폭 을
무 죄
선 보인
22 년
편 집
sk 하이닉
석 을
전 공
거래 되고
확대 를
경 주
휴 대전
8 7
시 정
시 를
d s
잡 았다
cent er
이뤄 진
유치 원
입 원
a g
이 영
mo bi
부 르
소 로
물 에
공 판
가 이드
께 서
터미 널
드 린다
시민 들이
출 전
났 습니다
자 전
i r
거 죠
포 털
전망 이
곳 으로
가 게
것이 고
환 율
문화 재
스 튜
자신 을
기간 에
방 사
국 이
9 4
한국 인
설 득
장관 의
부 서
지역 으로
한국 을
한 강
도 약
도 내
비율 은
민주당 은
분 할
존 중
숨 을
해 보
대통령 에게
골 을
캠 페인
촬영 을
탄도 미사일
종 류
삶 을
한국 에
특 화
경 을
되 었
수 여
사회 공헌
진 화
가치 가
상승 세를
세 다
회 사가
1인 당
10 여
선정 된
배 를
모니터 링
사진 제공
차지 하는
학 술
캠 퍼
나 지
남 용
적용 해
심 히
재 해
신 약
센 트
부족 한
le ad
시진 핑
억원 이
만 화
입장 이다
이 주
가격 을
지 지를
제 목
여러 분
농 촌
추 행
계 의
내 기
량 의
말레이 시아
높 게
이뤄 질
g b
사고 를
수사 에
특파 원
수 학
기간 이
1 시
수 렴
높 이고
연 습
감독 이
뒤 를
참여 할
강남 구
하 자는
나 를
속 도
대 장
호 를
노 하우
조 례
치 킨
치 러
공동 체
페 스티
지난 주
기술 이
as s
가맹 점
200 6년
8 만
군 을
포 구
맥 주
력 과
클 린
가 졌다
그 녀
이 기도
윤 리
지 명
납 부
투 수
프 랜
항 소
완 벽
유 형
기대 하고
특 혜
거 리를
세 상
위 기를
빌 딩
없 습니다
사고 로
민정 수석
번 에
위원 은
h d
감 찰
위원 회의
뷰 티
1일 부터
소 설
하 였
p l
한 층
작 전
보이 지
짜 리
신 천
탑 승
대상 은
b r
흐름 을
감소 한
공 포
안전 한
고용 노동
활동 에
설 문
법 은
철 회
분 노
n c
5년 간
캡 처
하 시
아 우
청 소
g o
결 론
중국 과
태 평양
김 재
인 들의
기온 은
개 봉
세 무
복 잡
역 에서
의원 을
페스티 벌
드 가
그 를
높 이는
숨 진
d e
파 워
하 셨
자 극
노동 당
해 군
사진 은
소 요
20 2
당 기
악 의
차이 즈
실적 이
육 아
항 을
기간 은
편의 점
부 패
먹 는
심 이
증 명
판단 했다
출 근
유 망
집 에서
청 사
고 의
현 직
국 을
손 님
플 랜
분석 한
미 칠
모두 가
본격 화
유 발
업계 의
비 로
3 조
신 제품
조 리
i f
입 고
그러 면
이유 를
난 민
협의 를
경찰 서
과정 에
작성 한
투 기
가 수
조사 에서
8 2
그 때
yt n
패 스트
치 매
실시 한
그 만큼
후보 로
저 소득
물 산
중 부
늘어 나
과 세
미 터
수 많은
부분 은
치 가
시간 에
있 으나
접 속
끄 는
호 가
않 습니다
강화 하고
무 장
프 라이
문 자
이번 이
끝 난
교육 부
성 인
쓰 레
곧 바로
미래에 셋
소 폭
위 탁
신 라
집 에
발 휘
이재 용
자 들
마감 했다
뛰어 난
스 탠
대우 조선
폭 염
의 존
체 크
점 수는
개 로
추 락
구 분
데 뷔
동 력
대학 원
선 보였다
화 해
당 분간
캠 페
평 생
사건 의
개 장
단 과
지 목
격 려
프랜 차이즈
술 을
문화 체육
엄 청
된다 면
m b
이어 졌다
맡 은
다 리
재 미
프로 모
평 택
논의 를
못 할
더 블
진 로
전용 면적
분석 이
신 체
비서 관
달 려
라 디오
천 연
따 로
공동 으로
결 승
무료 로
t r
일 어나
9 7
군 산
분야 에
항 상
추 적
명 에게
주 류
국가 안보
크 루
결과 는
상태 에서
자 살
수 영
af p
원 래
세 이
줄 이
연 봉
좋 지
구체 적으로
당 내
보 이며
적 립
뮤지 컬
일 방
y na
예정 인
후보 자는
카드 를
세계 적인
0 5
비례 대표
국 산
생 긴
개정 안
지 대
차량 을
제 정
갈 등
적 정
공 수
규 제를
졌 다고
씨 에
대 회를
계 기가
전 까지
분 들이
그 냥
발표 된
여 성이
풀 어
코 인
어 르
오 바
시민 단체
피 아
연 준
생 물
패 널
용 품
동 시
행사 에
제시 한
포 장
란 히
1 시간
원 활
동 생
승 리를
공 제
신 이
전 지
자전 거
선 은
떨어 졌다
가 속
제품 의
갖 춰
상당 한
대 안
긴 밀
집 값
연 동
가 중
자 택
공개 한
해 진
상태 로
연 을
렸 습니다
참 모
학 원
과 연
되는 데
9 6
병원 으로
합 류
았 습니다
부 회장은
그 쳤다
그 에
완 전
8 3
거래 가
같 습니다
승 진
mobi lead
mobilead new
느 껴
한국 이
창 조
공시 했다
이 은
변호 사는
철저 히
않 게
20 여
공 익
음 이
성 폭력
퇴 근
간 호
요청 했다
건강 보험
느 낄
아름 다운
만 명
곳 의
임 기
정책 이
p er
공 학
모 으
경 력
이유 가
계 에
민주 화
필요 하다는
일 간
긍정 적인
나 가는
상당 의
구 제
필요 하다고
추 모
시 나
사 안
줄어 들
기업 들의
주 장을
지원 하고
전 인
추진 하는
합의 를
경 상
휴 가
잖 아요
사 장이
향 한
경기 에
개 가
광 역시
의 류
안 산
게 이트
20 22년
소개 했다
청 사에서
3 d
사례 를
이 슬
언급 했다
꼽 힌다
아시아 나
브렉 시트
6 천
쿠 폰
포 토
한 테
사람 들은
확인 했다
2 회
l h
시 중
충 족
어 는
시 대를
측 근
서울 시는
늘어 날
해 경
게 이
증권 사
신 선
국 면
파 괴
용 역
유 족
했다 가
면 역
면 제
수 비
분 담
은 퇴
사 전에
인데 요
보 육
내 수
조치 가
목표 를
컬 러
보고 서를
아마 존
추 첨
분석 이다
와 는
200 5년
간 접
회 동
선 착
알 리
교육 감
너 스
전 은
조 속
회 장을
3년 간
바 르
조사 한
경기 가
당 에서
힘 입어
실 이
오 토
운영 을
센 서
가 리
노력 하겠다
적 자
높 았다
받 기
드 림
높 여
조 만
인 다
중 학교
고객 의
가 시
국무 총리
일 까
진행 하는
퍼 런
미 군
대출 을
서초 구
하 니
상 관
성 격
들어 간
모델 을
실 로
이동 통신
고 정
스 탄
재 벌
간 부
청 에
소 시
정도 의
장관 과
차 원의
위 성
0 1
맞 게
공 부
었 는데
맛 을
도 민
s bs
정 에
영 등
궁 금
안전 을
’ ,
최근 에는
북 구
아 예
무 단
친 다
경우 도
보여 주는
소 의
이 건
업체 인
점 점
다 녀
소 식을
1 19
압 도
간담 회
벌 이고
열 렸다
여성 의
선정 됐다
실 은
명 품
열 심히
아니 면
작 동
하우 스
폼 페이
대 량
이어 지는
맞 추
별 도
응 원
수 에
사태 가
대변 인
공 산
가 서
대부분 의
좋 겠다
의원 과
폭 탄
관리 에
리 포
cc tv
청와대 가
말 한
포 착
참여 를
맡 고
건강 한
준비 를
탈 퇴
신고 를
우려 를
청 이
금액 은
소 독
순 천
도서 관
후 에
매출 액은
국정 농단
병원 에서
타 를
잘못 된
경찰 서는
미국 에서
대통령 에
조만 간
사실 은
만원 에
기 한
즈 를
납 품
p a
모 를
레 인
준 공
통신 은
18 0
p e
모 터
신 흥
미국 에
예 금
발 효
다 하겠다
초 등
했다 며
치 의
핀 테크
전략 적
포함 된
이 낙
놓 은
공연 을
잠 시
경우 는
구조 를
가능성 은
마련 됐다
검토 하고
지방 자치단체
판매 를
대 피
도 출
수 백
폼페이 오
비중 을
급 락
출 동
라 엘
잠 정
트 레이
총 회
당 원
위 기에
감 축
늘 려
이낙 연
비교 적
치 게
박 원
이 르는
서 명
원 이다
0 8
여 건
시 너
요 리
원내 대표가
날 인
인 명
정상 화
서울중앙 지법
선 사
되 기도
4 명
엔터 테인
인 적
여 명의
갤럭시 s
프 린
낮 추
공개 된
만 기
성 도
세 웠다
학 을
중 계
아 카
9 00
청 원
g dp
그 게
어려 울
플 라
전 과
식 의
국회 에
공 고
정 세
중국 인
사 물
받아 야
줘 야
성공 했다
리더 십
고객 에게
혁신 을
민 원
이스 라엘
한 해
s w
진행 될
가상 화폐
받아 들이
mo u
c bs
대회 에서
n o
헬스 케어
0 9
추 산
떨어 져
문화체육 관광
수 와
마 르
달 라는
냉 장
정책 의
조사 가
극 대화
즈 는
규 칙
이용 하는
건설 은
별 도로
서 버
한국 시간
규모 를
검 출
9 개
양 호
무 상
국가 의
아세 안
블 로
게 재
성장 률
선거 법
7 천
회 사를
낸 다
0 3
수익률 은
사용 자
f or
서울 의
가 깝
경 로
투자 가
신 동
임대 주택
하 라는
대비 해
양 을
9 2
직 한
국 적
한다 며
어르 신
후 회
아니 고
평 등
경험 이
둔 화
캐 피
개인 의
부 작용
최초 의
불 구속
피의 자
중국 에서
일 이다
8 1
보도 에
d o
국 장은
시 공
달 했다
무 산
한 때
내 정
시설 이
스 턴
별 도의
중국 에
한국당 은
모 멘
u t
세 기
가 에
곳 이다
부 각
상 인
s m
고 향
사건 에
않을 까
저 작
이용 자
가 공
소 외
어 링
식 은
부산 시
아버 지
스토 어
잡 은
섭 취
c on
돈 이
외국 인이
삼성 물산
나 라는
심 화
농 림
다 행
다르 다
화 이트
장 병
마 약
유지 하고
개 척
성 명
내놓 은
마찬가지 로
사람 들
제 어
간담 회에서
있었 지만
본 사
0 4
시 점
보 지
만 날
공 조
장 착
제출 한
전 의
받아 들
예상 했다
논의 가
이 수
재 를
5 명
c g
마련 해
맡 아
중 에서
나 면
간 단
라 운
생각 하는
명 시
이재 명
남 성이
현 상이
가 르
해양 수산
남 기
주 식을
n g
9 3
su v
고객 을
코 드
철 거
사용 한
운 세
횡 령
일 관
조사 하고
대표 하는
하 신
층 의
따뜻 한
함께 하는
창 립
5 억
전 직
불 리
하 느냐
탈 당
열 차
사 내
강 행
예정 된
나가 겠다
주민 들이
신 중
주 장이
진 짜
실질 적인
그룹 이
지역 구
9 만
마음 이
o led
라이 트
아 산
버 그
모멘 텀
물 로
중 순
선 포
이 의
정 원
업계 는
차별 화된
8 천
통 일부
수준 에
변화 에
통화 에서
취 급
스 웨
들어 갔다
구 상
먹 고
10 명
김 모
달러 를
40 대
넓 은
마 블
소 수
충분 한
202 1년
30 여
연 예
국 에
10 대
가 기
김 씨는
정 례
국민 들이
계 란
정책 과
풍부 한
이어 가고
타임 스
선 전
보 냈다
유 연
진행 되고
인 생
구 미
위원회 에
교 도
물 의
직원 들이
현 상
호 응
션 은
개인 정보
지 점
상태 를
미 르
국회 가
받 침
대표 팀
비 공개
50 대
신 년
브리핑 에서
체 감
판문 점
외국 인은
제품 에
대응 을
육 군
요 양
가 락
설명 했습니다
탓 에
자 발
의원 들이
직원 이
사이 에서
시간 은
15 00
몰 려
들과 의
고 는
전 수
것 이라며
스크 린
여 수
사 모
상 원
형 이
불 을
총 장이
문 서
지원 금
도시 재생
전 후
강 요
시장 과
성 명을
본 회의
부 사장
무 시
억 제
엘 리
' ,
자 도
조 심
석 탄
금 강
목표 주가
블랙 리스트
200 4년
높아 지고
일환 으로
나 아
힘 이
비용 이
대한민국 의
보 며
박람 회
예정 입니다
됨 에
서 해
수 사가
항공 기
광 장
공 군
내 비
치 며
새 해
기반 을
공 사가
증 상이
출마 를
1 개월
됐 을
중국 을
어 진
단순 히
시작 해
마이 크
수 험
권 역
a 씨
대 륙
계 절
오바 마
진출 을
저 가
양 의
푸 르
것 인지
박 한
트 럭
권 과
현 역
자 제
잠 실
현대 자동차
점 수를
주민 들의
0 6
법 조
p o
면 허
하 향
부장 판사
세 제
1 억원
있 음을
경영 자
평가 가
취약 계층
홀 딩
이 르면
국민 을
중 고
일 치
물 은
세 우
이 모
트리 온
와 서
시민 들의
찾 기
업체 의
거래 량은
개혁 을
성 수
기관 과
이 들을
그럼 에도
현대 중공업
사용 해
학생 들의
공 통
확인 하고
단 행
이 송
맞 서
얻 고
추진 한다
마스크 를
구청 장
영향 이
지지 율
역 사를
0 2
셀 트리온
었다 고
뜨 거운
삼성 전자가
지 향
무 를
규 명
마 라
편 안
준 수
묻 는
제재 를
일 하는
연구 를
경 호
감독 의
k o
부 천
이뤄 졌다
논란 을
홀 로
뚜 렷
졌 다는
김 병
접 한
소 매
2000 년
이로 써
수 면
신 형
빠 진
듯 한
증가 하고
참 사
a 씨가
패키 지
위원장 과
가격 에
양 도
치료 제
건 은
연 관
의혹 에
원 인을
아니 라고
인 테
t s
의 장은
시 마
장 중
없 애
정 우
lg 전자는
19 5
형태 의
회견 에서
매 주
증 진
정 통
없 지만
2 주
s o
4 억
확대 하고
기아 차
성 폭행
물 품
연 내
앉 아
김 민
행 사가
깨 끗
이 외에도
있는데 요
갈 수록
판매 한다
의견 은
있 으
화 려
연 극
스 페
태 극
처 는
cn n
나 노
s h
마이 크로
하지 는
들 로부터
조 세
대체 로
양 대
우 위를
거 리가
구속 영장을
설치 된
물 어
이하 의
공화 당
개최 했다
플 로
신천 지
생태 계
병 행
금 리가
주 제
한 중
시 세
해 질
종목 에
b l
방 이
재 직
고 문
입 장이
리조 트
해결 을
과 장
아무 런
신 탁
발 령
역 임
선 별
하 위
박물 관
산 을
인 력을
방 에
대 목
드러 냈다
보 였
점유 율
잠 수
상 하이
화 는
병원 에
종목 은
연합 회
일각 에서는
상 시
인천 공항
조 회
법 과
예 요
무 대
i st
보 존
선 대
입 건
홀 에서
붕 괴
주 한미
검 은
관 측이
부 로
미 중
인 스타
호 의
최 우수
상 상
유일 한
체 가
현재 는
케이 블
메 디
전체 의
w s
대상 을
암호 화폐
다 수의
북한 을
산업 혁
이번 에는
어 떠
국정 감사
마련 된
창 작
출 판
동일 한
매 니
0 7
여행 을
일으 키
중소 벤처기업
항 만
선 보일
듯 이
확대 할
투표 를
발 달
원 료
휴대 폰
증 이
흘 러
법 으로
폭 으로
동 이
한 의
자이 너
당국 의
재판 을
특 례
단 지는
bm w
일본 이
4 조
위원회 에서
한 데
국 은
지 사가
3 층
작품 을
얻 을
정부 에서
논 문
공 론
종 전
시 원
전문 기업
단 말
사건 은
성 분
전 역
동 네
나타 나
지원 이
않는 다는
영 남
네 요
접 목
일 주일
직 권
고 리
나서 고
일본 은
전 부
사태 를
않았 지만
내 놨다
유 전자
세 상을
방법 으로
슬 로
2 루
저렴 한
내 내
도 에서
화 한
걸 어
사람 들의
어 울
관람 객
적 한
라 면서
주 인
출 자
하기 는
디 자이너
24 시간
골 드
d c
입 점
감염 병
당연 히
높 일
않 다는
출 처
이미 지를
러 리
포 스
명 이다
게임 을
분위 기가
동 작
인 상을
미국 을
로이 터
극 단
했 는지
찾 을
기사 입니다
갈 등이
패 턴
발전 소
업 데이
화 하는
본 인이
영 하
패 를
판결 을
생각 해
백 신
무 관
협 동
전달 했다
수 령
실시 한다
5 대
경 원
갖추 고
엄 격
단 장
태 어
요 소
발전 에
회의 실에서
공 장을
요구 를
이 끄는
성 실
운영 한다
동 북
었 을
참여 했다
다 짐
인 원
체결 했다
유럽 연합
2 명이
리 서
수 당
이상 으로
생산 하는
높 이기
짧 은
정부 를
철저 한
누 군
꼽 았다
마 스
이었 습니다
한국 에서
서 면
방안 도
산 불
외 식
주목 된다
그 것이
멀 티
시민 의
이 전에
유 관
밴 드
닷 컴
주 자
시 대에
이어 진
희 정
성공 적으로
사회 에
노동 조합
말 라
뒤 에
끝 까지
위 와
농 산물
항공 사
시 기에
스튜 디오
신뢰 를
기온 이
식 사
데 미
장관 을
안정 성
없 도록
수 혜
배 가
터 널
분 당
판 에
애 니
출 국
바 지
과도 한
흥 행
행정 안전
왜 곡
판매 하는
20 만
섬 유
나 마
앞 선
국민 들의
경 매
사 흘
이 례
비서 실
남 양
집 회를
19 대
반 등
매출 을
만 찬
조 용
다 섯
주 와
카 운
공 사를
기반 의
인 건
l s
군 수
몰 아
언론 에
ec d
j t
체 류
나오 지
판 사는
19 4
홈페이 지를
인근 에
k ia
프로 세
분석 을
자 국
그래 도
여 대
가능 할
박 성
양 자
몸 을
레 일
당기 순이익
기술 과
사회 를
o ecd
김 지
엔 지니
해 달라
저 널
말씀 을
둘 째
최 다
기대 를
뒷 받침
트 의
협상 이
결 코
타 당
국 채
마 시
요 인
kb 국민
명 한
반 대로
정 동
수석 은
감 지
올 리는
자 고
엔터테인 먼트
졌 지만
화 하고
모 금
회담 을
플 루
지분 을
지원 에
전시 회
여 겨
되 길
배 려
것 인가
이슬 람
토 로
열 릴
마 디
사랑 을
트 가
여기 서
뿐 이다
차례 에
있었 고
연 세대
밀 어
오 르고
줄 여
배 정
오 지
재 개발
치열 한
예상 되는
또 다시
임대 료
하 에
덕 분에
가 며
현재 의
무 력
두 는
골 든
오 르는
담 겨
사우 디
위험 이
지 다
상 영
9 1
담 고
상황 은
사회 가
명 칭
영 동
공수 처
가 면
결정 할
소 규모
레이 션
법 원은
공격 을
문제 와
방침 을
재 가
기관 에
겪 는
e x
트렌 드
객 관
전 화를
경 유
분 열
30 만
행복 한
차 에
이 사는
얻 어
고 조
답 을
출시 한
북한 과
회 전
썼 다
능 력이
이노 베이
비상 대책
비 타
사무 소
상 속
기여 할
머 스
감 면
동 남아
과 천
아 닙
산업 을
잡 을
시험 을
증가 율
받았 다고
예산 안
성 사
작업 이
경찰 의
계속 해서
모 레
최 악의
강조 했습니다
서비스 는
정치 를
노 이
분 기에
애플 리
갈 등을
제품 으로
티 켓
애 초
테 일
외 신
이 성
쪽 에
조합 원
선 관
야 외
반대 하는
영국 의
설 을
서비스 가
개인 이
생 성
이 밖에
이 인
처분 을
가구 가
보 조금
규모 다
투입 해
대 대
중 장기
초 래
개최 한다
시행 령
라인 을
꼽 히는
크 림
가능 하며
때 부터
추진 해
세계 에서
꿈 을
살 고
그 만
관 절
경쟁 이
윤 석
있 겠
구 나
삭 제
과 열
증 상
전 라
업체 에
배 포
마지막 으로
환 자의
당 에
2 시간
200 3년
급 식
관 해
탄 소
수익률 을
10 분
길 에
말 하는
최 우선
국 으로
분 들
드 루
교육 청은
t i
부 총리는
b e
겨 레
지원 센터
안 양
9 천
청문 회
유명 한
유 행
스웨 덴
팀 장은
인스타 그램
박원 순
준비 하고
초 대
당 했다
지 낸
조 항
발표 를
아 닐
제 철
p d
표 결
경 과
허 가를
무 사
복 원
심 지어
효 성
유지 했다
분 산
감 도
깊 이
유 죄
면 에서
방 치
업체 는
50 만
고 시
통 을
리 다
사 립
동 남
착 공
3 배
싸 움
구성 해
공정 한
강화 해
업 그레이
제품 이
달러 로
인 기가
확보 한
서 의
국제공 항
베 르
대 교
내 각
국토교통 부
중 립
왼쪽 부터
이유 다
라이 언
그렇 지
지 수가
시 안
선수 들이
동 결
경 향
광 장에서
매 달
연 루
해 지고
기능 이
박 지원
반영 해
u e
경쟁 을
중 점
밖 에도
씽 크
있 으니
로 도
돌 봄
수치 다
페이스북 에
농 민
매 장을
분석 해
엄청 난
회 수
감안 하면
중 대
체 제를
관 찰
앱 을
합리 적인
중 이며
득 점
애 널
이 것이
인증 을
연 다
행 진
비 와
유 공
가족 이
나 도
시 의회
부 회장이
후보 자가
조 율
kt 는
두 려
결정 에
그래 픽
31일 까지
문제 의
녹 색
골 목
전반 에
뒤 집
스토 리
이 메
목 격
경우 에
허 브
게 다가
고위 급
걸 음
폭 로
벗 어
구 직
비율 을
의 정부
학생 이
생각 합니다
않았 다고
개 시
대 원
대형 마트
아 프
오 름
중 재
예 외
신 조
여 명
김 대중
거 장
정 수
아 이를
목 숨을
일부 를
링 크
모 르는
브리핑 을
배 럴
행동 을
장 례
출시 했다
만 이다
알 게
아직 도
콘 셉
판단 을
넣 어
부정 적
장 려
질 문을
장 악
제외 하고
기념 해
차 익
님 이
발견 된
눈 이
유 한
복 구
200 2년
확인 한
회 관에서
없 었던
경남 도
약속 했다
무 소속
복 무
이사 장은
토 록
인용 해
건 너
얘 기다
말 해
유일 하게
인테 리어
판매 가
후보 자의
학 회
생각 하고
여 유
박 주
패스트 트랙
졌 던
위치 했다
도 움
해 체
100 만원
행 태
렸 고
에게 도
멘 토
놓 치면
서 도
입장 에서는
자료 에
테이 블
국 경
복 을
y o
해 임
우승 을
환경 이
어 깨
p ro
체결 했다고
원 주
엑 스
특 위
접 어
기 증
끊 임
독 점
얻 은
자원 봉사
있어 요
캘 리포
중 에는
직장 인
대 립
제안 했다
원 천
파 티
모 듈
내 륙
s c
았 지만
바람 이
이후 에
차량 이
모델 로
유 포
국내 에
되어 야
컸 다
지적 도
치 에
강화 하는
나 간
시키 기
신 축
법 의
19 90
건설 이
과 장은
아카 데미
1 명이
하 였고
주장 하는
원 격
속 도가
기존 에
공 영
케 미
여 부에
내 며
쌍 용
누 릴
회 관
타 자
에어 컨
신 입
보 행
남 도
보 자
협회 는
나타 내고
한국 거래소
노조 는
론 칭
선 수가
표 창
기 까지
밸 리
이후 에도
생 생
엇 갈
동 성
초 점을
인 류
서울 에서
사물 인터넷
성 추행
사항 은
ic bm
kb o
이뤄 지지
이 병
콜 라
정권 의
명 백
12 시
방 북
점 의
신 의
때 보다
선착 순
관 내
과 태
여파 로
있 느냐
양 이
은행 과
랍 니다
v er
정신 을
리 니
사 스
택 배
보 면서
인 치
수 지
신용 카드
서 서
무 더
p p
과 제를
수 천
해 지
로 의
전 했습니다
렸 던
조건 을
선 보이는
건 전
않아 도
클래 식
먹 을
산 은
내 역
장 비를
국가 가
르 노
보 훈
입장 에서
확보 를
마 스터
3 회
팀 장
선거 를
운영 에
근 처
구성 됐다
말 이다
자유 롭게
나 경원
수험 생
총선 에서
lg 화학
소식 이
국토 부
계획 이
그 려
뿌 리
어떠 한
급격 히
친 화
커 버
필 드
가 질
함 과
10 억
긍정 적
부정 적인
세미 나
1 로
계 는
해 킹
발생 해
관 행
아 무리
맞 지
야 권
모 빌
제 이
방송 통신
영화 제
뉴 얼
발표 할
권 익
모 은
h t
공직 자
민주당 이
네 덜
역 세
스트 리트
연 주
면 에
나라 를
a e
규 탄
방송 을
관계 자들이
언급 한
사업 장
온 다
관 할
사무 실
정확 히
주변 에
점검 을
그렇 다면
올 바른
매 월
고 한
김 치
예정 이라고
편 이다
c d
세계 적으로
살 균
모 았다
상 에서
국회 를
포함 됐다
제기 됐다
적 응
되 지만
도 모
발 간
더 스
소비 자가
해 가
아이 들이
유 효
평창 동계올림픽
흡 수
구 치
액 의
ap os
안 희정
메모 리
이 대
m l
안전 성
무 인
감 과
14 0
눈 을
논의 할
어 버
날 씨
박 종
찾 았다
플 라스
다 문화
여 서
1 30
지원 해
돕 는
그 럴
불과 하다
금액 을
정도 가
세 의
내년 도
필요 성을
법 원에
전 격
거 뒀다
제 네
농림 축산
어렵 다는
완 공
16 0
북 측
스트 레
토론 회
여 권
아 리
회장 과
시작 됐다
야 간
두 에
저 평가
주목 을
진 정한
00 만
알 리는
층 이
롯데 마트
기념 촬영을
견 인
넥 슨
구매 할
부 착
심 은
즐 기는
환경 부
네 티
사 각
업체 들이
있었 습니다
이 태
부문 에서
이 혼
카 이
속 도로
실 리
규 정을
확산 을
아 빠
하 남
3 명이
방문 객
이 견
협력 해
블 룸
가능성 에
전날 보다
인 턴
학 기
재 현
호 기
세 우고
구 단
득 표
평가 다
군 과
삼성전자 의
사 후
생 겨
메 인
봅 니다
출연 해
있을 지
김 광
집행 유예
변호 인
층 을
식 물
토 크
않 기
머 리를
알려 졌습니다
다 루
200 만
소 감을
언 어
입 시
하는 지
주차 장
않았 습니다
대 단
l ng
l pg
한 류
트 롤
우리나라 의
수 강
국 과
조 류
이 념
가입 자
티 드
연 일
자금 이
1 번
민 의
과 일
느 낀
범 위를
나타 났
소비자 들의
주의 를
아 메리
진 과
구 름
4 개월
6 억
it y
위 주로
그 랜드
마 는
국 에서
벌 인
우 대
민주 평화
f i
사업 과
음 식을
이 때
공 백
않 겠
공간 으로
영업이익 이
조사 는
플랫폼 을
코 너
휴대전 화
재 차
전 으로
내년 부터
의원 들은
업체 를
석 이
처 가
협 박
알고 리즘
쓰레 기
때문 입니다
실시 하고
방안 이
수요 를
히 고
5 조
19 80
바 랍니다
하 세요
베 네
상 과
성공 한
미 애
오 일
청 정
밀 려
이 화
것 이라
사 옥
수준 인
벌 써
드 립니다
보 겠습니다
법 제
약 을
추정 되는
권한 을
jt bc
ma in
정 으로
성장 할
폴 리
청와대 에서
신 혼
삼 아
크루 즈
컨 벤
송 금
진흥 원
학년 도
쉬 운
스럽 다
도 중
삼성 바이오
동 행
부 활
아니 라는
이해 찬
보 강
올해 도
1년 간
황 금
미 친
유 가족
이어 갔다
올 리고
검 거
셔 널
타 격을
가 요
에 코
미 안
별 다른
번 의
한 겨레
지적 이다
내 릴
말 에
수 차례
줄 일
십 니까
폐 렴
후 배
나가 고
아시아나 항공
농 식품
거 친
이라 크
관계 에
25 년
리 면서
기준 이
조 정을
거 절
마련 한
법 령
전 보다
커 질
상 금
가계 부채
받 으며
많 고
렉 스
있었다 고
들 이다
화 웨이
다음 에
편 입
국민 에게
부 양
증 여
오 브
g e
저작 권
영 화를
메 가
스카 이
견 제
일제 히
병 을
부 근
정치 인
충 실
해 졌다
밀 집
거 점
손 실을
이 내에
신 생
수 송
경 신
비판 을
활동 이
2 개월
환 자는
탄 을
민주 노총
부 합
유 세
갤럭시 노트
디 션
옵 션
회 로
협의 체
통 행
사업 이다
주택 을
벌 였다
살 려
늘어 나는
있을 까
이른 다
지금 도
들어 선
캐피 탈
메이 션
안 정을
자연 스럽게
kt x
구 리
타 입
성 한
비교 하면
시 위를
차 트
개선 에
파 주
추정 된다
화 할
날 을
이야 기가
시 그
넥 센
애널 리스트
력 은
중 반
진행 해
용 량
이었 지만
강화 할
물 려
해 고
선정 해
브랜드 를
100 여
6 명
st r
증권 은
인구 가
산업 이
플라스 틱
이 곳
시 대의
어 촌
조 현
쓰 러
안 의
않 지만
떨어 지는
같 아요
항소 심
얻 었다
값 이
원 정
직 면
연 한
깜 짝
클린 턴
지배 구조
상품 권
스위 스
소 위
줄 이고
켰 다
박 상
추 후
제기 한
식 약
업무 협약
브 로
회사 에
종 가
진 실
모 의
기 독
추 미애
m e
임 종
사 단
컨 소시
승 인을
수술 을
어 드
불 참
실 습
산 화
지금 의
꼬 집
지 오
걸 고
때 가
반박 했다
제 천
문 건
금융 권
시 기를
명 목
치 솟
b a
적용 한
방 안에
더 라
않았 고
무 효
그 걸
코로나19 로
제품 이다
행사 에서
푸 틴
저 를
결 론을
나 서는
미래 통합당
정 작
문 체
산 학
단계 로
발표 하고
계획 이라고
파 는
도입 을
신속 한
영 광
하 원
트 라
센터 에
상담 을
구 호
11 개
노 력이
학생 들은
출시 된
판 교
물 량이
o k
재 발
우 호
캠퍼 스
정상 회의
탈 출
끼 리
와 인
명령 을
러 닝
안 으로
리 버
소 리를
학 적
하나 인
근 절
요구 하고
i e
빌 려
조 지
것이 며
신속 하게
네덜 란드
어려 움
붙 잡
잇 따
좌 우
대 치
500 만
주 방
프 란
보고 를
포 괄
보좌 관
마 주
파 일
컨소시 엄
기대 감이
털 어
그 랬
실 망
발 주
진 주
제공 해
사태 로
대표 로
스 테
거리 에
비 치
입 력
마 일
키 즈
갈 아
렌 즈
상태 가
임 신
대 금
올 릴
바 뀐
사업 비
모양 새
저 항
en d
유 용
m ent
4 회
대상 에
부문 의
본 인의
소 한
동 종목의
후보 와
손 흥
미 가
고 성
화 의
구축 을
시가총 액
왔 습니다
국방 부는
선 으로
밀 리
도 덕
교수 의
하 드
특검 은
세 금을
유 성
편 이
조 한
군사 적
도 어
받아 들여
기 름
김 수
임 의
추 억
요구 한
질병 관리
않았 던
소 집
논란 에
됐 는데
실시 했다
날 이
상 권
한국 은행
대북 제재
그 것을
행 보
h e
흑 자
원칙 을
결정 이
제도 가
배 후
공 작
재단 은
드 의
휴 게
계획 에
사 격
왔 던
하기 에
기업 이다
펼 치고
추 출
재생 에너지
20 분
최고 경영자
저희 가
자 재
선거 에서
컨벤 션
구체 적
퍼런 스
방법 이
고려 하면
근거 로
방법 은
업무 협약을
사건 과
tv 와
로 버
과정 이
거주 하는
개 성공
폴 리오
00 만원
지 혜
생 기
정 면
사 찰
로 지
저 도
공 적
수 거
ke b
19 0
감 사를
거 예요
들어 가는
등 판
심 으로
탱 크
신 인
아 티
주 당
반 기에
법 원이
송 도
셀 러
올해 부터
시나 리오
발견 됐다
뒤 늦게
저축 은행
패 러
성장 성
비판 이
증가 하는
업종 별로는
포함 돼
김 명
지 닌
화 합
아 나
예 보
합의 가
론 이
중 증
거래 량
임 차
산 정
맡 았다
개발 해
1 만원
선거 에
애 로
민 은
전년 동기
독 도
3 억원
남북 정상회담
크 지
증가 할
불 가능
자동 으로
기관 인
네티 즌
탈 북
요 인이
해 명
얘 기가
k ai
메이저 리그
원 가
전국 의
농림축산 식품
안 동
가 짜
집중 적으로
기술 로
보 도를
우 병
갑 질
총 회에서
증정 한다
패 배
으로 도
넷 마블
선 배
심 장
3 위
니 어
법 안을
3 분의
병 역
성 동
믿 고
크 고
보내 는
앞장 서
분 과
원 화
승 부
im f
재 고
탄 력
발 부
옵 니다
코 오
나누 고
무 조건
고객 들이
허 리
유사 한
목 이
승 무
찾 고
갖 는
범 행을
개정 안을
상 세
용 이
장 벽
논의 했다
대 면
아니 지만
당 뇨
되 거나
살 을
기 사를
보 니까
정 관
토 리
b b
탈 락
반영 한
마 자
우리 은행
7 억
집 니다
애플리 케이션
합 작
1 10
지방 경찰청
7 명
야 생
특 강
밝히 고
포 지
세종 시
해결 할
h a
진행 한다고
12 개
아이 가
정부 서울
b n
양 은
5 억원
자 진
오 랫
in t
강 세
없 기
나 쁜
끌 었다
했 었다
치 기
싶 어
숙 한
지 리
전 송
대 여
대사 관
바람 직
오 찬
마련 할
영 세
파악 하고
인 식을
였 지만
손 에
편 을
광 명
유지 할
총 수
고 고도
하나 가
청 렴
지역 이
코오 롱
정보 가
환경 에
코리아 는
프로젝 트를
밖 으로
보호 를
평화 의
작업 에
수출 이
널 리
않 겠다
했는데 요
방어 체계
시 오
흡 연
말 은
일 종의
이 준
고 수
체 납
금융 지주
늘어 났다
서비스 업
미 뤄
확대 에
모 범
업 소
에서 만
보 드
거래일 보다
o m
대우조선 해양
님 의
국 인
소득 이
공약 을
워 드
· ·
감 에
위 법
검찰 청
들에게 는
생 길
벌어 진
크 라
업계 에서는
끄 러
절차 에
취 한
제기 했다
신 장
r a
카카오 톡
어려 움이
말씀 드
발 병
좌 파
맺 고
과 반
비타 민
오랫 동안
관 영
성 매매
단 백
강 세를
일 인
수준 이
상품 은
같 아
1 대
전년 대비
연 평균
까지 도
설명 회
나 요
00 원
증 인
완 전한
사 들의
재 활
절차 가
독 특
사망 자
양 극
최고 치를
랭 킹
없 게
드 래
병원 을
동원 해
중 독
과 잉
시 카
드루 킹
금 리는
취 지로
치 면서
희망 을
아니 었다
만들어 진
하 되
500 만원
s a
줄 이는
당 과
등급 을
건강 을
퍼 니
하 실
현 수
종목 이
재 능
반려 동물
개최 한다고
인터뷰 를
투자 자들의
30 일까지
케미 칼
규 제가
유 상
협동 조합
르 기
2 억원
2 인
합 성
않았 다는
a 씨의
기준 금리
그 들의
시스템 이
경찰 과
든 다
의 지가
창 고
동 탄
합 쳐
부진 한
관련 해서
메시 지
중소 형
되 기를
출시 를
꼼 꼼
영 웅
세계 적
5 만원
줄 을
포트 폴리오
메달 을
투자 자의
제 에
산업통상자원 부
안전 관리
반응 이
d m
선고 했다
테이 너
의원 들의
대중 교통
합의 했다
방식 이다
선택 할
리 게
물 과
출 하
았 다고
노하우 를
모델 링
전 술
냐 는
사람 들을
산업 은
4 명이
극 장
과학기술 정보통신
ic e
늘어 나고
교 역
행 위에
마음 으로
아 끼
10 만원
유 료
감 은
동 대문
다 채
보 전
미 흡
조 각
퍼 시
안타 까
자리 매
상태 에
조직 을
행사 에는
안보 리
연 의
근 육
곳 곳에
다 를
번 영
해 줄
걸 려
처 리를
수상 했다
사 외
요구 에
주장 하고
사이 의
겨냥 한
삼 진
순 차
정도 다
지난해 보다
g 20
iv e
캠페 인을
공 중
들어 갔
nh 투자증권
어 업
김정 남
헬 기
자 칫
여성 은
열 을
기관 을
서 와
자체 를
모 른다
위 장
이 것은
걸 린
교 실
정 경
데 스
학 규
의 문
포 를
기업 들은
남 미
일 명
역사 적
펼 쳤다
일어 난
2년 간
돌 이
스피 커
강조 한
한 도
총리 의
시민 이
스 파
무 릎
도 급
기상 청은
keb 하나
전 에는
있었 는데
리 콜
버 거
교육 과
지 불
홈페이지 에서
않 다고
남 구
스 프
적합 한
차 이나
오늘 은
전년 보다
송 환
위치 해
레 저
돕 기
잡 는
우 울
사모 펀드
중 지
담 을
이 론
번 역
선언 했다
남 겨
프레 스
몸 에
망 이
책임 자
무 성
대응 할
출 생
우 유
특 성을
육 박
성 희
연 이
대회 는
하나 는
한 창
시작 한다
스타 벅
설치 해
모빌 리티
법인 세
전국 에서
블 릿
하 노이
일 산
전환 을
말 할
기준 에
현황 을
들어 갈
아 일
외 곽
하이 브리
는 가
답변 을
퍼시 픽
v s
충 격을
사 카
진 도
저 감
혈 액
손해 배상
무 대에
식 과
갖 췄다
공 관
보건복지 부
소식 에
기 쁘
자 들과
만 은
카드 는
여 가
수 성
지표 를
보 냈
성적 을
중 복
먹 거리
특 유의
팩 트
임 금을
넘어 서
오 면
올해 로
호 조
중 에서도
미 얀
v e
3 50
5 배
키 스탄
담 았다
한 계가
마이 너스
보 합
이노베이 션
대 국민
8 명
연계 해
곳 곳에서
과 기
괜 찮
무역 전쟁
우려 도
김 주
w e
옷 을
모 비스
구 에서
국무 부
더 민주
중 대한
at e
억 울
수 한
보고 서는
대 림
소비 자들이
방식 의
정유 라
역 전
불편 을
장 인
의미 다
들 인
선 과
키 움
미 아
훌 륭
발 송
첫 째
원 인이
담당 하는
사랑 의
자리매 김
해 달라고
셔 츠
약 간
가구 를
속 초
여 부는
그 리스
8 억
태 도를
일 고
웹 툰
책 정
지지 율이
관련해 서는
편 에
국가 주석
없 었
p r
손 학규
관 세를
출신 인
죽 음
그 것은
타 르
초 대형
가 벼
홈 플러스
p m
약 한
불 만을
전 사
l te
메이 크
통 영
시장 에서는
가 려
21 대
맞 춘
서 대문
저 하
뒤 로
행 정부
들어 서는
요 인으로
야 말로
실 용
도 박
c s
경 희
스 캔
동 서
현장 의
중 진
텍 사스
기술 은
성 장이
이 씨는
이 니
학교 에
김 형
시 흥
논 쟁
자유 무역
소 음
사건 으로
대책 이
확인 된
설 이
출 장
이 렇
부회장 의
위해 선
제공 된다
시즌 을
매 장에서
색 을
성능 을
중 이라고
워크 숍
절 실
정책 은
to main
포 스터
컨 테이너
블 라
제목 의
철 학
행 위가
박 병
설립 된
센터 가
미사 일을
범 한
회 피
않는 다고
개발 과
200 1년
운영 할
대구 시
sk하이닉 스
채널 을
내 리는
폭 스
파 운드
전 장
세 일
혐의 가
주의 가
소 와
방 지를
안정 적으로
드 리는
넘어 섰다
2020년 까지
치 유
3 루
주문 했다
과 징
다 각
시설 에
반 환
개인 은
영 수
분야 를
연 말까지
전 동
면 밀
화려 한
의원 도
역세 권
1 단계
나타 내는
피해 는
강경 화
비트 코인
관 으로
신분 으로
실 정
태 블릿
유 진
장 성
퍼 포
지원 과
두 로
설명 을
손 상
리서 치
기술 의
담보 대출
장 수
장 난
조치 로
인 간의
풍 이
했다 면
전통 시장
제 조사
이뤄 진다
국세 청
의혹 과
솔루 션을
멈 추
대회 에
차 질
w ho
오 류
화 상
매 진
것 보다
on e
나 중에
적 격
처벌 을
보여 주
c u
강 좌
수 감
출신 의
반 성
프 는
어디 서
주 얼
해 볼
말 도
장 르
도 청
60 대
않 습니까
이름 으로
가족 과
1월 부터
봉 쇄
미얀 마
서울 과
선거 관리
sk텔레콤 은
산업 에
표 명
부 딪
50 년
봐 도
볼 넷
주 유
을 까
인 접
함 유
타 는
컨 트롤
락 을
일 도
제기 된
일으 킨
연 초
박 차를
돼 서
적 시
대 부
정권 이
민주당 의
대한민국 을
냉장 고
성 범죄
해 지는
on g
하 길
막 대한
비 싼
업계 가
얼굴 을
기록 해
나 란히
임 용
운 수
분양 가
전 염
교 원
클 리
피 로
나타 나고
아일 랜드
참가 한
슈 팅
공급 을
나 스
상공 회의
조 성을
호소 했다
지원 사업
대 입
받았 고
재 계
북미 정상회담
맞 고
유지 하는
이어 갈
약속 을
중소기업 의
취 하고
즐 거
로 직
유리 한
회사 인
도 우
일반 적으로
es s
염 두에
부 통령
책임 이
두 드러
신 도
스 킨
퍼포 먼
이뤄 지고
자 책
연설 을
관 료
로드 맵
외 면
며 칠
응 모
진단 했다
렸 다고
이상 인
증가 로
5 분
조치 에
관리 가
et f
협 조를
향 상을
지역 별
되 게
17 0
시 점에
호응 을
공급 하는
찍 은
풍 을
돌아 가
신청 할
못 한다
트 와
점 수가
선 행
반기 문
스 쿨
타 결
해 요
15 년
로 마
교통 사고
느 꼈
내놓 았다
디자인 을
저 우
리 면
강 정
남 해
3일 간
제 와
적용 할
국가 정보
바 라는
광 양
의 학
가 볍
한국당 이
협상 에
끈 다
않 으
규정 하고
제 안을
단순 한
투자 에
성공 적인
인천 시
평화 와
마 침
구 형
력 으로
자 다
농 장
201 5
경고 했다
발생 하지
업그레이 드
장 기간
학 대
자유한국당 은
텐 데
ws j
성 주
산 이
응 시
설명 하고
편의 를
봤 을
소통 을
나라 가
일 과
보내 고
학생 을
인 체
열 병
업체 와
감안 해
그 건
환 급
민 이
모 인
들여 다
카 르
인 센
각 별
세 븐
6 차
직원 을
심 상정
액 션
금융감독 원
탄 탄
이 천
계획 입니다
la y
내용 에
조속 히
개선 이
총 회를
집 으로
건 국
이뤄 지는
천 군
일 괄
야당 의
인센 티브
베 를
잇 는
가구 의
나라 의
재 로
문 에
결정 한
10년 간
공론 화
한 계
테크 노
인 에게
유가 증권
구성 된다
터 는
예방 을
공간 이
기 원
예정 이며
쿠 르
경 보
이 진
한 우
건 수는
확대 하는
전 산
막 는
직원 들의
비 의
효율 성
준비 하는
이름 이
확보 하고
수 확
예산 이
스 팅
수 호
5 개월
뮤 직
미 용
보도 가
문제 도
모으 고
17 개
3 60
l y
막 아
저 의
결 산
나타 난
하 천
5 회
중 이던
과 목
휴 직
프로 야구
주민 들은
인 양
결 심
뜻 이다
v o
키 우
둘러 싸
상 해
요 원
분석 된다
방 에서
직접 적인
대부분 이
독 서
삼성 s
월 급
다니 는
환 율은
m d
1 순위
상품 으로
스 틸
중앙 회
자로 서
진술 을
전 액
연 도
따 져
지나 치게
다 우
거 두
공 립
끝 내
높 고
방 과
달러 에
6 조
나 은
코 미
고 지
내 셔널
협력 사
사람 에게
해 서는
비 에
추세 다
성희 롱
많 지
일 찍
소식 통
잉 글
맞 았다
정상 적인
차지 하고
상관 없이
교과 서
앞 세워
일본 에서
나 눴
끊임 없이
아이디어 를
스 톡
거 다
느끼 는
대 하여
다 르게
받 으
보여 준
거장 들의
에서 다
연 히
주민 의
순 이었다
거 세
비 선
제기 되고
죄 송
생 리
준비 가
조금 씩
워 낙
공 존
날 짜
바꾸 는
받았 습니다
최적 의
프로모 션
b p
관리 하는
프 가
의미 한다
저소득 층
검 사가
200 여
연 체
동 양
입 지
확보 했다
이 외
추진 을
드러 나
광 복
사망 한
용 으로
커 졌다
인프라 를
관심 과
학 부
공동 주택
국민의당 은
비난 했다
스 케
준비 했다
기관 으로
줄 이기
송파 구
이 적
상 주
동아 일보
해석 이
산 지
트럼프 의
멘 트
연구 팀은
과 제로
저 출산
여론 이
시설 과
관 점에서
자산 관리
역 이
교육 부는
지난해 부터
레 스토
b u
해 준다
소비 자의
않 겠다는
사업 부
확보 할
s oc
노력 하고
경 이
북 도
남 동
위 촉
게 는
위험 을
재 활용
확실 히
공 소
무 용
실 점
t it
첫 날
이 원
우리 나라는
보 시
본 사에서
없다 며
이었 고
지시 를
지속 될
다 툼
지급 하는
기독 교
붉 은
전망 을
자산 을
이 통
상 실
상 회
김성 태
군 인
군 요
하 시는
걸 릴
40 여
습 기
요청 을
금 으로
학생 은
개발 하고
투자 공식
웠 던
손해 보험
지 사의
양 식
주목 할
이어 가
원 인으로
전 도
헤 어
혈 압
보 라
지식 재산
해결 하기
레스토 랑
빼 앗
나왔 습니다
고 생
매 를
가 와
우 러
고객 들의
휩 싸
열 려
정책 위의
금 전
감 각
다음 은
현실 을
국가 대표
c i
아직 까지
스페 셜
소득 세
생 계
급 감
성장 세를
언 더
학교 를
다 할
선정 했다
정확 하게
국민 적
안전 하게
앞 당
창출 을
손 으로
만 인
워 터
아이 스
평 화를
여 성을
법 원의
어 스
지진 이
치 로
하이브리 드
권 도
벌 이
퇴 진
실리 콘
출신 으로
증 인으로
형 제
공급 이
조선 중앙
벤 츠
이 뤘
나가 야
삼성 은
롯데 그룹
낙 찰
보여 준다
50 여
분위 기다
불확실 성이
엔지니 어링
찾아 가는
찾 지
렸 지만
해 마다
지도 부
탄 핵심
성 으로
선거 운동
당국 에
항 암
즈 가
2 부
발언 은
지정 된
공유 하고
획 기
대표 적
근로 시간
외 출
에 프
r i
어렵 게
부가 가치
c p
그렇 다
가 결
문화체육관광 부
이 한
마 당
그 라
권 리를
강력 히
홈페이 지에
차 관은
인 플루
창 당
마련 하고
우 가
제 2차
구성 원
버 튼
것 인
발 탁
초청 해
연 은
했 어요
리 모델링
적 어도
물 었다
추구 하는
승 점
여행 객
해 명했다
엑 스포
티 스
애니 메이션
확보 해
확 립
4 층
불 공정
시 속
마련 을
되 던
금 과
15 개
동북 아
로 서는
9 명
꼬집 었다
고 스
산 책
쌓 아
선호 하는
역 학
잡 기
보 낼
청와대 의
문화 가
사 들은
안 녕
소 액
안 다
통신 이
전국 에
1 의
합의 에
정세 균
단 위로
마 땅
구성 돼
수산 물
실 세
컴 퍼니
동향 을
미 는
기 인
대학 의
3 가지
거 라고
고 개를
김현 정
화 될
점검 하고
성공 을
공 장에서
제공 한
국민 과
한 마디
고려 한
방문 을
그 나마
환 자를
논 리
커 머스
일 대에서
재 원
영향 력을
파 가
독 재
안타 깝
회의 가
현 은
덴 마크
원 고
예상 보다
199 9년
포 용
전체 를
셀 로나
개발 이
더 는
다행 히
경영 권
파 라
스 틱
고려 할
페 라
ce s
의 지
사 육
여 부가
파 격
공식 적으로
귀 가
판 이
과 시
붙 어
행 보를
한 글
비용 은
대통령 도
경찰 관
전반 적인
내 리고
위해서 다
전 선
성과 가
부 당한
안 성
검찰 개혁
ne t
우 회
가깝 다
제출 했다
형 의
금액 이
막 고
달성 했다
꾸준 한
터 가
좋아 하는
헤 드
마크 롱
이용 객
장 거리
펀 딩
이 겨
취 를
서울 시장
나 옵니다
적용 된다
독특 한
아 모레
자 립
광주 시
보 편
안 고
방식 이
만 료
즈 의
대 사는
자리 가
김종 인
도 달
마음 에
행사 로
지 소
다 이어
남북 관계
영 은
빠 졌다
만 나는
과태 료
9 억
슬 라
진 압
넘 은
박 용
갑 작
바르 셀로나
베를 린
금융 위기
양 해
우병 우
의무 를
달 간
분야 는
주한미 군
아닙 니다
갖 게
국토 부는
회의 는
확실 한
카 를
될 지
리니 지
하나 다
측 과
운 이
아 랍
구 급
터 뜨
압박 을
직권 남용
서울 시가
지원 하기
고용노동 부
예 선
기다 리고
째 를
회원 국
힐 링
l d
도시 로
좌 석
차량 에
불 투명
일본 에
분 권
독 려
브 루
느낌 을
구 와
됐 기
보고서 에
신고 가
금호 타이어
20 개
중요 성을
블 리
화 력
평가 는
필요 할
나 게
뛰 어나
패 스
안타 를
가구 로
피 를
마 포
제 임
가격 으로
회사 채
수시 로
i z
가 파
여 신
d r
교섭 단체
핸 드
비 디오
쪽 에서
예정 돼
촉구 하는
사전 투표
였 다고
병원 은
연결 하는
성장 에
부 드러
만 성
합의 한
인식 이
인 텔
투자 하는
거 기에
조언 했다
6 회
늘 리는
외국인 과
선언 한
책 이
박정 희
형 으로
데 는
차 의
대선 후보
디 언
실 효
선택 을
마찬가지 다
제안 한
반 포
불 량
박 수
국 감
실 과
테 라
노 선을
증 시가
차 이를
분석 도
꺼 내
일반 적인
부 사장은
고려 대
고 심
밀 양
팀 에
업종 에
알 바
누리 꾼
안정 적
알 리고
폐기 물
금감 원
성장 과
크 레
표 가
선 보이고
하자 고
그 들은
다음 날
익 산
사회 에서
l in
만 났다
엔 씨
성 년
컬 렉
평창 올림픽
총 장의
파 생
선진 국
종합 적으로
경 은
소 지
복잡 한
선 체
든 가
이 룬
오 스
이끌 고
더 라고
표현 을
인건 비
d na
신 작
199 8년
추가 적인
만으로 도
활용 하는
대가 로
아 들이
아 스
편리 하게
막 판
포 켓
빨 라
손 잡고
타 석
됐 으나
디스 플레
199 7년
서비스 에
김 승
보도 합니다
승 마
거 대한
김 일
사람 들에게
5000 만원
미 치지
in fo
부문 은
에 르
통 장
고통 을
영 리
참여 하고
청 장은
짓 는
검토 할
아쉬 움을
확진 자는
혜택 이
경 부
단계 에서
광고 를
경 정
체결 한
어 져
프레 임
긍정 적으로
겁 게
미래에셋 대우
례 를
로 로
대응 하기
수출 입
가 산
하락 세를
판 정
차 원
도 보
소 장은
미사일 방어체계
기본 적으로
놀 라
휘 발
정부 도
tit le
노력 할
학생 들에게
온 도
기술 력을
이 듬
유 류
청 장
몽 골
도입 한
탁 월
w to
삼 척
연 수원
기대 감을
정보 기술
여 는
드러 난
두 번째
클래 스
00 억원
말 부터
자 부
신청 한
모 닝
형 은
조사 할
시스 코
w h
나 름
종 은
지역 과
자료 는
도입 해
거 기
23 년
경 의
임 에도
통 화를
비 전을
사용 을
설립 한
t a
착 륙
늘 리고
속 에서도
강화 에
u 3000
0 으로
받 으면
사무 총장
걸 로
모 자
측면 이
들 려
총재 는
김 연
시너 지
참여 한다
악 한
위 주의
식 사를
확 신
나 들
보여 주고
못 했던
파악 됐다
시 신
선생 님
연 기를
사람 도
감 상
가족 의
고객 은
경 위를
식 에는
특별 검사
만 하다
주 총
이 도
교 황
브랜드 로
디 움
굳 이
주관 하는
인재 를
용 기
남 겼다
다채 로운
방 통
전반 적으로
구청 장은
5000 원
민주평화 당
사용 하고
국가 를
제작 한
이듬 해
석유 화학
“ ‘
동 월
정보 보호
통합 을
혐 오
중 형
안 과
사 장을
력 에
만 만
역할 이
인 사가
행 진을
스트 리
선언 을
움직임 이
화 제가
ib k
오 버
시 달
타당 성
질 랜드
캠 핑
전국 적으로
강 수
교육 의
급 속
김경 수
사 면
적용 된
확대 될
7 회
거 둔
한 시
자신 들의
바 꿀
국민 들
활발 한
실적 은
일정 이
로 그
중 의
야당 이
이어 져
무 한
뉴 질랜드
그렇 다고
레이 더
6 억원
모르 겠다
트럼프 는
11 4
열 리고
조 종
현대차 는
금강 산
13 개
등록 을
영 역을
사태 에
버 린
신 화
사 임
움직 임을
수석 이
녹 취
지도 자
학 자
것이 었다
프로그램 은
의 석
여 건이
파트너 십
실시 한다고
휴 양
명 단
cl ass
올해 의
승 계
인근 에서
타 로
총 선을
챙 겨
늘 면서
확인 하는
롯데 백화점
특별 위원회
국민 일보
회 생
3 시간
한국 전력
지키 는
고객 들에게
홈런 을
국 비
정 도를
방문 하는
금 의
묻 자
아파트 는
노 원
영업 을
주장 했습니다
관 제
있었다 는
지 위를
시작 할
크리스 마스
워 킹
재산 을
명확 히
정 과
계획 은
1 등
거 리는
평 범한
잃 은
해외 에서
실 수요
여야 가
40 분
꿈 꾸
높아 진
추첨 을
주목 받고
무엇 을
네트워크 를
나타 날
조 짐
학생 들을
의원 에
노 르
시 계
14 개
조 약
적폐 청산
빛 을
통신 에
현 상을
재배 포
쾌 적한
2 단계
앞으로 는
일본 을
높아 졌다
버 려
뱅 킹
시장 으로
확인 해
샤 오
쓰 지
내년 에
뭔 가
소방 서
김 선
일 회
a 씨를
아니 며
다 름
kb 금융
개 정을
어 른
남 긴
비대 면
떠 난
w or
피해 자가
p br
민 관
적 도
마 산
일 선
역 에
승용 차
중 이
중앙 은행
레 벨
르 지
현대 모비스
영등 포
s er
a 는
역 으로
소 추
평 년
빨 간
김 장
스마트 시티
캘리포 니아
아파트 를
해 설
곤 란
물 량을
국제 사회의
필 름
송 영
주 신
찾아 가
서비스 로
타 수
50 만원
발언 이
투자 는
추 격
희망 하는
의견 도
심 리가
유상 증
1 사
어 우러
각 국
오 사카
포인트 를
었다 는
200 만원
김 세
저지 른
높아 질
시 인
다 스
향 을
파 기
은 폐
1 위에
조 의
세력 의
한국 투자증권
펀 드는
1000 만
이익 이
u ae
축 적
수상 한
이후 에는
바 겐
레이 크
그 라운드
넘 치는
취 할
악 성
종 으로
적 자를
사람 과
냄 새
손 쉽게
한진 해운
가 습기
시스템 은
이틀 간
출 퇴근
100 명
못 하게
타 이틀
2 심
어 지고
이 철
마 포구
국 고
덧붙 였습니다
업무 에
순차 적으로
생각 했다
날 아
농 구
금리 인상
느냐 는
오늘 의
바 가
영등 포구
과기 정통
반영 된
단 절
무 대를
후 에는
진 실을
전 진
고 래
수익률 이
타 협
초 고
업데이 트
유 감
3월 부터
리 츠
혐의 에
침 묵
브랜드 의
대상 자
외교 적
교육 과정
두 루
거 는
법 사
이 윤
운영 해
h p
데 도
16 개
패러 다
불과 했다
2 명을
마케팅 을
커 넥
불거 진
나서 야
아르 헨
속 으로
계 단
보여 줄
채 워
드 라이브
했 으면
조 업
경우 에도
주 사
k 스포츠
할 까
불 황
상 습
u g
총리 와
문제 다
b 씨는
하기 를
민 감한
신 산업
긴밀 한
총 생산
파이 낸
배 임
슬 림
소득 주도
강 동
작성 된
로 가
휴 식
찬 반
나 흘
상승 을
관계 없이
트위터 에
기대 가
정 진
변 론
셔 서
내 놓고
주 파
혹 시
홀딩 스
파 손
15 만
이 들에게
증 강
전경 련
때문 으로
욕 을
여름 철
영 구
흔 히
방위 비
개최 된
시 연
안 건
시 일
남성 은
모 씨
늘 리
삼성바이오 로직
부 상을
맥 스
반 납
조 에
가능 하도록
스마트폰 을
걸 친
제일 제
트럼프 가
나 갔다
다 중
우 세
사실 이다
못 하면
m an
바람 에
투자 자들이
1조 원
박영 수
요 건을
여 지가
삼성 의
화재 가
되 었고
양 육
제기 된다
주 권
소재 를
체 제로
선거 구
수 업을
참가 해
음주 운전
물 결
음식 점
곳 도
전문가 들의
높 다는
공 지
분 은
발언 에
좋 을
알 렸다
센터 와
ac t
권 력을
엘 라
합 산
코스피 는
관련 이
거리 에서
어 쨌
전 임
리 안
발생 하고
al l
아르헨 티
감독 을
ct ion
9 억원
변화 와
신 당
논 평을
더불어민주당 은
아모레 퍼시픽
받았 던
조건 으로
비서 실장
진단 을
담 겼다
증 대
위원회 와
조치 는
전망 도
국회 는
완벽 한
난 방
번 도
경북 도
반 입
블룸 버그
제공 하기
언급 하며
혁신 적인
구축 해
진 학
현지 에서
숨 졌다
가 뭄
보도 했습니다
배 에
고 사
사이 드
군 민
독립 운동
드 라이
약 정
제임 스
개 관
상품 의
그러 다
대법 관
몰 래
g t
5일 간
신속 히
근본 적인
현대 백화점
징 계를
진행 자
간편 하게
석 방
김 무성
th a
효율 적인
과 감
아르 바이
치 아
이하 로
구 성을
300 만
공 범
선 원
흥 미
00 여
트 래
충 주
답 답
전 방
협 업을
1 부
예 매
일 부는
물 건을
우 편
호 르
없 던
광 산
단 호
12 만
한반도 의
것 들이
원활 한
주장 에
동 력을
지난해 에는
나타 나는
특성 상
k 리그
꾸 려
준비 한
착 한
저 질
봤 습니다
요청 한
길 은
퇴 임
이 석
맺 은
후 임
예 의
개성공 단
휴 가를
맛 이
연 임
터 치
높 인
후 쿠
er s
았 는데
아메리 카
았 다는
발 열
언론 은
있고 요
월 스트리트
센트 럴
신 저
위험 한
백 을
제도 의
디 젤
주민 이
u p
신용 등급
로서 의
40 년
스트 레스
세 력이
대상 에서
일자리 가
바 디
청와대 에
관 악
존 슨
3 주
특별 법
수 신
실 장이
단체 가
정 성
1000 만원
2 p
대 성
부산 의
보증 금
한 나라
키 우는
새 마을
성장 의
시스템 에
제품 과
하나 금융투자
합리 적
장 면을
강 점
관광객 이
사랑 하는
전문가 들이
제도 다
웃 음
폭 은
벌 여
입 소
커뮤니 케이션
중 시
클 릭
대응 에
호 영
토론 을
러 스트
주장 한
다 해
투자 해
교 수를
실질 적으로
진 한
시 술
sns 에
내용 과
고스 란히
업체 들의
핑 크
룸 에서
검 역
삼성 동
생 기는
2 위를
전 재
지시 했다
도착 한
판매 량
매 치
자가 격리
7월 부터
전 철
f un
심 도
징 용
역사 상
왜 냐
저 금리
보다 도
시그 니
시 선을
글 이
2 번
7 조
확보 에
가 루
사업 체
영 사
모습 은
비 드
적용 했다
바 꿨
공 표
요 건
클 러스
구축 하고
근거 가
모델 이
들어 온
지급 한다
입 금
일 의
파 인
토 요일
나 주
피 할
약 물
부 추
김 혜
드래 곤
화장 실
류 를
동의 를
자 격을
스 톱
연방 준비
운 반
교통 안전
대 미
환경 에서
쉽 다
교육 은
히 트
학생 의
크 기
처 방
정 권을
편 한
밀 착
각 자
기소 됐다
자 릿
청와대 와
포 천
근무 하는
ip o
업체 들은
러 브
서 귀
양 질의
국 영
차량 의
tha ad
삼성 증권
용 지
그래 프
그렇 습니다
기능 성
한국 gm
사 다
세계 를
자영업 자
내용 으로
넘어 선
물질 을
거 대
전 력을
수 료
그 들이
19 70
정 선
히 지
학교 에서
화 되고
내 면
매 력을
기대 할
측 에서
통 증
8 개월
앨 범
현지 시각
효과 적으로
삼 성이
제시 해
부르 크
집 이
버 스를
어 질
공정 위
취 해
an g
완 주
속 속
s r
구속 영장
블라 디
라인 업
푸 른
기 저
어 선
옆 에
레 알
객 실
만나 볼
변 을
지원 금을
팔 아
단 장은
형 식으로
아티 스트
기재 부
본 질
이상 은
중 으로
영 토
해 병
구 멍
서비스 도
진행 되며
2 대
침 몰
11 번
넣 고
가까 워
배경 으로
돌아 온
복 용
자신 감을
한달 간
공 여
상 처를
낮 춰
민 선
줄 기
정부서울 청사에서
정 하고
장 치를
배 분
휴 일
1 루
카드 로
동 강
편리 한
증 상을
전쟁 을
많 았고
고 맙
명 동
발언 하고
금 품
소재 로
컨 센서
롯데 월드
샌 드
비 닐
비핵 화를
신한 은행
로 켓
리 와
나 쁘
민주화 운동
발전 과
단계 에
개최 한
연결 해
m p
유동 성
자유한국당 이
민 감
세계 에
끝 으로
하기 가
안 된다
공 단은
사업 도
출 간
토 트
환 승
느 라
후보 에
양 보
신 성장
릭 스
우 즈
인 멸
i 는
분석 하고
작용 할
알 코
5 차
정책 으로
미 스
지 요
후보 자에
억원 에서
러시아 의
무엇 이
피 자
사진 이
상 표
d 램
본 선
서비스 의
미 네
차 장
개최 를
저 히
펜 스
영 진
시간 과
매 트
센터 장은
투 스
가족 을
취업 자
노 스
잇 달아
층 에
울 릉
가상 현실
소개 하고
개 소
십 자
위 기가
마 사
목소리 도
판단 해
가 축
치 즈
단 지를
생활 에
노 벨
증 시는
바 꾼
무죄 를
활성화 에
수수 료를
nh 농협
질병관리 본부
드 리고
전 두
일방 적으로
시 대가
김동 연
5 명이
명확 한
제도 는
다 룬
bn k
기록 했다고
고 대
가벼 운
고양 시
사용 이
혐의 도
무 기를
쉽 고
타 깃
설명 회를
벌어 졌다
사용 되는
데 려
선 물을
알 뜰
비트 코
노트 북
웨 딩
셋 째
떨어 질
냉 동
강 진
바 둑
호 수
기록 할
손 가락
등 산
24 0
감 사의
진 지
명목 으로
베이 스
챙 긴
임 무
청 정기
결정 하는
자 원을
경쟁 률을
방 의
학 계
골 자로
최 씨
최대 의
없 으면
이해 할
감 당
성남 시
싱 글
협회 가
결과 로
조사 와
처 한
사외 이사
송 치
하 도급
m 의
탄핵심 판
필 터
n yt
자 매
결과 다
지키 고
베네 수
검 사는
타 율
a k
전해 졌습니다
적 었다
박 진
지 은
이끌 었다
밖 의
지키 기
기 장
역 설
정상 이
d j
100 년
즐 기
래 도
서귀 포
증 액
기 득
청 과
공유 하는
스 톤
해석 된다
oc k
렬 한
어쨌 든
역 과
고 무
류 현
동 포
건축 물
세계 의
생 애
치 명
다양 하게
법 원에서
특별 히
운 을
일 자
연계 한
0 시
i al
상품 에
알코 올
최 태
않 기로
점 심
2022년 까지
판단 이
실시 할
색 깔
즐 거운
만 났
태 도
대회 가
당신 의
리 라
식품 의약품
부장 검사
가 라
불 필요한
직원 의
영 장이
빈 곤
승 부를
생산 을
남 한
조 기에
서류 를
상 거래
휴 업
했 는
바 이어
균 형을
값 은
지 노
표 본
번호 를
불 가능한
사례 는
비 어
판결 이
부 위원장
구조 가
단계 적으로
진 심으로
발 이
4월 부터
장 식
경기 장
회사 로
시민 사회
cj 제일제
애 국
기후 변화
혈 관
아니 겠
물론 이고
우려 했다
잊 지
우리 에게
이에 요
남 측
대선 에서
외교 부는
선택 한
청 의
정해 진
3 당
적 어
돌파 했다
수사 권
가이드 라인
예산 은
모습 으로
한미 동맹
솔 직
신 차
청 주시
책 은
인 종
증가 에
시작 하는
잡 지
승 차
이어 진다
비 자
소 리가
코 어
몇 몇
보 게
보인 다고
19 3
있 죠
외 과
벨 트
머 무
주택 담보대출
주 면
운영 된다
52 주
연설 에서
공 채
카 테
모양새 다
비 싸
변호 사가
문화 의
오 면서
방 은
비 박
목표 가
연 쇄
리에 이
단체 는
마 를
형 식
생 명을
질 서
전 신
시 다
연구 위원은
신한 금융투자
캄 보
해상 에서
종사 자
속 해
태어 난
결합 해
아나 운
반 을
부 스
기 숙
일정 으로
출시 했다고
내 장
경영 을
힘들 다
금 고
차지 한
불 교
시설 물
강 구
이 창
엄 중
확정 된
김 창
훌륭 한
유 저
발 로
맛 과
일본 과
출발 해
더라고 요
수단 으로
f e
챔피언 스
제2 의
사이 클
용산 구
비 록
종 업
상용 화
해 산
위 조
선수 들의
걸 었다
기록 했고
렸 다는
행정안전 부
은 평
tv 를
요구 가
계약 이
잠수 함
이슈 가
수 제
a u
su b
바 닷
신 재생에너지
소득 을
탐 지
겨울 철
w p
아 까
야당 은
오 산
쳤 습니다
후 에도
11 만
더욱 이
공인 중개
최 장
의 식을
노 란
만원 에서
st art
우 크라
센터 의
스트 라
아 시안
감 으로
인 들은
멀 리
퍼 스트
상품 이
아이 들의
울산 시
부모 님
미 루
시민 들은
해당 한다
인사청문 회
질문 에는
여 당이
안전 처
침 입
양 천
그림 을
65 세
전 분기
유공 자
온 실
틀 을
시 점에서
퀘 어
한국 어
이 걸
캄보 디아
쿠 팡
라 비아
이벤트 도
밝 은
기대 했다
김 도
로 비
해운 대
소 멸
상황 과
위 하여
대 권
힘 들어
하 니까
대책 본부
상무 는
교수 와
재난 안전
취 지의
서울 은
g r
p 2p
도시 의
불 꽃
배제 할
챔피언 십
도발 을
프로그램 에
림 을
실질 적
당 정
존 경
사장 의
기여 한
법 관
졌 을
세 션
학생 과
금융 기관
사용 하지
월 세
김 부
확정 했다
에서 부터
성장 했다
예상 하고
챌 린
사퇴 를
이 경
도 의회
개선 과
국민 은
차례 로
수출 은
시카 고
우 체
금감 원은
가 담
일 일
받았 다는
의 사가
주 춤
듣 는
은행 에
것이 냐
개정 안은
도로 를
주택 은
드 릴
총 리를
문 은
의미 로
위원 으로
만 장
부 장은
인 원은
풀 려
이 세
우 위
자 위
미 투
자세 히
미 드
증거 를
두 를
납 세
가 정의
크 리에이
국회의 장
해수 욕
3 번
업체 로
파 면
성 별
자에게 는
주장 이다
캐 시
악 용
핵 무기
경기 는
없 으며
자 아
b bc
롭 고
정 산
원 까지
주변 의
학 사
고민 을
지 디
커 스
박 찬
스테이 트
잉글 랜드
도시 를
대화 가
평가 에서
사 정
결정 은
이 사를
자동 화
거래 량이
녹 음
어렵 다고
달 콤
졌 으며
국내 총생산
한국당 의
언론 의
내용 이다
김 준
프로그램 이
뚜렷 한
기준 금리를
8 억원
삼성전자 와
효율 적으로
마이 클
보 류
강 사
격 차
바 퀴
원 인은
위 대한
약 세를
벨 기에
기본 적인
활 력을
값 을
2014년 부터
문제 점을
기 성
유 독
명 도
교 민
총 력을
탐 방
길 로
간단 한
펀드 를
정 시
th is
테 슬라
었 으며
보 장이
lpg a
애 틀
8 회
우크라 이나
전두 환
화 질
검 진
제주 항공
프 를
한국 형
대출 이
수원 시
공화 국
일 요일
당 해
앤 드
붙 은
양 승
헌 신
만든 다
산 출
에이 치
으로서 의
소 나
도시 락
체 의
오 스트
짚 어
l l
최 강
만들어 야
40 만
신 입사
상 륙
주민 등록
매 칭
홍 성
피 트
눈 물을
4 배
재 임
월스트리트 저널
몸 이
배 터
수출 을
펼 칠
손실 이
소 니
집중 할
필요 성이
건설 업
벌 이는
체계 적인
보 궐
2015년 부터
소 연
등 재
원칙 에
최 선의
한 꺼
두 각을
방송 은
명예 훼손
공 원에서
왔 고
판매 량이
프란 시스코
쏠 리고
불편 한
텍 은
최 씨는
신 기술
정권 교체
그러 한
스티 븐
극 우
요금 제
j o
3 인
인 지도
윤석 열
언론 이
위 치를
커 진
내용 도
공기 청정기
살 이
근 접
파 를
20 30
완성 차
주도 한
교 보
품 으로
방식 은
넘 기
반 문
냈 습니다
보호 무역
내놓 을
dm z
생명 과학
초 부터
소 홀
확대 와
이었다 고
반려 견
개 학
식 량
관계 자가
건강 에
의료 기기
순 수
추가 경정
공 기업
극 심한
동 영상을
펼쳐 진다
나스 닥
사우 디아
통 산
성 형
시설 은
방송 된
전망 입니다
m ar
지소 미아
순 매
선수 권
산업 부
업 황
세 트를
한꺼 번에
사과 를
농 도가
자본 시장
방 탄
비 춰
아 픈
고 립
l cd
출석 해
재 선
최 경
설치 하고
기 만
노조 가
계속 되고
톨 릭
막 이
공개 적으로
개최 하고
나 눈
끝 나
붙 여
틸 러
금융 그룹
특검 이
공직 선거법
교육 이
문체 부
선 수는
확인 되지
주재 로
사용 자가
7 억원
분명 한
대륙 간
재 편
해 준
고고도 미사일방어체계
색 이
취재 진
선거 가
입 지를
박 사는
연 면적
미 성년
경험 과
것 인데
당 당
보고서 에서
기 분
틸러 슨
여성 가족
프로모 션을
수준 에서
시설 로
체험 할
프로그램 으로
구속 기소
오 세
주 공
연 상
시가총 액은
작 가의
부 부가
지속 가능한
도 매
존 스
the 300
민간 인
정상 적으로
얼 음
금 요일
정당 한
4 억원
페 어
밝혀 졌다
까 다
그 날
넷 플
1년 에
검토 를
모 드
보이 콧
국 악
있 나
부드러 운
모 스크
오리 온
199 5년
매력 도를
전체 가
출 구
건 데
해 변
1심 에서
이메 일
아무 래도
나오 면서
공개 됐다
드 레
스 펙
스타벅 스
비 건
직원 은
이 색
출 력
서비스 와
시설 의
멤버 십
사이 언
업종 은
신 상
부 결
도 르
논 평
이 곳에서
싱 크
강조 하고
외 화
자 존
el s
가구 에
인사 들이
안 드로
시 신을
응 용
코 노
서 쪽
전일 대비
견 본
결정 했다고
순 찰
특 사
정도 는
기간 보다
주도 하는
가 칭
남 을
고 영
미 팅
구매 한
심의 를
걸 렸다
스 텔
아 기
각 오
심 해
진 전
한 경
봉사 활동을
일부 가
아끼 지
아이 돌
4 시간
1 분
몰 랐
20 25년
정보통신 기술
않는다 면
갤럭시s 8
플랜 트
1 200
성 분이
나타 났습니다
아 픔
3 명을
수석 부
가량 의
성장 률이
최소 한
d u
관계 부처
처음 부터
깨끗 한
중단 을
어 쩔
손해 를
령 을
일어 날
청 춘
회복 을
대대 적인
격 차가
태 스크
동 화
그러 자
군 에서
크 다는
장학 금
자율주행 차
일 축
넘 긴
국민 들에게
써 야
생산 성
화 보
베네수 엘라
출발 한
공 청
텍 스
자녀 를
레 나
최소 한의
개최 되는
사회 는
c r
교 부
이 광
베 리
인 제
f n
관측 도
답 게
디 저
문 희
창 구
상승 률
인정 하고
최근 에
우 버
p b
촬영 한
프리미 어
기 쁨
정부 세종
성장 하고
아래 로
으 니까
효과 는
왜냐 하면
한 방
과정 은
사 죄
농 어촌
중국 산
명 문
납 치
메르 스
대 답
세 련
개발 했다
sns 를
강화 하기
이 집
기 동
증 설
해 주고
지시 한
초 에
듀 얼
오 신
근무 를
찍 어
오 해
약 세
최고위원 은
때문 이라고
15 일까지
9 회
cg v
판 로
학 력
안팎 의
달 에
성장 률을
새 겨
가치 는
구성 했다
태극 기
년 생
민 중
강 북
우 정
매 뉴얼
건 물을
음악 을
흐름 이
나 쁨
면 이
지디 넷
가격 의
갖 는다
호 에
모 로
오 던
에너 지를
수 위를
단말 기
모 래
양국 의
교류 를
유럽 의
원 금
사항 이
학교 는
합 법
초 콜
육 상
선정 한
감 정을
살해 한
코 치
목 록
관계 는
얻 는
협의 해
밝히 지
단지 가
계 엄
축구 연맹
비 만
시 에서
신고 리
중 화
저 스
카메라 를
전 복
핵심 은
다음 으로
lg 전자가
같 다고
페이스북 을
10 억원
특성 화
삼 고
종 종
강 서
강화 했다
세 입
신 발
국 어
부 평
대화 의
경기 장에서
트 랜
한 전
동 아시아
시 기가
사 도
우리 를
8 조
오 너
자랑 하는
생 중계
셨 다
늘 릴
앱 에서
항 에
주 소
6 명이
쟁 점
개최 했다고
골 라
12 년
이 것을
트렌 드를
많 을
의료 진
멘토 링
고 성능
소 극
들어 간다
52 시간
샌 프란시스코
였 다는
배경 을
f ed
생 겼다
v ip
이해 를
리 테일
그 와
3 학년
대표 적이다
ag e
효과 적인
그녀 는
종목 을
검증 을
차량 은
5 도
나누 는
출범 한
지지 층
화 제를
차 질이
b 2
체 스터
공 학과
지 냈다
정보 는
세 상에
일본 군
국 빈
11 2
공정 위는
돕 고
개 표
움직 이는
절 을
미술 관
폭 행을
레이 드
톡 톡
플로 리다
의 장이
투자 와
단 식
밝 힐
15 분
이번 에도
연 이어
수출 규제
급격 한
양해 각
타 점
와 도
열 흘
한 계를
지 문
버 티
현 충
특 구
행 위는
집 회에
경향 이
실시 하는
1000 억원
육 성을
30 만원
전략 이
목표 는
함 은
정상회담 에서
내 로
회 동을
서 산
기대 되는
택 지
환 은
침 수
현 대상
자신 에게
워 치
사업 본부
부인 했다
분 해
소 진
바람 을
아무 도
e 스포츠
원 리
국무 위원장이
전 주시
세 우는
폐 업
단지 로
판단 하고
w el
신고 했다
벤 치
당 대표
아이 의
국토교통 부는
이번 주
중소벤처기업 부
대 인
없어 서
서 식
출동 한
기 기를
연구 원이
넘 었다
승 강
고 창
대상 이다
에 버
어 두
늦 은
제 1차
느끼 고
조속 한
인 문
너무 나
전체 적으로
칭 찬
2013년 부터
겪 은
오 승
건설 을
깔 끔
있다 면서
그렇 기
압 력을
국정감사 에서
정당 이
정 화
당 직
재단 이
가 면서
in do
시행 하고
현 안에
바라 보는
분야 별
13 만
공공 부문
김상 조
현실 화
루 미
디 자
말 하고
법 안이
평창 2018
지원 했다
주 장은
경쟁 력이
지지 하는
구속 된
숨 지고
까지 만
생각 하지
정황 이
진출 한
7 개월
당국 자는
구 도
승무 원
꾸 며
마 드리
가 톨릭
치 다
예 능
중요 하다고
c 는
무역 분쟁
이 식
실시 해
q u
혁신 성장
소 아
혼 합
지원 은
공사 에
상황 입니다
중 점을
전문 성을
만들 겠다
날 씨가
정 서
는데 도
초콜 릿
유 인
받아들 일
이르 기까지
뇌물 수수
소방 당국은
국정 기획
맥 락
솔 로
냈 고
끊 이지
적용 되는
무게 를
오늘 날
전략 이다
명 단을
상 봉
서 한
그 야말로
입 었다
현실 적으로
자 외
동 에서
적 대
전 교
스프 링
최 후
신청 하면
사 채
트 에
기 밀
원 식
영장 실질
전달 할
준비 에
e v
단 거리
간 판
총 을
특 가
대 다
비 준
컨 퍼런스
우리 도
세 액
사 직
장 점이
우 스
면밀 히
정상회담 이
기술 개발
고 유
그 해
2 70
대비 한
속 의
정우 택
보건 소
강력 하게
판매 한
살 충
왕 이
청 에서
걸 리는
대 선을
가 지를
인 쇄
씨 도
위협 을
아이 들을
법무 법인
지디넷 코리아
해 소를
진 구
오 페라
일 원
지역 인
엘리 베이
부 에서
야 마
곡 을
총 장을
히 어로
이날 부터
무 렵
유 치를
역 사의
적용 하는
생 겼
인 삼
실적 에
농 도
결과 적으로
들 지
시민 들에게
원 작
필요 로
대학 에
계 승
짓 고
분 배
방 학
도 지사
예 년
요 소를
넣 은
시간 도
무 대에서
게 티
단백 질
신생 아
높 을
1 박
시킨 다
시중 은행
id e
20 30년
딸 이
투 를
항 쟁
증가 해
예비 후보
테 르
5 m
벽 을
서 양
총 기
공모 전
클 로
지능 형
강 대
동 은
밸 류
전국 이
똑 같은
2 사
신청 은
남 경
이벤트 는
모 른
목표 다
증거 가
메뉴 를
대 다수
커 플
소방 관
최대 주주
o d
있 겠다
장 도
영 원
월 평균
냐 고
받았 지만
낙 관
이용 하면
투자 한
이뤄 져야
제 치고
등장 한
동 과
약 국
테마 파크
로버 트
떨어 뜨
상 처
전달 하는
물 고
전자 담배
웃 돌
ac k
선 보이며
대응 해
가능 하다는
사망 자가
식약 처
사례 로
미국 으로
책 으로
고 와
납 입
마련 에
들어 오는
문 에서
운 전을
권 유
매 물
신 영
파 산
김 천
단속 을
급 한
남양 주
현대 건설
양 양
달라 진
18 개
영화 의
인플루 엔
항 구
개정 안이
호흡 기
현 안을
부 검
남 쪽
졌 기
홍 남기
김 은
모 호
지 던
300 만원
사무 총장은
병 이
엔씨 소프트
연 중
그 레
수석 의
대 병원
태 백
범죄 를
메이크 업
백화 점은
련 의
금융 위
설 치를
p h
최고위원 회의에서
개편 을
한 동안
걸 림
김 학
금 품을
알 지
카 타르
예상 치
행 안
실 증
취 지
나 뉘
3 명의
데 스크
10 1
국민의당 이
방송 에
중심 에
명 에서
집중 하고
자체 적으로
재판 이
주 된
그렇 지만
휘발 유
체결 하고
폭스 바겐
메 인에
조 가
전문가 가
정 제
안전 사고
원 장이
인정 받아
로 보
등장 하는
상승 하고
근로 자의
설정 하기
해 방
할인 된
브 로드
하 듯
3 만원
익 을
것 만
국가 에서
도시 철도
것 들을
배 치를
납 득
요 금을
수행 할
총 격
유 선
폭 락
1 채널
물질 이
고민 이
전자 상거래
통화 정책
세대 가
콜 센터
자유 를
sk 이노베이션
t k
같은 데
뜻 으로
겨냥 해
채용 을
찍 고
경찰 서에
사우디아 라비아
그 저
차 게
재판 에서
겨 우
이인 영
민주당 과
국 외
산업 은행
산업 과
배 로
오르 며
디 즈
판단 에
다운 로드
제 과
5000 억원
궁 극
부 지에
기다 려
선 점
접 견
쇄 신
활 력
확산 에
자 꾸
개발 하는
마 의
정상 은
않 나
미 주
국가 와
되 겠
아파트 가
ro e
주 교
둘러싸 고
기상 청
달 할
동남 아시아
서울 고
틀 어
가능 하고
민 심
위원 이
조 는
지역 에서는
세대 의
뒤 인
물 품을
엄격 한
형사 합의
되 겠다
양국 이
의료 기관
누구 도
갑 을
과 감한
특별 수사
국가 에
작 가는
사이 트를
주 부
농 축
경 진
규정 에
실 전
촉 발
한 지
변 신
매력 적인
하였 으며
인 력이
국 책
감 수
의무 화
9월 부터
알 레
방문 했다
지 기도
대 주주
인상 에
자유무역 협정
트 릭
쳤 고
2 로
4 위
불 안정
프로그램 이다
기 조를
처리 할
공 사의
살 리기
테크 놀
휴 식을
부산 에서
회담 이
개혁 의
어 쩌
임 무를
ko re
충 당
징 수
h s
밥 을
lg유플러스 는
에 이스
줄 줄이
300 여
유력 한
삭 감
상 식
말 아야
드러 내고
500 여
적 이었다
확산 되고
더 했다
후보 자를
볼 턴
수 단을
상 도
훌 쩍
버 디
우 를
롯데 는
cn bc
시 네
렌 터
못 지
이 끈
합 참
회담 에서
대 내외
사 천
사 한
여 부와
전문 의
내 세운
독일 의
집중 되고
25 00
아버 지가
앤 젤
받 으면서
교육 에
198 7년
2년 생
신동 빈
공개 할
팀 과
장 시간
명 분
생각 은
품 이
4 번
해 커
해결 하는
바 는
전달 하고
시켜 야
평균 자책
혼란 을
네이버 메인에
일 일이
일 대에
내 면서
거 제
토로 했다
60 일
토 니
전 례
20 23년
이 순
미래 의
갤 러리
맑 은
올리 브
즐 겨
든 든
이 체
덜 어
합 계
실 어
u re
네트 웍
정 국
m w
바 깥
등장 했다
안드로 이드
사전 예약
카카오 뱅크
살펴 보고
하 긴
이용 자가
직 영
공항 에서
취약 한
마 비
았 을
대부분 은
수 질
마 리가
전 제로
강 당에서
무 제한
아 몬
원 대
말했다 고
한 인
서 둘러
제휴 를
해 피
감 추
동 호
보 름
체 력
직원 들은
팬 들의
축 제를
에 듀
중견 기업
갈 라
환 수
헝 가리
없었다 고
어렵 고
포 드
체험 을
판매 하고
사 운드
시그니 처
외교 안보
특 화된
표 지
밀 러
이용 이
사망 자는
대 안을
상당 수
내 세워
하루 에
생태 계를
긴밀 히
로 워
바다 에서
199 6년
개선 될
단독 주택
이루어 지고
시작 되는
속 한
검토 해
종 일
고 마
마라 톤
방 영
대표 도
체육 관에서
나눴 다
모 욕
투자 점수
생생 한
홍 삼
민 사
산 에
법원 행정
상승 에
준 호
넘겨 진
동아 리
배 열
나오 면
500 원
클러스 터
만족 도
브랜드 가
제네 시스
명백 한
금융 회사
코 레일
통신 사
하나 를
사실 과
연락 을
효율 성을
열 악한
보험 금
군 수는
생 명은
보도 자료를
홍 영
보이 면서
몰 고
신 공항
여 전
커 지는
유 네
포 도
100 억원
이화 여대
주 에서
배럴 당
평 론
사우 스
서비스 다
최 씨가
이 현
애 를
상장 기업
포켓 몬
청 취
20 일까지
모집 한다
다 큐
유 학
지적 에
발 레
었 기
장기 적으로
낮 다
미 로
물 건
아이 들
일 렉
공연 이
믹 스
자 구
is a
부분 도
개 성
위 헌
관계 자의
대 세
포 로
대 조
정 호
과거 의
정치 가
미국 산
트 윈
반발 하고
주 며
출 고
유니 폼
업계 에서
메 신저
선 보여
버 리고
가 성
시간 당
우 지
이 득
전당 대회
달 걀
셔 야
동반 성장
차별 화
극 히
복 수
바 나
사업 자가
괴 롭
감독 과
스트 로
발표 하는
선 한
성 균
마 찰
전문가 로
보험 사
끝 나는
순매수 했다
다 주택
자발 적으로
대법 원은
상 이다
무 실
양호 한
경찰 청은
만만 치
보 령
통과 한
돌입 했다
고령 화
건 네
부산 시는
혁신 도시
사 냥
전 작
가 다
할 부
기 내
인수 합병
도입 했다
탁월 한
심 재
하 수
멈 춰
수 칙
김 윤
사업 인
아이 스크
연구 에
맡 는다
하고 도
단일 화
결국 은
정 계
지지 율은
gs 25
이었 으나
오래 된
기쁘 다
발표 에
줄 고
레 버
주장 도
변 수
았 으며
피 하기
단 어
합 창
업종 의
유네 스코
수 년
유권 자
달 을
판단 한
소개 하는
점유 율을
편의 성을
제 고를
이 보다
내년 에는
까지 의
삼성 중공업
인정 했다
서 운
학생 부
장 소를
여론 을
학 위를
sp an
통 이
어 지는
26 0
p ar
학교 가
방 산
시민 과
정 교
센터 장
장면 이
적 힌
강조 하는
폴 란드
태스크 포스
하이 트
대변 인이
의 왕
명의 로
벚 꽃
예고 했다
많 다는
떠 나는
탐 사
악 수
방향 에
변 수가
tv 조선
차 림
사 료
맞 다
이번 엔
2 호
임 박
뽑 아
뇌 물을
부 적절한
소셜 미디어
안전 하고
왔 지만
세 대를
스타 디움
헬 로
효과 도
국제 적
소 스
세 라
후 군
타 다
내 게
야 기
비 하
패 밀리
글 라
들 면
마 에
직 속
투자 할
모두 에게
호 황
아파트 의
산 단
변 하는
계속 될
매체 는
미 미
김 대
마 운드
경기 도는
김영 란
면 의
착수 했다
지침 을
아직 은
금액 의
25 개
대표 에게
전 매
알 렉
요청 에
주 주가
이 력
안 종
놓 여
적 법
수 납
당기순이익 은
종 결
안전 과
안 에는
시 에는
자 라
ec h
조 카
개인 적으로
살균 제
여 건을
형 평
im e
하 러
님 은
차 명
4년 간
불 복
덕 분
직 격
4 50
강원 랜드
보여 줬다
아울 렛
오 직
정보 와
십 시오
일 평균
양 측
이 산
맞 물려
의 정
실 의
조 윤
넓 게
맨 체스터
지 엠
선 수를
조 경
미 수습
암 살
28 일까지
활약 을
협업 으로
교 직원
잠 을
접수 된
fun ction
가입 한
주 둔
캐릭 터를
대학 을
한 쪽
교 정
탄탄 한
지역 주민
세 균
약속 한
서울 에
기초 자산
릅 니다
자세 로
자유 로운
스 윙
온 천
시장 도
비행 기
7 명이
어 리
발 족
발표 한다
위반 한
사실 에
실험 을
논의 하고
팽 팽
당 진
양 재
결 렬
케이 크
조 립
10 조
접 종
무엇 인지
ns c
2 20
향 이
행사 도
위 상을
망 에
외국 어
투자 은행
벗어나 지
인사 말을
보 상을
단체 의
창조 과학
성장 한
사 정이
머 신
소 모
대단 히
놓 을
본 회의에서
음 란
넘 겼다
하 청
20 일부터
2000 억원
강 서구
신흥 국
믿 을
과 다
플 러
들어 와
씽크 풀
사무 처
아쉬 운
법 인을
1 주일
하 죠
쿠폰 을
철저 하게
편안 한
여 력이
풍 력
전달 한
24 년
공 주
유 나이
자격 증
수 만
만큼 은
줄 곧
발표 가
참 배
던 진
갤 러
장 년
바닥 에
주식 형
본 회의를
빌 라
이 외에
이어 지면서
으 론
로스 앤젤
김 우
중 에서는
사라 진
201 4
기 류
마 리를
동 문
플 리
불 가능하다
당연 한
기준 은
겪 었다
한 옥
헌 정
업무 상
목 재
리 드
하다 며
2 기
구매 하는
생 체
소 각
돈 으로
비난 을
한 복
신호 를
무 안
재 학
신경 을
서울 을
하 진
b y
산 의
세 와
탈 원전
닥 터
작 곡
대응 이
숫 자
199 4년
등 기
일 할
성장 하는
일각 에선
이해 하고
감 치
3 종
제주 시
히 로
발 매
제도 적
늘어 났
양 주
본 토
처음 에는
그 다음에
설치 한
석 은
조건 이
수익 이
실 버
차례 의
전 제
18 세
과거 에
추 이를
대법원 장
정치 의
총 무
맺 었다
보 은
r d
행 위로
공 방
대구 경북
오 차
사령 관
학과 를
경 협
전기 요금
권 장
가 난
28 0
떠 오른
으 려
협력 업체
19 세
화 면을
지적 을
실 명
확대 했다
분야 로
기 호
신청 이
자회사 인
러 블
뜻 하는
주 저
최적 화된
무 거운
가 방
가 끔
반 해
검찰 과
단 단
인 원이
간 절
방 울
출시 할
카 라
하 마
낚 시
항공 우주
술 에
인 가를
사업 화
높 다고
불 만
검 정
최 선
분석 됐다
재 미를
피해 자의
일 수록
심 하게
k스포츠 재단
알고리즘 에
이유 에
간 이
죄 를
무료 공개
국 군
르노 삼성
접 수를
전문 점
추 측
금융 위원회
산 재
사망 했다
기아 차는
자 민
nh k
자 정
졸업 생
불 만이
채 팅
통 학
차 종
선물 세트
우 기
마 루
코 는
금지 법
배 틀
모 리
소개 한다
참석 할
설립 을
열 이
주석 은
피 력
넓 혀
무리 한
인물 이다
구간 을
조성 해
애플 은
추 징
f da
소비자 에게
나이 가
추 세를
아 라
안 착
자 세를
대표 이사는
인 사는
네 오
박 태
치 안
의원 에게
귀 를
어 긋
등록 된
5 층
순 방
kb 증권
희 귀
표 기
이뤘 다
스 태
마이크로 소프트
카 지노
비 엔
배 추
가 늠
5000 만
선고 받았다
과징 금
만남 을
이사회 를
트위 터를
결 집
대학 에서
선제 적으로
4대 강
창업 을
투 여
시 총
뉴 딜
9 조
늘 렸다
주 축
출 제
이 사가
공무 원이
2000 만원
정 했다
성 립
윌 리
불과 한
그 것도
선정 돼
장 점을
오스트 리아
전 하는
일정 에
소외 계층
토론 회에서
다짐 했다
추진 한
전략 으로
과학기술정보통신 부
계 정
나섰 습니다
지 부
14 만
왔 다고
횡 단
나 갔
행 운
제 압
아 지
상품 이다
국가 적
임종 석
도 망
우 량
순 위를
확대 되고
미 분양
전 입
소송 에서
관계 의
국민 들은
소비자 들에게
파 급
있 거나
뛰 었다
예 수
사 들
있 기를
공 예
마 인
자랑 한다
확인 을
동 으로
시작 된다
모스크 바
생 활용
투자공식 이
이렇 다
불 허
명 단에
오 케
적 금
한 라
국무 총리가
연동 형
추진 에
만 전을
구 인
사회 주의
정 전
우 산
정 론
수 첩
해 진다
테스트 를
당 권
미 스터
000 원
바 쁜
레이 저
왕 복
이동 이
세탁 기
좋 고
급증 했다
지원 한
리 비아
남 지
토 마
가중 처벌
재 외
있어 도
농 도는
도 주
후 퇴
증 폭
쓰 이는
19 60
드러 낸
버 드
자격 이
도 래
발굴 해
레이 터
외국 인의
영 재
크 다고
김 희
단체 장
낸 드
증가 세를
기능 도
계 파
5 위
기 탁
정 현
10 일까지
2012년 부터
각 광
당 사의
종목 과
미 혼
p re
시간 대
확보 하기
대학 이
확보 하는
않 겠다고
계좌 를
스 퀘어
설 에
강화 와
강 의를
남 의
실정 이다
삼성 그룹
모 토
도 날
수준 이었다
진술 했다
설계 를
관리 할
사장 과
모델 은
확대 한다
받 기도
아무 것도
15 일부터
인 디
환경 과
공급 할
산학 협력
월 간
표 했다
디 스크
정당 의
keb하나 은행
인상 이
상 응
경 로를
뜻 한다
교육 지원
종류 의
일반 인
증가 율이
떠 났다
리얼 미터
입 장은
가 디언
상 장을
신용 평가
중 입니다
어 지
민 경
교 를
싸 움을
10시 부터
럭 셔
칼 럼
오 락
오 디오
아이템 을
준비 해
지난해 까지
탄 압
도 까지
우 원식
각 국의
연방준비 제도
1990 년대
전통 적인
공간 에서
a b
협회 에
분 식
크로 스
공간 에
양 평
분석 하여
아침 에
맡 게
확산 으로
인천 국제공항
셀 프
스 케이
마 가
쳤 다고
언제 나
있어서 다
넘 지
사 표를
s l
텃 밭
관리 와
죽 은
틱 스
상장 주식
받 던
우 파
4 명의
금 천
이후 로
근 린
소셜 네트워크
전체 적인
정신 적
키 우고
ar e
사항 에
폭 격
제한 하는
제한 을
범죄 수사
인플루엔 자
지 질
효 능
강 성
설 비를
예상 됩니다
옹 호
절 도
터 져
박 경
저작권 자
최 첨단
정치 에
겁 다
슬 라이
국 도
호 재
티 셔츠
주 무
스 레
아 키
진 해
시 드
지 었다
낙 동강
벌어 지는
기울 이고
메 드
실 감
이해 가
기술 에
편 으로
작품 은
요구 할
모 르고
국가 는
안전 에
인 수를
헌 혈
바 뀔
공산 당
단계 를
세 척
판단 할
치 과
참석 한다
신선 한
대리 점
외무 성
지도 부가
미 지수
플레이 션
결정 된
재 료를
문 턱
되었 으며
지 위
올리 며
식당 에서
인 성
바이러스 가
활동 하고
감 자
가 량을
코로나19 가
당 황
품 은
u m
낡 은
돼 지고
특허 를
kbo 리그
지난해 에
속 을
5월 부터
강 을
아름 다
티 몬
직원 들에게
불 출마
듯 하다
it h
때 와
50 분
부 르는
이 룰
대 금은
바 리
우리나라 가
워싱턴 포스트
출 원
아 들을
씨 티
적극 적
찌 감치
간 주
오 리지
차 분
2 학년
상공회의 소
여 의
회 와
스타 일은
지 붕
커 다
경신 했다
줄어 드는
가계 대출
제시 하고
이 혜
김영 철
것이 기
헌법재판 소
굳 건
지방 은
6월 부터
v al
않았 을
보 잉
기 어
장관 에
17 만
이루 고
실패 했다
채 소
코 트
수행 하는
앓 고
화 웨
부문 에
들어 설
좀 처럼
약 화
은 혜
위안 화
식 별
학 업
30 개
fo mc
행 정부의
호 우
석 으로
여러 분께
규 격
소 명
서울 역
놓 았다
i oc
김 씨
일 하고
데이 비드
더 한
소식통 은
격 차를
취업 을
부문 을
나가 기로
점 진
시급 한
포 터
사 범
여 섯
연 차
사 거리
삼성s di
거 치
탈 루
남성 의
키 는
사 자
표 는
그 로
토 끼
댄 스
대리 인
전 설
마련 된다
전 락
제외 하면
유 방
숨 겨
마련 해야
겠다 며
구입 할
8년 생
진출 에
3 분
오 기
그 릇
확 대로
으로 서는
없다 면
컬렉 션
조직 의
영 유아
스트 는
안정 화
본 을
싶 었다
커 리
스타 일을
4년 생
측면 에서는
완 화를
창원 시
미래 창조과학
안종 범
가볍 게
유 흥
알리 바
3년 생
초 를
군 청
스 파이
인터 내셔널
김진 태
발생 한다
3 연
최 씨의
목 적이
사회 관계
대선 주
보수 의
협 정을
12 개월
평가 하는
시스템 의
1990 년
빚 을
여 당의
편 하게
9 개월
꼼꼼 히
심각 하게
고 추
1 건
폭 력을
상 하
해 법을
변화 는
실 력을
파 고
하 태
떨어 지고
새 만
창 호
버 섯
국립 공원
진상 조사
위협 에
본 점
캐 스팅
결합 한
대 항
장기 화
억원 이다
루 이
비 극
개인 과
상 반기에
평 일
비서 관은
갤럭시노트 7
간호 사
평가 하고
었 으나
때 려
to p
걸 리
20 만원
사각 지
소 주
불 펜
법정 에서
세 웠
태 영
주가 의
질의 에
석 사
연구소 는
참 고용
시 군
님 을
부 도
영향 은
강 변
성 산
이 랜드
일 러스트
논의 하는
발전 의
캐 슬
게임 즈
형 과
영상 이
인 포
인 준
일정 은
압도 적인
게임 의
민주주의 를
국내 에서는
비 비
작 을
노력 해
문 과
생각 에
l i
끄 럽
지 사를
상징 하는
메르 켈
드 린
일 한
주최 한
제품 인
시원 한
엄 중한
확대 됐다
관여 한
학교 의
나 들이
피고 인
보험 료를
잦 은
올라 온
렌 탈
이 시
지속 되고
이 코노
협 치
차 등
정기 적으로
장 외
신입 생
대통령 과의
2 만원
크 는
계 신
조사 해
8 명이
남경 필
발사 한
공사 와
1980 년
조 망
점수 로
땅 을
마련 하는
대륙간 탄도미사일
긴 다
전 하고
감소 로
딸 을
일 가
가 하고
월 요일
모집 에
적용 을
국 장이
북 극
공판 에서
공천 을
물 량은
다음 주
v p
에게 서
한미 약품
공격 적인
비 영리
키 퍼
용 도
럭셔 리
작 전을
자 나
민 병
내부 에서
사례 도
사진 과
10월 부터
금 메달을
오늘 도
건 수가
이정 미
왔 다는
이 길
어 찌
커 녕
부장 판사는
사고 는
없 지
끝 날
올 레드
하겠 지만
퀄 컴
치 른
미국 인
제조 업체
렌터 카
투자 의견은
상 수
순 회
대학 은
본부 가
지키 지
주 인이
5 세대
끌 려
몰 린
상임 위
늘어나 면서
그 것
출시 한다고
끝 나고
작품 이
카드 가
매 립
잔 류
신청 했다
사 막
못 하도록
노 회
루 이스
서대문 구
방침 입니다
수 협
페이 지
되 었습니다
전환 했다
규정 이
자치 구
수요 에
콜 롬
주어 진다
투자 자는
있 겠지만
되 풀이
수 직
러시아 가
북한 과의
사무 실에서
각 계
일으 킬
신 중한
그 루
신혼 부부
확 고
하는데 요
봉사 활동
귀 농
의원 들
유 보
어 워드
공 장이
10 개월
협력 이
김 원
영 주
도출 한
에 피
본 관
자동 생성
구 독
하지 도
박 탈
로 에
탐 색
실패 한
m r
오 가는
소비 가
의 도가
운동 이
오르 면서
해결 해야
교 차
생각 할
포 상
결 성
해결 에
춘 추
아르헨티 나
접촉 을
조 형
집 회가
개 에
백 운
아닌 지
기업 은행
신청 서를
피 안타
금 연
알려 지면서
기본 계획
크 래
비 한
상 여
특검 팀은
한국 토지
직 결
플레이 오프
지 도록
습 관
축 제가
한 상
밸 런
fi fa
통 지
플라 자
누군 가
채 를
재 검토
골프 장
최고 기온은
했 죠
문희 상
목 사
생긴 다
강화 한다
압수수색 을
더불어민주당 이
포르 투
키움 증권
없 었고
진 료를
누 락
결 핵
웹 사이트
강화 된
세 인트
키 트
총 력
돼지 열병
병원 이
시 고
비용 으로
파 우
기록 하는
끝 나면
이름 은
두려 워
밝히 는
lg 디스플레이
구 니
펼 친다
파 란
드 와
지 사와
느낌 이
관 건
딸 의
씽크 풀이
참가 자
완 도
경 산
가지 로
e pa
부 재
추진 하기로
l f
장소 에서
보장 하지
가 처분
돈 은
금융 시장
일 찌감치
아이 파크
v c
사 원
친박 계
고양 이
가능 하게
칠 레
걱 정이
아르바이 트
였 는데
어 졌다
부 부는
잃 고
6년 생
편 견
강조 하며
웃 음을
패 로
k s
매 직
특 성에
영화 는
취 향
압 축
밀 레
부 임
붙잡 혔다
추 어
서 리
많 습니다
녹 지
프 렌즈
시너 지를
버 렸다
기다 리는
임 기를
바뀌 었다
기술 적
지 수를
실 력
커 지면서
인구 는
국 대
상장 사
인 선
구름 이
화 천
신 원
해양수산 부
지적 했습니다
보 수를
보 였고
주최 하고
주민 들에게
2000 년대
중단 하고
응답 자의
전 성
풍 경
조 로
당 사에서
라인 업을
일 별
넥 스
a a
클 라
관계 자들은
번째 다
세 력을
중심 이
재판 관
축제 는
16 일부터
론 은
체 온
제1 회
브랜드 인
완벽 하게
활발 히
바꾸 고
국제 사회
다 뤄
운동 에
해야 만
증강 현실
슬 러
전문가 를
통 치
수 월
마이 너
제작 해
본 연의
결혼 을
실현 을
심 리를
압 수
도 교육청
힐 스테이트
거리 로
초등 학생
띄 는
파악 할
도 봉
스 런
품질 을
여당 인
유 재
정 년
일 레
난 을
6 대
s pc
f f
대응 하는
감염 이
정 차
초 당
빠 르고
싶 다는
임상 시험
않 자
메리 츠
기아 자동차
어 치를
근거 를
양 심
에 릭
s i
것 임을
폰 을
없 는데
조정 했다
부모 가
부산 지역
부채 비율
절 약
코 딩
수사 와
모 가
5년 생
제한 적
출 혈
강 간
수입 을
인식 하고
미 의
오리지 널
성향 의
4 인
표 면
핀 란드
코스피 가
부 응
위협 이
여야 는
부 속
간 섭
내 놨
경영 진
어 떨
취 지다
온실 가스
이었 는데
형 에
총 액
p t
말 과
공약 으로
나타 낸
16 만
넘 는다
우 의
이 거
비핵화 와
염 려
체 중
감 행
쓰 기
올랐 고
했 음에도
메이 커
출 품
코리아 가
매니 저
민 심을
1년 생
선수 로
협상 의
28 일부터
행 정부가
말씀 하신
3 사
지켜 봐야
대 회의실에서
방송 이
고 혈압
고 백
문화 유산
회사 에서
인수 한
이루 는
유 는
아우 디
있 거든요
원 스톱
평 했다
인정 한
198 8년
채 취
환 산
공개 하고
영업이익 을
머물 고
홍영 표
기업 가
공 세를
시 뮬
처 리가
팔 레
영 종
장례 식
고 액
최 재
득 점을
사 적
고위 공직자
개최 된다
작 물
시간 의
거리 두
아이스크 림
침 대
이정 현
199 2년
방문 할
이사 장이
출연 한
고 장
하드 웨어
유 래
깨 고
서울 로
미 화
저 해
20 명
있었 을
낙 하
결 선
경 위
불확실 성
믿 는다
표 출
익 숙
의결 했다
놓 인
여 행사
열 람
애플 이
음 에
2 25
터 로
독 거
전년 도
유 가가
주장 하며
애플 의
기 점으로
던 졌다
인 물이
역임 했다
만약 에
국가 로
뒤 에는
주변 에서
s cm
정 읍
헤 지
회장 에
있으 므로
척 추
온 갖
전 방위
대목 이다
적 혀
전투 기
언더 파
위 임
윌리 엄
살 짝
목 에
kai st
높아 지는
로 고
달 이
리 뉴얼
임 기가
대 사가
p i
양 구
박 재
발 광
유 학생
도입 된
선거 대책
속 출
파이낸 셜
좁 은
보도 한
전쟁 이
신 은
은행 권
컨 대
위원장 으로
알파 고
놀 라운
한진 그룹
시설 도
법조 계
수용 할
kore a
모두 발언을
사 유가
대 담
자료 가
법 적으로
목적 을
비 결
열 대
동 쪽
넘 을
김정 숙
경 품
500 억원
노르 웨이
ar d
로 만
p os
거 센
특수 활동
자 사의
됐 으면
그 에게
신 안
7 대
넣 었다
신고 가를
펼 친
서초 동
일시 적으로
때 에는
부 친
분담 금
공 장은
수 당을
들 면서
입 구
기 용
활발 하게
구조 로
재무 제
위원 을
시간 으로
내 역을
알 림
챔피언스 리그
기 생
반발 했다
대 두
오 렌
대 고
김 문
스러 워
역 동
지속 해서
중 남미
서 해안
밀 한
해 리
신약 개발
고도 화
희생 자
하기 에는
역 은
연루 된
인접 해
조선 업
일반 분양
크 기의
안 도
살충 제
3 선
빠 질
요구 하며
증거 인멸
다르 지
경영 에
부 연
리 바
중소기업 이
시 위가
권 오
맛 집
가 세
기 해
디즈 니
치러 진
1 7년
플래 그
해외 로
최종 적으로
피 는
양국 은
집값 이
모멘텀 은
중 랑
하 반기에
볼 때
자릿 수
쾌 한
대전 시
p u
달 린
김기 춘
받아들이 지
렌 트
단 원
집 어
투쟁 을
대우 건설
연휴 를
중 산
김 씨가
지 친
정치 자금
보건 의료
단체 인
드 려
하 므로
멋 진
안전 보장이
실 형을
교 사가
느낀 다
참고 인
확인 이
군 으로
윤 영
고 품질
시스템 과
bl ock
셰 프
하 십니까
기회 로
등 에게
우즈 베
법무 부는
법 규
아이 오
3000 억원
대 포
이 곳은
정의 용
질환 을
미 쳤다
분 들은
9 일까지
이동 할
방송 에서
북 쪽
부 적절
광 교
아 의
베이 비
대기 오염
알 라
의원 회관에서
작품 이다
도로 에서
법 학
전망 치
죽 을
강제 징용
기관 에서
그 중
개 량
청년 들이
c b
제시 하는
건설 사
추 궁
잔 여
비대 위
성균 관
투자 의견
요 타
진 천
환 율이
순매도 했다
길 게
김 한
설문 조사
각 자의
5 조원
눈 치
7년 생
큐 브
확정 됐다
창출 에
료 는
함 양
또 다른
의무 가
이 행을
상 부
조 화
유 를
주 범
선 순환
지켜 야
언제 든
여성 들이
대 검
유럽 에서
3000 만원
a y
디 바이
단 으로
들어선 다
지속 가능
재 택
근 대
상승 이
결정 적인
강연 을
노회 찬
2 명의
였 으며
조성 된다
로스앤젤 레스
인물 로
던 져
하반기 부터
접근 성이
온라인 으로
희 는
건 전한
달라 질
인 문학
1 을
방식 에
법제 사법
위험 에
기대 에
다 자
이 면서
회 고
알 루미
작성 했습니다
왔 는데
안 건을
가 사
논란 은
수 분
늘 었고
윤 종
사 안에
권 으로
달러 의
겠 고
정상 화를
오 드
30분 부터
참고용 으로
k cc
부 러
강 제로
or pg
양 적
2 일부터
연 애
경 색
무 궁
향 하는
정황 을
버 락
패 럴
불 로
미세먼 지가
상 급
고 덕
이뤄 져
역사 와
사회관계 망
돌아 왔다
표현 한
반 부패
오 카
면담 을
산업 체
증가 율은
주 호영
분들 께
응답 이
급 성
윤 성
할 리우
그 릴
보 충
모두 의
활동 과
커다 란
시 기는
9년 생
디자인 과
대 동
로 또
되 더라도
의미 하는
돌아 갈
레 오
일어 나는
예 결
외국 계
수입 이
섹 션
지 킬
임 이
최 진
공개 하지
크 라우드
농업 기술
회사 와
내비 쳤다
여 주
경험 할
극복 을
말 았다
한국 은행이
푸르 지오
원 조
탑재 한
양 측은
걷 어
10 위
담 합
태 안
장 터
25 일부터
가족 들이
입 양
태 세를
알루미 늄
김부 겸
노 숙
한 눈에
더 리
부상 으로
통계 청
저 런
규모 에
시내 버스
토트 넘
심리 로
메 트로
일상 생활
화 산
명 인
않 으며
가구 는
제시 된
다루 는
불 매
초 록
사 은
대표 에
법 인의
있는 가
정 재
참가 자들은
태 어나
e le
문 건을
인정 하는
p k
박 준
in e
고기 압
·· ·
태 권도
돌 고
2 호선
공모 를
집 안
특 보
개발 기구
권한대행 은
알 릴
땅 볼
로 열
탄핵 을
6 가지
도 구
체계 적으로
연락 이
가 지는
이집 트
발 목을
일레 븐
시상 식
전형 적인
인정 하지
박영 선
곳 과
업종 이
계 기
이 밖에도
졸업 한
무 작
일정 한
마을 을
계획 도
j indo
계속 되는
적이 지
싶 습니다
익 스
상태 였다
증시 분석
기 무
생각 하면
모터 쇼
치료 가
협의 회는
산 악
유명 하다
규 명을
취임 한
mm orpg
각각 의
제공 을
친 문
게티 이미지
다 녔
마 늘
기 금을
달 해
호흡 을
친 절
변화 의
부품 을
블로 그
바꿨 다
생명 과
이례 적으로
수석 대변인은
격 인
상승 으로
국정 조사
있다 가
전 광
이란 의
검 사장
g y
걸 음을
잔 디
기념 식
주목 하고
사태 의
정무 수석
펀드 의
파 키스탄
들에게 도
될 까
간 소화
더불어민주당 과
해 져
고 유의
줄기 세포
다음 과
배우 자
창업 자
답 한
방탄 소년
바다 의
대 기업의
법 인이
서서 히
고 위험
나 이트
영 농
잠 깐
질 서를
김일 성
마 일리
벌어 지고
전반 을
금지 하는
ig ht
지자체 가
신입사 원
피 부에
확 률이
문화 재단
업 자
돌 연
가입 할
제작 된
홍 익
훈련 에
쌓 여
마 니아
당 하는
감 동
영 민
남 는
왕 의
났 지만
스 리
정치권 의
계 류
지방 세
페 르
해야 한다
노래 를
2년 을
파크 에서
해외 에
외 상
열 에
순 조
장 교
스 페이스
판매 량은
마저 도
미 션
피 니
당뇨 병
차 와
int er
h an
8 강
네이버 는
기 침
조성 하는
부 드
조선 일보
교육 부가
구축 에
공항 에
공 이
관리 하고
렸 을
후보 에게
고 루
30분 께
영상 은
각별 한
잘못 을
이 글
만 으로는
정 류
필 로
밀어 붙
퇴 원
의 구
50 원
아닐 까
문 자를
주 상
시행 할
제 국
소 지가
중 위
h ap
발견 했다
이 곳에
외 로
공 매도
개최 하는
석 에
의 하면
lay er
고 구
부 부의
채용 비리
석 의
아파트 에
얼 어
가동 을
투자 자들은
박 세
포 레
25 만
6월 까지
해소 하기
악 영향을
파 울
패 딩
주 셨
유나이 티드
4 강
수 목
맥 도날
가 에서
겠 죠
독 한
않 으면서
졸업 하고
대부분 을
3 단계
스포츠 서울
부 시
빼 고
연예 인
개혁 에
개선 해
품 에
호 반
지표 가
동 력이
입 체
사업 에서
챌린 지
분 별
부드 럽
급여 를
댓 글을
하겠다 며
대 마
임 은
활동 하는
갑 니다
물러 나
아우 르는
존재 하는
층 에서
필 립
니 아주
14 일까지
20 억
개헌 을
색 다른
예 전
강 호
브라 운
11 년
협의 가
언론 을
개발 은
부 지를
나들 목
케 인
제공 했다
수 사는
그 었다
와이 파이
kt 가
뉴욕 타임스
구 호를
수익 성이
동반 자
연 기가
놓 는
용 납
내부 의
상품 과
보 장을
적발 된
광주 광역시
고객 과
자발 적
퇴 출
서로 의
조 항을
명예 를
반 찬
놀이 터
우려 된다
분양 을
이 럴
불가피 한
장관 에게
18 일부터
으로 의
가 자
임 산
여 당은
침 투
다니 며
벽 에
판매 는
구축 할
식품 의
소녀 상
3 자
유 지를
규 제로
가치 와
가 던
1 억원을
감 성
일본 인
한 참
보이 스피
2 m
있었 기
개선 하고
보이스피 싱
적 임
행정 자치
트 인
결 함
탓 이다
전 력이
취재 진의
고민 하고
신 촌
골 키퍼
플레 이어
구 두
동 종목에
소 련
환 불
운영 한다고
노동 자의
사령 부
파악 해
전염 병
자로 부터
늘어난 다
철 원
4 명을
검 사의
어 의
지상 파
접근 할
진 에어
주최 하는
선수 의
점 령
예정 대로
전기 전자
낮추 는
거쳐 야
kb국민 은행
27일 부터
카 는
에 디션
참석 하는
조직 이
방 콕
보 람
꿈꾸 는
포 부를
공 과
별 개로
시 점을
우려 하는
관심 도는
실 수
비판 하는
60 여
소셜네트워크 서비스
인 원을
때 의
참여 가
b 씨
떠 올랐다
추진 된다
정책 적
무엇 인가
주석 의
지원 도
박 씨는
행동 에
29 일까지
협력 개발기구
판매 에
환경 부는
불 린다
강화 한
주도 권을
내 실
몰 라
부 자
김 여
건물 이
아이 콘
스트레 스를
강 소
불 평
가 량이
토론 회를
홍보 를
어울 리는
시 공사
정 운
기억 이
출 전해
하태 경
부분 에서
문화 관광
만 일
상황 으로
반발 이
25 일까지
계획 하고
항 해
냉 각
199 1년
하락 을
심의 위원회
의혹 도
개 원
2 연
인 출
탄핵 소추
주변 을
매각 을
모양 의
연구 진은
알려 지지
만나 고
수 년간
다 변화
개발 사업
광 범
10 일부터
이 산화
n y
생 명의
자신 과
개발 된
조성 에
보 였던
딸 기
소득 은
호 출
고 집
효과 로
덕 에
시 야
패 권
다가 오는
혜택 도
조성 된
공 세
남 방
유관 기관
융 자
자 사고
산업 용
공 원을
타이 거
듭 니다
가 솔
팩 토리
낮 게
구 민
기 사가
묻 고
안 경
화 했다
뜻 이
부족 으로
일으키 는
공감 대를
발언 으로
한나라 당
주민 과
전 셋
내려 진
언 니
상승 세가
주체 별
50 억원
종업 원
날 은
or t
언론 사
부족 해
재 는
우즈베 키스탄
한 성
무 지
전면 에
돌 며
플 렉스
심 층
네 스
오 키
액 세
주의 보가
선택 해
차 고
직원 들을
요청 할
통 하는
특검 의
작년 에
서울 대학교
사용 했다
정 하는
확보 가
조 별
우 아
퇴직 연금
불 고
친구 가
시스템 으로
피 부를
후 베이
찾아 야
메르 세
양 수
시 니어
새만 금
질 적
199 3년
호 날
났 고
획기 적으로
보 성
인구 의
병원 의
동 창
이 희
레 시
호 평을
장소 로
gt x
오케 스트라
피해 자를
중 이고
신 념
베이 거
부 스를
정치 적으로
프린 팅
신용 보증
파 업을
tv 는
실 손
상승 률이
장 미
끝 났다
구성 하고
블 러
주석 이
건전 성
정비 사업
발 사를
자녀 가
글 에서
빅 데이터를
단체 와
패럴 림픽
자 식
2 건
ro a
임직원 들이
사 안이
투명 한
품 격
법안 은
한진 칼
것이 죠
말 하며
내 의
더 러
성 황
채 로
노조 의
둬 야
해 달라는
구 정
한국 관광
신 제품을
존재 한다
인 형
소속 사
지나 면
확인 됐습니다
가솔 린
오름 세를
부족 하다
첫 번째
1 명은
현 이
기반 이
마음 의
바로 가기
전문가 의
파리 바
라스 베이거
펼 치는
30 억원
주최 로
유 정
추가 했다
융 복합
금융 업
상생 협력
박 지
양 쪽
기초 생활
좋 게
모두 를
매수 우위를
근본 적으로
실태 를
혹 한
성장 률은
개최 해
플 라이
간 다는
훈 은
이슈 를
브 레이크
관광 지
프랑 스의
투자증권 은
포항 시
동 지
행정 명령
소 중
도시 계획
문화 와
w ith
t ime
호르 몬
않 느냐
이 호
의견 으로
보이 지만
감소 할
낮 았다
정도 에
띈 다
론 에
용 역을
노 골
조 장
당국 과
트 윗
많은 데
오후 에
활용 하고
신 주
조 원을
최 상의
리 자
편 향
분위 기는
ai 인공지능
취 지를
디저 트
김 인
저 기
으로 만
바 꿈
컨설팅 을
조사 결과
2 종
메르세 데스
선별 진료
체 는
보장 하는
몰 입
흐름 은
인정 받았다
4 가지
청 량
통 계를
c a
공식 적인
공동 선언
정권 에
전남 도
앞당 겨
달러 화
차례 나
연결 기준
줄 였다
강 풍
정 인
세이 브
수 탁
지주 회사
정 찰
요 소가
징 후
보건 기구
사실 도
심 문
관 중
오른 다
묶 어
주장 한다
한국토지 주택
동성 애
협상 에서
모집 한다고
간 격
5 명의
매출 의
영화 가
돌 린
중 에도
살 기
23 일부터
장기 적인
3 위를
협 회장
했 거나
다 목적
아랍 에
이 케
안타까 운
점유 율은
김동 철
최 영
비 자금
청 도
대 사를
나 눌
4 일부터
테 랑
층 은
대화 와
포르투 갈
발 의한
그 치지
유 전
콜롬 비아
지나 친
문의 가
f r
이산 가족
모 험
최경 환
뜨 거
생활 건강
사이 즈
가져 올
참가 하는
특 활
개인 적인
협약 에
한은 은
대신 해
서비스 인
60 만
국 공립
1 명을
분 들의
부 하
관련해 선
고 강도
날 로
m g
일 체
사법 연수원
원 로
웨 스트
아몬 드
어 민
100 대
재 킷
방지 하기
증 세
위 메
둥 이
못 했다는
선 교
13 일부터
불안 한
한 샘
활동 으로
하 회
보 태
an ce
폭 풍
실 물
차 이는
22 일까지
역 의
은행 을
전망 치를
장 남
국제 기구
시사 했다
조치 다
특 보가
구속 영장이
회원 들이
금 메달
사용 자의
외교 장관
op ec
부 른
선발 된
릴 레이
불 에
가 급
유기 농
예상 한다
제시해 드리는
달성 할
11 일부터
체 질
설치 할
사회관계망 서비스
당시 에는
대응 하고
점 거
토 종
자유한국당 의
통신 비
연 금을
김정 일
s y
시행 하는
시네 마
신 항
원내 대책
쿼 터
70 만
하 야
감 싸
박 수를
닉 스
컨 셉
기 정
대결 을
양해각 서
금 통
좋 았다
슨 은
양 형
1 기
요 약
도 대체
실 사
보호 하기
그 랜
당 협
가격 도
시험 에
주 니어
대 금을
민 속
산 소
롯데 홈쇼핑
전 속
높 았고
다 리를
라이 선
달 래
상 설
랜드 마크
금융 위는
제공 하며
한국 감정
본 문
l t
게임 은
미 만의
2011년 부터
기록 이
불 이익을
2 명은
센터 로
변동 이
전망 에
적 게
매 티스
지 내
데 에
1980 년대
만 히
공시 를
유 병
성명 에서
연 인
숨 지게
지역 별로
정 문
지 식을
매출액 이
마련 돼
표현 했다
새 우
행 렬
반 전
시 점이
아버 지의
양 사는
도 전을
무 척
이견 이
con t
지원 으로
투자 자가
한국 지엠
가 겠다
트리 플
자금 조달
설치 돼
곡 성
초 미세먼지
행 성
공 장의
규제 에
양승 태
환경 영향
역사 적인
정론 관에서
리 로
확 고한
nh n
공 언
출발 했다
기 적
란 다
이달 부터
총 장과
졌 는데
혁신 의
r s
피아 노
증가 와
198 9년
스타 인
났 다고
포함 되지
균형 발전
출마 한
코로나19 의
심 포지
영 이
sk 그룹
ar s
위 례
충실 히
투자 의
30 억
연 장을
중국 어
협회 와
새누리 당은
같 았다
생 이
사이언 스
그렇 죠
세븐 일레븐
구 자
골 이
중국 과의
병원 과
공연 은
지식 산업
알 리기
안전 성을
해왔 던
구 동
내부 에
접 경
수 해
2월 부터
최근 까지
관객 을
경 선을
그런데 도
동 물을
진행 하며
다 하고
발생 하면
좌 절
만원 이다
어디 에
아웃 도어
공격 에
역할 에
x x
아 들의
조사 했다
심리 적
d f
순 자산
없 음
선 동
정의 당은
판매 할
공 습
대 란
박 인
남 산
감사 합니다
여 사는
오 션
취 재단
저렴 하게
사무 실을
유의 해야
위협 하는
하나 금융
타 가
주의 해야
돌아 가는
혁신 과
보험 은
파업 에
눈 높
움 과
버 터
아버 지는
f bi
정 윤
튼 튼
극복 하고
리 브
밖 에서
세련 된
한 두
선거 는
불 행
플래그 십
폭 언
갈 비
답 하고
투자 유치
교육감 은
평균자책 점
오 로지
울 주
26 일까지
달 랐다
시 밀러
제약 은
보험 에
지 체
18 만
난 이
개발 할
의료 원
베 테랑
공 대
주 도로
눈 으로
거래 대금은
시행 된
반응 은
빈 번
영역 에서
수 반
풍 성한
기 에는
운영 되고
선정 하고
다 산
안심 하고
선정 됐다고
촉구 하고
승리 로
전무 는
내 진
르 며
박 이
힘 으로
주요 국
의 문을
광 물
운 전기
회의 에서는
알뜰 폰
계 와
유지 되고
알아 야
비 위
티 는
시각 이
능 동
고 충
창 설
캐 주얼
나타 낸다
2 도
봉 투
만족 도를
늘 린
22 일부터
여 사가
복 제
3 도
6 일부터
대 남
친 일
코 엑스
헤 이
원 산
우선 적으로
설치 하는
주 중
됐다 며
동일 하게
상품 권을
d is
생산 이
말 하면
편 지를
중앙 선거관리
반 경
구조 적
건 지
대책 에
전 기가
21일 부터
선호 도가
심 야
즉 석
새 끼
김정은 이
11월 부터
권 에서
치료 에
주택 도시
낙 태
앞으로 의
향 상에
당선 인은
검찰 총장
3 일부터
예 탁
모바일 게임
제출 하면
찾아 볼
리 터
이 관
국민 투표
경쟁 률
먹 은
증시 의
자외 선
보일 러
한국 수
익 수
밝히 면서
19 일까지
단 가
웅 진
ai 가
디 에
법원행정 처
갖 췄
관 장
결정 될
내놓 지
특별 감찰
점 쳐
하나 도
깊 게
못 했고
대 명
변호 인은
쿠 바
소 문
ar y
적발 됐다
폭 의
보호 법
포인트 로
더 구나
발 대
수 량
효율 을
20 개국
넣 는
하는 가
평가 해
똑 같이
원 안
블록 체
크 스
본 사를
세계 가
수 련
태블릿 pc
24 일까지
롭 지
3 점
결론 이
케이 스
예 로
김 의
그녀 의
안 돼
해경 은
면접 을
본부 에서
커피 를
학 위
박 형
사용 된
1 도
성 모
변경 을
급 을
참 조
영향 력
8월 부터
대한민국 이
9 일부터
17일 부터
2 주간
만 두
철 폐
발굴 하고
소 통과
수 중
증가 했고
파 주시
다녀 온
잡 힌
정동 영
닫 고
서 두
생 명이
지방 자치
중국 해
이 목을
포함 된다
증가 하면서
타격 이
달 리고
김현 미
크 를
래 미안
추진 하겠다
데 시
본 래
못 했다고
플래 시
1 호선
뚫 고
코 드를
의사 결정
감 옥
불리 한
18 대
지정 해
5 번
맡 겨
정신 과
건강 기능
승리 했다
경기 침체
리 케
대신 증권
구축 하는
직 구
청문 회를
관 저
탈 바꿈
넘어 섰
급 으로
거 둘
입 니까
지 도를
품목 을
발표 는
비판 했습니다
팝 업
되는 지
변동 성이
남 았다
개념 을
구성 한
대표 팀은
il l
무 난
나 뉜
티 슈
전략 에
환 이
장 마
장학 금을
운전 자가
인도 적
경 관
메시 지가
버 전
고 흥
공 보
아 레나
공유 할
자신 들이
업무 방해
r pg
이동 해
팀 으로
무 슬림
전환 이
장 점
수 뇌
자격 으로
고 에
최태 원
가 든
뉴 타운
인 허가
판단 이다
챙 기
한 식
신 사업
30 일부터
확인 하기
계 곡
공개 를
있 음에도
가득 한
100 억
나서 서
최저 기온은
그 랑
칼 로
중도 금
예정 으로
순 식
당 하고
아이 디
서 지
보조 금을
특혜 를
트 레
등 한
생활 이
신 사
24 일부터
우선 협상
부모 의
경우 를
여 사
공무 원의
거짓 말
포 퓰
일 원에서
손 보
무 능
신 태
현실 적인
고려 해야
u hd
일 련의
골 로
잃 어버
과 실
센 스
천연 가스
양극 화
나오 자
l cc
9000 원
판결 에
달성 한
백악 관에서
신고 한
일 조
출 루
주관 으로
12월 까지
연 대는
마무리 했다
제한 이
해운 대구
미국 과의
케이 뱅크
티 모
첨 가
보험 을
개 교
12월 부터
밤 에
줄 인
주 영
도착 해
정상 의
탄 력을
선관 위
수 장
우울 증
10 5
성격 이
한 발
목표주가 를
1 학년
추억 을
아 쿠
회 식
때문 이라는
구 본
종전 선언
촉구 한다
지 점에서
여성 들의
우려 는
으 려는
무 형
활동 은
노력 에
지진 으로
프로그램 도
60 세
모 티브
주 름
정관 용
혼 인
300 명
실 린
한미 연합
얘 기도
조 감도
대 정부
그 칠
예상 되고
바이오 시밀러
운 행을
감염 된
대 웅
버스 터
26 일부터
법정 에
산 란
상 반
비서 관이
원내대표 와
흡 입
보 석
옛 날
브로 커
쾌 적
묘 한
전 기를
확인 하실
용인 시
폐쇄 회로
경 사
심 과
조 화를
업종 별
올 레
아랍에 미리
좁 혀
그 친
살 린
현대 산업
일 주
청년 들의
건 수
과도 하게
고등 학생
적용 하고
대출 은
한미 일
처리 하는
후 유
선수 들은
에 디
대 용량
지도 부는
공 문을
에 요
대체 할
입 문
관절 염
개선 하는
작 가가
오전 에
안 면
한국 노총
2000 만
사태 와
교 차로
시 도를
회복 에
가 인
이마트 는
연결 된
프로젝트 는
임 기는
스 마일
열 정
랑 이
벌 일
데 리고
그 들
상장주식 수
추가 해
기 일
생산 한
도시 에서
예방 에
오 가
휩 쓸
양 념
한 파
정치 는
마 카오
웃 도는
모멘텀 을
삼성 화재
전년동기 대비
세계 보건기구
목소리 로
예 컨대
지방 법원
소통 하는
한 남
해 지면서
줄어 들고
꼽 혔다
2 개의
육아 휴직
선택 의
7일 까지
하 동
경선 에서
라 리
at a
3 개의
협력 의
온라인 몰
직 에
가능 하다고
경 력을
승 소
시행 을
아닙 니까
불 출석
할 인을
지지 율을
플 렉
지나 지
창출 과
명확 하게
ass i
st em
농업 인
법 인은
하 의
임대 차
t ech
고 전
니 는
다가 온
김 홍
억 류
전 념
어두 운
쉼 터
들 까지
f m
척 을
이코노 미
제출 할
스트리 밍
i o
발 동
사이트 에
4 주
남편 이
운영 하며
정 씨는
미수습 자
읽 어
정책 조정
이틀 째
볼 루
책임 은
복 권
3월 까지
파격 적인
집 은
이어 야
걷 기
팔 을
바른정당 은
un d
과정 의
인 베스트
심재 철
지속 할
70 여
로 맨
감 동을
지 켰다
달 리는
카 자
당시 의
판 으로
제 7
살아 가는
세 울
보험 금을
년 의
뛰어 넘는
5 일부터
비 무장
인 연을
기득 권
년 이
일각 에서
반면 에
8 일까지
티 아
조성 하고
공항 을
사 안을
교 장
주 세요
19 일부터
단지 의
변호 사를
규정 한
죽 음을
예술 의
속 이
지 정을
영 월
적 이라는
있을 까요
상 자
증가 했다고
것 일
가속 화
업무 보고
공 용
기 피
역 사가
이라고 도
콘 크
원자 재
환 기
초 선
수 치를
롯데 쇼핑
시키 지
5 일까지
개최 할
잇따 르고
경 에
버스 가
lg 생활건강
성공 할
4 개의
하 와이
공략 에
증가 가
프레스 센터에서
나타 난다
먼 지
손 이
반 출
배경 에
간 을
공동 모금
돌아 오는
저평가 성
넉 넉
투자 로
의회 는
27일 까지
조정 이
신한 금융
12 8
전문 인력
들 만
재 판매
산업혁 명의
식품의약품 안전처
사업 계획
스 퍼
조용 히
괴 산
행사 다
심포지 엄
씽 큐
엄 정
경 연
마침 내
as e
부 끄러
인 접한
일 행
모델 인
강 동구
불 합리
연구 가
그 다
받았 으며
끝 이
축 을
주파 수
키 울
스타 필드
매 번
체 제가
살펴 볼
료 품
오 라
지방 의
이 든
그룹 과
나머 지는
거 창
과학 수사
당선 된
매 몰
공급 하고
참가 했다
r assi
전체 에
전문 가는
퀴 즈
p ho
분 포
개방 형
청문 회에서
정신 이
건강 과
리스크 가
빛 이
코 엑
중간 에
주 연
무 리가
거론 하며
추천 하는
감 리
인사 로
초 가
송영 무
받 도록
제재 가
축산 물
압 력
브 레
미 경
해 남
스타디움 에서
싶 다고
미래 전략
쉬 는
도발 에
잇 따른
간 사
전문가 와
아이 들에게
삼 는
무단 전재
당선 인
없이 도
주어 진
매 장에
부인 과
촛불 집회
관계 로
감사 하다
연 석
확실 하게
da y
능력 과
위치 에
이 규
쏠 린다
할리우 드
언론 인
e bs
혼 잡
장관 도
매출 과
d t
자 기가
키 운
생각 보다
날 카
표현 이
연속 으로
토 의
이어 지
성 동구
원내대표 의
폭 넓은
조언 을
논란 의
정 병
참여 하지
서 다
주도 하고
연 다고
18 일까지
몬 스터
김 씨의
제3 자
부연 했다
폴 더블
사 설
증 시에
통상 임금
3 으로
이세 돌
다이어 트
3 30
영 천
각 오를
배치 해
소비 를
개발 도
일으 켜
사법 부
미 달
송 구
여 배우
기능 과
호 전
9 명이
실 장과
당신 이
권고 했다
목 동
백 지
초 기에
부작용 이
원칙 적으로
알 기
이 것
사실 로
씽크풀 과
마시 고
6 일까지
수요 는
구제 역
구매 를
높 지
더 이상
업 은
주 기로
없 었습니다
대화 에
입 단
토 스
fn rassi
방 출
유산 균
짐 을
리 빙
맞 을
세 율
시키 며
잘 라
맡 았던
o l
불 균형
마련 하기
권 위
호 와
개발 자
한국토지주택 공사
세 한
실시 된
후보 들이
lg 는
차지 한다
상황 에서도
되 나
계산 한
평가 에
준 다는
미 수
선수 들을
러시아 는
2 분
의결 권
추진 한다고
지방선거 에서
식 민
폴 리스
행보 에
제시 할
확대 가
대구 에서
3 기
정치 적인
12 일까지
이닝 을
침 을
브 란
닐 라
없어 요
관 문
동 굴
다이 오드
판 타
결정 적
기울 여
ec t
신 성
도로 교통
사람 들과
보 십니까
몰 랐다
에 겐
대학 과
바꿔 야
낭 비
러시아 와
발 목
우체 국
성 분을
3 건
k di
백 만
지정 한
향 하고
옥 션
a v
해수 부
체 코
주가 수익률은
업계 와
1 위로
묻 지
평가 한
관광객 들이
게시 판
준 용
오 게
견 해를
방 화
상 암
유 감을
시민 을
감안 할
끔 찍
즐거 움을
코스 메
국내 산
7일 부터
퍼포먼 스
이 방
적으로 도
국방 부가
핵 과
현 의
적용 될
부 영
허 락
복 수의
밝혔다 고
집 무
보호 에
30분 쯤
여론조사 에서
시 세를
코로나19 에
털어 놨다
근로 기준
곤 두
머물 렀다
가상 통화
와 중에
인정 할
발표 했습니다
눈 물
400 만
나 에게
17일 까지
공 부를
낮추 고
봉사 단
밝히 며
이 치
농 산
방안 은
정 몽
차 입
주시 기
거 를
연 소
이 춘
정보 화
인사 에
50 억
장소 에
왕 세
도로 가
점포 를
도시 바
색 의
전 적으로
관계 자를
행 장
보 였습니다
남 기고
그 쳐
고 로
없 이는
완 치
마 린
다 들
실태 조사
대 검찰청
매매 동향
연 안
아 이는
스마트폰 으로
정착 을
도입 하는
근로 자가
건 넨
언론 들은
바다 에
여 기는
국정 운영
청 담
e 편한
1 주
무 책임
나서 면서
완료 했다
설치 했다
상 사
공 룡
교 대
우 수사
지주 사
변 형
쳤 던
고객 에게는
서로 를
반 이
소 관
집 주
알려 주는
떠 오르고
이상 한
면 으로
교육청 이
80 만
숨 어
흉 기로
세 번째
경 감
기본 소득
행복 을
양 과
어 마
리 튬
발표 하면서
서울 남부
체계 가
지목 된
어 치
배치 에
주민 센터
제 지
8 대
압 류
수행 하고
두 께
손흥 민
달 성을
m in
혜 원
10 배
재무제 표
이야 기는
몰 렸다
29 일부터
내 에서도
선 미
기능 은
병 에
gs 건설
휘 말
우 드
아시안 게임
참 으로
9시 부터
박 모
성실 히
중고 차
구 장에서
투자 의견을
후쿠 시마
6 호기
임 진
철 을
달콤 한
기금 운용
도 도
읽 고
부분 이다
안정 성을
최소화 하기
장 군
용 도로
항공 권
일으 켰다
16 강
흑 자를
201 3
위원 들은
꽃 을
이 목이
북한 에서
캐피 털
입주 자
상승 률을
중단 된
조건 부
커 져
무게 가
수입 차
접근 이
가입 을
장 점이다
면세 점은
관측 된다
솔직 히
원으로 부터
작품 으로
무 주택
14 일부터
악 취
화학 물질
취 항
책임 지는
엘리베이 터
11 일까지
몰 리는
도 저히
카자 흐
프리미어 리그
올림픽 을
제1 야당
앉 은
살 리는
맛 있는
생 필
an t
양 성을
다큐 멘
한국 으로
보도 입니다
지 갑
사업 부문
as f
주민 들을
처 우
오렌 지
진행 을
대 강당에서
g f
용 기를
사례 다
치 사
반대 하고
블라디 미르
드 레스
적용 됐다
급 하게
자녀 의
i bm
김 남
심 어
의 문이
여성 과
마 니
스트 라이
차량 으로
자금 은
김 관
유통 업
자 라는
기간 제
해석 을
특징 을
싶 지
마련 이
견 해
콜라 보
아마 도
이 대로
막 바지
세 법
산업 기술
보좌 관은
청 을
생활용 품
i es
급증 하고
나무 를
방사 선
진술 한
서 에서
주유 소
계열 사인
20 억원
인 지를
한국 도로
중소기업 에
프 의
그 제
지 을
모 건
투기 과열
추천 을
동해 안
라 임
랜 섬
장애 를
인터넷 전문
게이 머
삼성 생명
유 세를
한 가
16 일까지
연 정
사 교육
청구 했다
가급 적
독 보
필 기
동 산
기 분이
들어 왔다
파 의
운영 한
부 다
워 커
피 츠
전라 남도
등 락
바 우
현 동
선거 인
단독 으로
키 스
이상이 면
스티 커
b al
d ti
서 기
가 평
건강기능 식품
않았 기
티 를
도약 을
다시 는
w ti
미 노
추 신
영장실질 심사
전해 진다
평가 와
이 온
대기업 과
악 재
순식 간에
시 애틀
시 위에
양 측이
경 량
6개월 간
분양 권
차이 로
낮 춘
범죄 에
21일 까지
우려 되는
청 계
쳤 지만
않 거나
ic k
좋 다고
선고 를
16 년
언 젠
세 단
톡 스
실제로 는
테 라스
반 격
현 금을
8 k
pg a
막 혀
쿠 데
전문 성
니 얼
노 리는
할 인해
두산 중공업
위 스키
현대 제철
가 할
박 은
통 합의
유지 하면서
폐 지를
성 취
김 관영
체 인지
편 지
피 크
때 만
담당 자
희망 의
파트너십 을
제기 돼
신 율
불 발
들 었습니다
의 제
고객 들을
지급 할
1000 원
척 이
입 에
pho to
연구 는
시 큐
행사 와
재판 부가
위원장 인
패 드
줄어 들었다
해외 여행
아이폰 x
수준 까지
공 은
a 씨와
감사 원
자 생
한마디 로
달 고
긴급 재난
8 일부터
전문 대학원
개 포
출 금
즐 기고
식 이다
여 고
졌 으나
최근 의
돌아 와
알리바 바
추정 했다
10 8
림 이
이 젠
절반 을
재 학생
범죄 의
계약 은
구 석
자신 만의
청와대 를
착 취
양 측의
도착 했다
건물 에
국제 선
따 르
아프리카 돼지열병
용 어
최고 위
신중 하게
전체 회의에서
운동 의
싱크 탱크
범 위가
참석 을
소유 한
예비 후보는
숙 소
티 콘
느꼈 다
유지 해
엔 진을
넘겨 졌다
사 관
재단 에
쥐 고
이유 에서다
카테 고리
얻 기
마을 에서
전환 에
딜 러
진 입을
18 9
교 사는
률 도
이 튿
구조 조정을
리 뷰
절 벽
산업 진흥
구 금
한 반
200 억원
악 수를
배 수
피 가
들 께
위 배
23 일까지
돕 는다
고 공
3 일까지
19 개
홍 천
사 리
직격 탄을
용의 자
절 단
부산 국제
주 머니
제3 차
s ho
샌 더스
v ar
곡 동
인근 의
드 물
예 상을
나름 대로
삶 에
학교 와
밀 접한
은행 장
성 화
다 방
다우 존스
선택 하는
화 하여
개선 된
하 얀
동안 의
죄 로
피 터
자체 는
재단 의
산 과
삼성바이오로직 스
휴게 소
연구 기관
사 학
기상 청에
체 로
검사 와
참석 자들이
대 략
캡 쳐
대책 은
일 이라고
생산 량
풍 선
행동 이
공격 이
대 개
동 래
통 보를
국회 의원이
x t
제출 받은
투명 하게
부작용 을
무 분별
생 의
언 이
뉴욕 에서
모 는
할 당
장 제
경험 한
시장 에서도
투명 성
기반 한
계약 서
물리 적
워 즈
주 먹
충남 도
찍 었다
카 카
일방 적인
반 의
병 사
19 만
농림축산식품 부
사업 자의
사무 총장이
올라 가
많 지만
자이 언
캘리포 니아주
수입 은
발광 다이오드
환 자와
쏘 아
살 리
결의 안
지켜 보고
감사 드린다
일축 했다
우려 하고
부담 으로
요청 이
세 수
조 롱
승 격
지역 에는
위 주
필요 는
시설 에서
외교 관
스럽 고
응 하지
번째 는
명절 을
외 에는
위원 들이
안녕 하세요
남 짓
결과 와
오신 환
가 리지
다 국적
이내 로
논란 과
과거 와
선대 위
j p
살아 있는
타 인
지원 하겠다
본부 를
13 일까지
그러면서 도
정신 건강
201 2
학교 폭력
라이프 스타일
포퓰 리즘
돌아 섰다
문의 하면
날 레
교수 님
평생 교육
귀 순
사 당
성장 동력
버 리
병 으로
주식 회사
서울 이
여 유가
잡 혀
연 례
의회 가
조 영
지구 의
커넥 티드
광범 위한
상승 할
최고 급
신 과
거론 되고
1 급
도입 할
p lay
내비 게이
오늘 부터
우려 의
이건 희
생산 된
최 성
고용 을
진상 규명
력 의
발전 은
구축 했다
5 명을
요 리를
간편 식
친구 를
동작 구
미 쓰
총 영사
우리 은행은
불가피 하다
라운드 에서
로 우
아이 들은
무 상으로
스피 드
유 시민
축제 의
누구 보다
너 는
1 등급
바다 를
루 스
바뀌 는
해서 도
보 직
요 격
생각 도
건 데요
영화 관
성장 세가
지켜 보
임명 된
버 리는
대상 인
거부 하고
구 성이
추 방
상 현
30 명
창의 적인
이라 면서도
토마 토
없 었지만
환 원
자연 스러운
버 는
차 질을
re al
e편한 세상
레 전
2018년 도
발전 시켜
이나 마
g 6
실 효성
학 점
15 억
시작 을
연 탄
추 운
한 도를
리더십 을
o 2
갔 습니다
상 고
팅 을
문 구가
이전 보다
개선 할
요 인을
힐 러리
모습 도
활성화 와
일어 났다
든든 한
참가 자들이
대학교 는
랜섬 웨어
와 이드
김정은 의
국정 과제
알 겠습니다
무 늬
일 감
6시 까지
생 일
축 사
되 지는
롯데월드 타워
19 년
디스플레 이는
전환 하는
2016년 부터
형태 를
프로그램 인
비즈 니
높아 지면서
여 중
한 양대
부 두
00 원에
sk 브로드
단 기간에
지역 민
3 국
22 개
대표 인
장치 가
군 포
붙 었다
2017년 도
보 우
성장 성이
철 학을
검토 한
언제 든지
방송통신 위원회
을 지로
자 카르
수 서
롭 다
하 키
이용 자는
포괄 적
삶 이
문화 적
고 쳐
국 유
10월 까지
초 음
뽑 는
산 유
흐름 에
안보 를
원내 수석부
올라 왔다
준 은
재 건
잃 었다
사라 졌다
가파 른
9월 까지
번 지
대한 통
성공 적
수 락
4차 산업혁명
항 생
설명 하는
증 진을
3 곳
계 기를
전략 과
2 일까지
주 들이
캐 리
비판 도
장이 나
재단 과
활동 의
총괄 하는
b2 b
증 으로
거래소 에서
일 드
헌법 에
참 관
1000 여
막 말
중요 하게
수익률 에
수 교
멸 종
함께 한
조금 이라도
출 입국
기록 했는데
g a
도시 에
시행 한다
피트 니스
g 마켓
플랫폼 으로
부 회장을
겼 습니다
찾 는다
작 으로
한 림
독 성
12 일부터
급증 한
3 명은
행동 은
tv 가
밀 하게
초 코
김 석
키워 드
시행 한
화재 로
보 답
기술 이다
갱 신
en ce
18 년
체포 된
중 거리
ceo 는
멜 라
대 지
kt 의
살 처분
전 원이
탈 삼진
경쟁 에
모 순
권 리가
목 요일
전쟁 의
경부 고속도로
마 시는
음성 인식
책 에
부담 은
만원 이
논의 에
성 적이
현 상은
한반도 에
캡 슐
보호 구역
위 크
사용 한다
단체 를
인하 를
영화 에
면적 은
스 노
아랍에미리 트
삼 양
지출 처
상품 인
유 격
탄 두
이 자를
이미 지출처
이야 기다
나 기
유 적
만장 일치
부당 하게
청구 를
경 청
은 은
2 곳
냈 다고
되 돌아
수준 은
영 문
텐 트
자사 주
케이 션을
공동 취재단
원내대표 를
항 목을
q led
초 고속
당시 에
해결 해
콘 퍼런스
왔 으며
배 신
다 크
마 신
관계 자와
증가 를
맡 는
으 려고
주민 을
비교 를
h ug
기 보다는
창 단
휠 체
하자 면
전망 은
오 징
쏟아 져
식 재료
관 망
차지 하며
직후 인
선고 한
훔 친
선수 단
프로 듀
위원장 에
로 선
화제 다
희망 한다
지구 에
연 재
관계자 들과
선제 적
신용 대출
대한항공 은
넘 기는
철 회를
유 라
두 바이
방송 인
방법 에
구 역을
’ .
소재 의
지원 하기로
충북 도
출시 한다
타 의
지방선거 를
고려 하고
청구 할
격 상
작업 은
응답 은
정 쟁
우 라
표창 을
강남 권
받 거나
터 보
합동 으로
본 다면
불 은
블 라인
급 히
레 인지
흑 인
ic o
됐다 가
주시 하고
손 익
배우 는
직원 과
유 틸
혐의 는
시상 식에서
준비 할
서 브
첫 날인
지 킴
도 피
공 안
lg전자 의
hd c
e p
데 서
유방 암
유 대
회장 으로
슬 픔
통보 했다
이동 하는
플 란
펀드 에
없었다 는
가져 야
명 소
경 인
낮 췄다
자 마자
까 닭
지적 한
쌓 인
소통 의
패턴 을
의견 에
득표 율
중소기업 과
약 자
분 자
있었 으나
자동차 를
광 장에
한 양
단체 에
감소 하는
구간 에
노선 은
참가 할
과기정통 부
환 호
이용 자의
다 발
서 포터
이르 렀다
양 상을
입국 을
넘어 서는
맥 을
카자흐 스탄
으 므로
c k
비 도
대통령 께서
세 르
자산 이
협상 은
변화 하는
제 동
계약 직
주 기를
이미 지가
여러 가지
매 물이
b t
먹 기
2 선
채 권을
사 형
조 양호
소 영
속 도는
워싱턴 dc
생산 에
유 안타
경기 도가
배 울
가 죽
학생 들
향 했다
봉 을
뒤 에도
비 축
직원 에게
금지 하고
항 체
과정 과
당사 자
칭 을
거부 한
아리 랑
방향 과
지 성
s d
빚 어
액 티브
디자인 으로
정 정
죄 가
적 자가
불안 감을
횡 성
자택 에서
4000 억원
정 형
관심 은
13 년
유지 하기
보 아
문 성
제 도로
애널리스트 는
12 억
1만 5000
본부 에
두 리
최 상위
우 면
보 스턴
고 소득
비슷 하다
논의 한
쌓 은
생각 이다
권력 의
곤 충
환 송
부산 대
번 씩
70 대
부 위원장은
이 형
데 자
증 은
서 야
교체 를
c f
모델 의
처리 에
영 암
1일 까지
홍콩 의
어머니 가
알 선
새누리 당이
좋 습니다
청약 을
선 보이
엘 리트
포 즈를
외 치고
문 서를
계약 에
늦 추
표 명했다
시행 한다고
방안 으로
a w
공개 하는
불가피 할
실 장을
6 개의
의 성
기 습
정체 성을
이 장
지급 하고
품 고
번 복
이라 든지
작년 보다
용 수
안전 보건
헌재 는
평가 된다
주 역
우려 해
못 했습니다
2 30
원내 대변인은
서 열
지난해 와
사 양
김 호
산 에서
단지 에
핵실험 을
개 그
표 정으로
싫 어
포 획
상황 이었다
비공개 로
저 와
보 스
휘 두
었 어요
마음 껏
탑재 해
각 기
안 겨
일 들이
타이 밍
협업 해
돌 렸다
머 물러
6000 억원
정 직
시 선
2 위에
대상 자로
우 월
빚 고
반 대를
외 래
페 루
통신 장비
전후 로
4 도
콘서 트를
최 측근
신한 카드
민 석
운동 장
베 어
기구 를
보호 하는
비 빔
아 파
즈 와
총재 가
29 0
늦 어도
탄생 한
업무 가
인사 와
공 단이
정보 의
해 법
대선 에
미 치
연구 원의
관리 자
이 완
언급 을
폐 암
이유 도
scm p
사람 들도
비 하면
정권 은
잇 단
서울고 법
감 산
샘 플
3개월 간
메이 드
대표 단
그룹 에
자리 로
돋 보이는
친 인
파리바 게
카 풀
익 숙한
10 9
스캔 들
됐 는지
통 증이
100 일
놓 지
지급 을
국회 와
선도 하는
보 습
하고 요
국무 조정
iz ation
강화 해야
표 적
되었다 고
노 태
체 적
주거 환경
나타났 다고
결 의를
삼 각
가 도
품 종
8월 까지
숨 은
강 렬한
10 회
롯데 케미칼
다 친
저 수
사유 를
단체 로
경 질
장 갑
v id
외 의
사고 에
핵심 인
연 대를
내 세우
연구 위원
도시 가
무 언
질 타
권한 이
안 해
로스 쿨
아니겠 습니까
14 년
이 언
부합 하는
컴퓨 팅
김병 준
진영 의
일으키 고
국면 에
국제 통화
방안 과
o ul
과제 는
독 감
파 월
사회복지 공동모금
카카 오는
타 자로
러 드
이 바지
주력 하고
시작 될
대 덕
성 찰
파 행
무 가
삼 은
아 사
국 수
현황 과
자 리는
리 프
드 문
의료 비
열 풍
상 수도
조성 할
선 명
한국 소비자
활용 될
상승 하며
포트폴리오 를
국제 유가
기관 지
오후 부터
나간 다는
그룹 을
마 틴
워 서
조윤 선
상한 제
한시 적으로
카운 트
공개 한다
2 박
시리즈 를
구성 하는
주 입
대안 으로
농 약
중 등
당 할
반 은
합 을
it e
부진 이
진행 했다고
사이 로
재 심
볶 음
영 서
덱 스
누 진
배 구
바라 보고
신세계 백화점
탐 구
영 덕
거부 했다
b 씨가
거 치지
하 트
n as
서울 지방경찰청
고 부가가치
소 생
전 량
핵 을
감 성을
후 반기
국가 안전
산업 으로
나 토
체 에
분명 하다
백 인
규모 와
배우 고
인 플레이션
백 두산
않 더라도
장 시
짐 작
50 개
행사 에서는
많 다고
추 돌
10 7
놓 치지
개정 안에
일 지
요청 하는
bu y
나 이에
피 켓
정규직 으로
만 삭
임 명을
기여 하고
개국 에서
주 길
비 과세
서울시 와
응답 자
밀 접
세 분
거래 됐다
적용 돼
전 시장
신태 용
종 양
구 경
공 고를
대 박
였 으나
나아 갈
종 부
일 가의
흐 르는
국 한
제도 에
싸 움이
장 흥
두 지
중점 적으로
도입 에
한 수
출석 한
갤러 리아
우려 에
평가 도
제공 되는
개혁 과
배 운
활동 도
발견 돼
부산 항
현실 이
알 았다
정 할
학 살
소환 해
돌 리고
달 렸다
장애 가
정면 으로
리 던
ec b
의심 되는
계 정을
이 들에
생명 보험
부 른다
입 는
하이트 진로
가정 용
구 상을
위반 으로
미 러
접 할
코 레
있어 서는
기존 에는
알아 서
수사 의
유럽 과
전체 회의를
ai r
해외 시장
연 천
미 소
한국 산
도 울
선발 로
했 음을
갤 럽
보여 줬
페 널
박 기
컨트롤 타워
의식 한
문 구
13 억
예고 한
훈련 은
창 녕
생산 할
표현 의
기부 금
이 만
노 년
코 웨이
성과 는
공 조를
차 근
들 며
공 방이
장 담
마 진
2010년 부터
21 개
운영 이
보유 세
의혹 은
1 승
정 립
본부 장이
지 거나
대 기업이
푸 어스
코엑 스에서
빚 은
선택 이
남 중국해
후 기
ip tv
재 개를
경쟁 에서
지 점을
나오 기
결 단
메 일
단계 별
중소기업 을
인 생을
오 쇼핑
이었다 는
성 숙
고소 한
포럼 은
방 제
구속 됐다
시청 자
특 조
색 으로
지방 분권
만 드
영향 력이
제외하고 는
틸 리케
음 원
게임 이
수 기
지식재산 권
폭 우
택시 를
공기 청정
이 전을
질문 이
피고 인이
해병 대
2021년 까지
오키 나와
이례 적인
말씀 드리
만 회
대책 으로
체 불
볼 티모
듣 지
j w
증 세를
민족 의
탈 세
국가정보 원
마련 한다
장 현
가 정을
게임 에
있었 는지
말 라고
하늘 을
보호무역 주의
컨 텐츠
자산 의
400 여
의미 에서
위원장 에게
티 오
분노 를
본 은
소 나무
콘크 리트
표준 화
추가경정 예산
설명 할
사태 는
사용 하면
10 2
통계 청이
쪽 은
처 장
밝혔 지만
구성 되어
포기 하지
채널 a
언론 과
수학 능력
글 과
코 르
사 유로
물 밑
국무 위원장의
적 다
3 차례
기 지를
건 넸
사 정을
늦 춰
이주 열
11 억
접촉 한
긴 장을
선거 제
다 닌
개혁 이
상승 률은
창 을
보 리
하 계
동 양대
버튼 을
우리나라 에서
국 익
찾아 온
전화 로
상당 수가
직 에서
가지 가
wor ld
시행 에
박 해
n ation
선 풍
거 취
서울시 의
11월 까지
강 하다
폭발 적인
부진 을
시 국
심 사가
팀 에서
여론 의
해소 하고
결정 됐다
니 스트
퍼 블
슈 틸리케
달 았다
소 원
부동산 114
sk하이닉 스는
인간 이
퍼 져
비 리를
이후 의
열 쇠
구 사
1000 명
천 천
허위 사실
아픔 을
금융 당국은
최저 임금을
프로 골프
증 원
스마트 홈
아 내가
스터 디
우 상호
판매 되는
화성 시
콘셉 트
주 전
환경 의
호 로
적 재
국방 장관
조 종사
만족 도가
o o
방문 은
벌어 질
공공기관 의
텔레 그램
유틸 리티
식 도
치 와
지 칭
수 단이
수사 관
반영 하는
벗어 난
반영 할
스탠 더
원활 하게
원 룸
겁 니까
부산 은
근무 한
거 라는
집 필
역사 에
주 었다
일부 러
모 직
저 자는
유용 한
연료 전지
군 부
입장 에선
전략 은
하 성
매트 리스
남 원
글 라스
대한 상의
결 단을
워 너
페 미니
흉 기를
싣 고
분양 한
구입 한
반 짝
7 시간
상태 입니다
함 정
st x
극복 하기
나타 나지
중 장년
코미 디
남아 있는
등 극
나라 에
추 도
드러 났습니다
전망 하고
거래 에
기구 인
선택 했다
한화 는
등 에도
2000 원
볼 을
구 이
재산 권
퇴 진을
제 소
충 성
라운 지
시절 부터
증 후군
22 만
화면 에
사람 으로
내 과
지구 는
테 니스
보 수가
발견 한
i i
황 재
세 상이
1 곳
대 역
돌아 갔다
허용 하는
전문 적인
대 왕
폭행 한
무너 진
산업 부는
차량 과
조 준
종 식
적 이라고
준 법
볼루 션
지정 학적
특 급
소 사
성 금
스톡 봇
덤 핑
연 달아
국무 회의
바이 든
직접 적으로
1 세대
남 다른
강 은
점유 율이
분석 되고
변 속
바뀌 고
5 시간
감소 하고
이슈 로
교 복
증가 세가
나 만의
100 주년
의무 적으로
나와 서
침 략
7000 억원
디자 인이
평가 한다
간접 적으로
행 장은
소비자 들은
유일 의
제주 도는
나뉜 다
충 무
피 어
령 이
필요 성
용 은
생산 하고
정당 을
얘 기는
귀 성
달 라며
옮 긴
참여 정부
a 씨에게
편 이었다
최고 치
중 을
로 컬
외 부에
만달러 로
렸 는데
6 명의
모은 다
영업이익 률은
존재 감을
중요 하지만
위 함
옥 천
북한 군
주택 이
지급 한
사단 법인
시 승
랭 크
부담 금
자 궁
했 더니
펀드 가
3000 만
모 텔
도 라
보수 당
대한민국 은
순 위가
심 폐
믿 음
읽 는
지역 이다
이루어 진
공 평
시대 적
11 조
ds r
했 어야
산 성
추천 한
작 아
남북 이
대 관
단계 적
미네 소
주택 의
셧 다운
어디 까지
분석 에
협의 회를
군사 령
검 경
야 드
란 을
부과 하는
호소 하는
국제통화 기금
공 방을
대 의원
명칭 을
인 내
이재 민
프로그램 의
낮아 졌다
검증 된
파이 프
유 착
베스트 셀러
공인중개 사
뛰 는
어 릴
업데이 트를
게티이미지 뱅크
부인 하고
걷 는
행사 의
도전 하는
가 하는
된다 며
닷 새
정도 였다
최 악
무 이자
여기 에는
메 카
삼 았다
뇌물 공여
연구소 가
기업 도
김영란 법
테마 로
답 이
브 릿
석 희
단 양
라이언 스
천 재
후 생
영업이익 률
밑 돌
삽 입
청소년 들이
불 안을
테이 션
내놓 는
땅 에
제 4차
배 기
국내 에서도
시즌 에
ul l
모 임을
네이 루
친구 들과
for m
개 도
객관 적으로
80 여
출 전한
의 의
증언 을
체결 을
냈 던
신한 은행은
완 판
총선 에
행사 장
24 만
투표 가
묘 사
대 접
이 강
마드리 드
원 재료
환 을
워 야
화 순
잠 복
부 적격
개입 한
각별 히
담당 하고
매력 도가
불안 감이
부여 하는
절 로
파 로
이벤트 가
극 동
모 이는
명의 의
펼쳐 지는
신 진
전 한다
중요 하다는
키 아
6 배
신 개념
조 문
혼란 이
실 수를
농 성을
뭐 냐
소비 자를
쏟아 졌다
지 시에
소비 재
관 행을
상승 폭을
어쩌 면
남 해안
상 기
kt b
o2 o
인프라 가
10 4
이 륙
면 적이
파 스
그래 야
적 잖
무시 하고
비교 할
배터 리를
불 평등
교수 로
예술 가
차익 을
통 관
묵 묵
초래 할
au to
순 이다
분야 가
맡 을
무사 히
겹 쳐
공 감을
발 명
구간 에서
차 장은
바란 다고
7 50
통과 를
얻 게
뭐 가
입장 에
농 성
우 연히
공 장에
청소 기
현실 에
파 일을
제 명
퍼블 릭
유도 하는
강 타
친 근
2 세
어린이 들이
이용 하고
청 각
처 에
이 평
가 드
cj 대한통
소 문이
시 립
단 연
최 형
감상 할
폐 막
양 현
미세먼 지를
의 도로
거 라
개인 적
꼬 리
시설 인
숫 자가
나서 지
순이익 은
공 기가
분 주
데이 트
집 행을
증정 하는
인상 은
여부 도
블라인 드
자 문을
여객 터미널
삼성s ds
카드 사
냈 지만
관계 자들의
진 전을
변 이
동 거
색 상
특별 자치
기념 관
유죄 로
외환 위기
청 라
기록 은
하 에서
파리바게 뜨
n i
민주주의 의
쇼 트
내 기도
선보인 다고
되 었던
무 라
청와 대로
받아 왔다
씨 앗
안 았다
지 수도
45 분
교 착
파 이어
료 가
방 역을
20 24년
패 했다
간 염
제 프
행사 할
스탠더 드
중앙 일보
자카르 타
보 세요
1 군
기숙 사
m i
탑재 된
것 일까
제일 모직
기술 인
h c
공정 성
방사 능
구축 한
가라 앉
브 뤼
유치 에
얼마 든지
우리나라 를
달 여
북 중
국가 인권
이벤트 에
층 으로
주상 복합
모 던
라인 이
편리 하다
화 요일
u d
신뢰 가
작용 했다
자신 은
어 학
거 둬
준 의
문 구를
좋아 요
담배 를
정진 석
아니 기
청소년 의
하려 던
훈련 이
얼굴 이
15 명
서 스
극복 할
측 에서는
성향 을
결정 으로
예방 하기
리버 풀
행태 를
시작 했고
고 인의
문 경
공 사장
강 점을
사 명
니 가
방법 이다
오토 바이
8 차
차 려
초 까지
준비 생
시 골
구글 의
도 안
성장 해
% ·
고 평가
선물 로
취 지에
토 목
편 은
인터넷 을
시 찰
디지털 타임스
e a
베 타
k db
날 이다
진출 했다
이 냐
몰 아주
해수욕 장
증거 로
접목 한
해 저
물 가지
갔 고
물 놀이
건강 관리
예 멘
임시 정부
세계 대전
고 노
이날 도
불 쾌
개선 하기
영 위
g re
토 너
군 함
눈 앞에
바 를
지방 에
제 19대
가이드 라인을
검찰 에서
떨어 진다
항 이
하락 하고
토 르
공간 과
유니폼 을
논 문을
연 산
어 음
되 니
고용 보험
뛰 고
제약 이
미 만으로
후원 금
트래 픽
늘 었습니다
때 로는
sk 는
방 류
걸림 돌
종 에
사의 를
리 사
미지수 다
20 배
ic s
분 들도
차 라리
이 죠
업 에
문 으로
입장 문을
수 평
프로젝트 에
떠 날
올 린다
급속 히
운영 되는
a in
교 훈
펜 션
공격 수
라인 은
고발 했다
이 스트
관광객 을
자 백
중소기업 중앙
내 세웠다
움직임 에
오 만
독 창
메 탈
로 와
노선 이
길 어
별 점
층 과
연결 되는
논의 한다
데자 네이루
노 는
y hap
설립 해
방 미
보 이기
건강 하게
마을 에
2시 부터
정리 해
후 손
설 탕
참석 자들은
건물 의
전 폭
넘어 설
수요 자들의
ic al
6월 에
없애 고
어 차
방 으로
사람 에
정상회담 에
경 총
게재 했다
올 스타
연 희
풍 성
환 자들이
기록 했습니다
관계자 들을
퀀 트
젤 리
쪼 개
당 면
리스크 를
해 에
역 내
돌파 한
언급 하지
계 급
바 짝
슈퍼 마켓
복귀 를
례 로
막 상
을 지
주 면서
다 투
리 베이
다양 하다
기간 별
하 차
방식 과
이 곳을
평론 가
의 장을
대북 정책
시티 는
단 어를
프라이 빗
해 선
입 성
농 가의
마 곡
분야 에서는
타이어 뱅크
현 실적
리우 데자네이루
장 원
짧 게
설문 조사를
과감 하게
공동 대표
휴대전 화를
고기압 의
셀트리온 헬스케어
치 우
쓴 다
부 위
보 의
통 증을
현지 에
전역 에
국내 로
자유한국당 과
바닥 을
외 모
레이 싱
급격 하게
gs 칼
m vp
역설 했다
이슈 에
하나 씩
투 구
구로 구
재미 있는
감추 지
시 황
h z
작성 해
동 진
악화 로
열 기로
오랜 만에
자동차 의
적 고
유망 주
배 당을
가맹점 주
자료 로
20 3
24 개
태 운
납 니다
탐 험
지자체 의
타 기
크래 프트
리 에서
실종 자
양 당
제 4
하이 마트
론 으로
이해 하기
드 디어
정부세종 청사에서
상황 도
운영 과
출 소
돼지고 기
t p
g lo
거 뒀
보증 을
스 폰
물 의를
도입 하고
팬 들이
올랐 습니다
내 림
체육 관
김영 삼
사고 의
워싱턴 에서
걷 고
손흥 민은
다이 아몬드
신 부
산업 계
호소 하고
트렌드 에
인상 으로
있 습니까
하 단
1년 을
차 에서
상회 하는
가 만히
몸 으로
사회 로
상태 이다
낯 선
신호 가
6 시간
어려 웠다
중 학생
참석 하고
13 00
무 주
진 전이
국민 청원
교도 소
초 월
위 증
리 치
범 정부
뮌 헨
거 야
주체 가
겪 을
기 승을
올라 섰다
지역 아동
패 소
발 맞춰
관 철
당 헌
산 타
프로세 스
해수 부는
처벌 이
인스타그램 에
구 강
코스닥 은
과 제가
공연 과
염 증
초반 부터
사실 관계를
일 상을
조정 대상
인정 받은
식 용
못 했지만
선거 제도
대가 를
아 크
한 결
노 예
햄 버거
벌 레
견 학
경 력이
같 고
주 관한
중시 하는
주 자로
연 립
바람직 하지
있는 지를
민 자
목 욕
사 서
신속 하고
yo u
점 인
안전 망
판 촉
수 동
내부 적으로
네 팔
어디서 나
제도 개선
나 빠
획득 한
쪽 이
넘 길
일 대를
유 혹
바른미래 당은
티켓 을
구 원
가입 자가
말 의
같 다는
축 제로
평 면
의원 님
취 하는
멈추 지
옵 션을
아메리 칸
배 양
se oul
링 을
영국 이
기 둥
참석 하지
출시 될
버 스는
관계 자에
비판 한
인정 받고
산업혁 명을
않아 서
임직원 이
두산 은
어차 피
판 사가
국무 회의에서
네 거
공급 한다
높아 져
긴 장이
주 제를
속 한다
카운 티
결정 한다
청년 창업
조 희
하 냐
발사 체
걱 정을
당첨 자
박 승
투표 에
발사 에
투기과열 지구
챗 봇
프라 임
밝혀 야
교 량
정례 브리핑에서
집 착
공 명
방침 에
한국 무역
전 하며
가슴 이
반문 했다
회복 이
츠 는
카 트
논평 에서
가정 에
조사 하는
해야 할
위 드
하락 하며
4 일까지
장 사
부회장 과
트레이 닝
c ar
양천 구
원 씩
디 렉
판단 된다
절반 이
세미 나를
가격 과
에 드
복지 부
만 루
투 약
독자 적인
검색 어
21 세기
공 원이
2 조원
발 판을
기념 사진을
w r
목적 은
시 점은
외 형
소통 이
톡톡 히
실패 를
눈 여겨
마 중
일 동
전반 의
투자 하고
신라 젠
채 굴
사회적 기업
성 격을
방향 이
정수 기
레전 드
검사 에서
1년 이
파악 한
간편 결제
시장에서 의
잔 액
강수 량은
정경 심
기술 력
플래 닛
만 끽
미 생물
초 유의
논의 는
시민 들과
kr x
순조 롭게
순 위로
구 할
강 해
실 려
내비게이 션
g 7
계 로
원 하지
의원 들을
노동 자들이
5 50
의존 도가
사업 자로
속 여
배 급
재 기
입 당
태 우고
풀 어야
환자 에게
김 철
3 40
활 짝
1970 년대
레이 스
사 생활
노 린
법 리
정 철
긴 축
골드 만삭
환 전
농가 에
거 진
페널 티
조성 한
6 도
더 샵
홍 대
시리즈 는
웃 었다
직원 들과
ue fa
둘 레
나쁘 지
공 로를
후 면
만들 겠다는
계좌 로
선거 운동을
고민 하는
보통 주
23 만
표 방
되 느냐
공정 하고
미래 가
규모 인
분류 되는
젠 더
최순실 씨
주택 에
네거 티브
거론 되는
현대 화
의 장의
전 대
하 버드
배출 가스
군 대
선정 했다고
판단 하는
제목 으로
합 해
촉구 했습니다
세 브란
조선 의
기대 하는
참가 를
황 제
자체 에
수급 자
안 되는
유 익
입국 한
아동 학대
정보 에
김명 수
단 편
때 다
3 28
23 개
시 멘트
cnn 은
제 왕
at m
캐 스트
장제 원
옥 수수
계획 과
프랑 크
천천 히
사고 와
평양 에서
꺾 고
위원장 도
만들어 졌다
취득 한
리 듬
연 수를
sk텔레콤 이
많 았던
예산 결산
액 상
다큐멘 터리
무너 뜨
확 장을
서울대 병원
원 희
은 닉
돌 리는
캠페 인은
전문가 인
부탁 드린다
병 무
d gb
짙 은
나라 에서
많 기
4 당
tv n
재 래
제 11
성 북
의결 을
과학 원
지 나는
협력 과
공천 관리
발전 할
대구 의
행정 관
역 삼
고영 태
토 탈
비판 의
예비 타당성
시 비
제2 회
책임 감을
삶 과
베이징 에서
즐 겁게
억 여
% %
청탁 금지법
가 금
일 곱
구조 다
정책위의 장은
머 스크
이 스타
숙 련
거 고
강경 한
돌 발
협력 할
심사 위원
구간 은
이날 은
충청 권
2 1만
들 썩
다 닐
모 나
집계 됐다고
의 해서
변동 성
제시 되고
5 가지
식품 을
건설 에
투표 에서
성과 에
저희 는
레 미
의원 들과
상 대를
요 령
한국당 을
피 살
분석 과
거론 된다
호 평
조건 에
옮 기
중 환자
진출 할
래 드
인데 도
사과 했다
붙 였다
의회 에
레 고
아파트 로
살 던
흰 색
알 린
로 펌
수 순
산 청
특 산물
거 액의
테 헤
기업 에서
원 서
해보 았다
이라 든가
이 긴
오후 에는
베 스
강화 하기로
샤 워
구 별
수치 가
당 했다고
통 일을
범죄 가중처벌
좀 더
도시 개발
일 몰
10 도
is o
병 은
지역 별로는
환 상
300 억원
가치 에
쳤 다는
정치권 이
가족 은
편안 하게
아 토
3000 원
오 빠
지 킨
아파트 에서
디자인 의
배 부
넷플 릭
맛 에
변 조
추정 하고
형성 된
위해서 라도
기업 체
분양 에
기 차
공인 인증
하 느라
16 00
스마트 공장
화이트 리스트
산림 청
3 m
압도 적
여기 까지
36 5
구조 의
상승 폭이
낮 고
웨어 러블
공영 방송
어우러 진
콘셉 트로
제기 하고
롯데 호텔
문화 에
서울 구치
예산 으로
외환 시장에서
세 관
스티 브
중 대형
천 정
저 성장
대법 원이
대상 자를
플레 이를
단 에서
이 브
일대 일로
밤 을
등장 해
거 로
제네 바
국무 총리는
파 장이
병 력
최우선 으로
논의 하기
원 형
제도 와
나뉘 어
고 은
얼굴 에
지 름
팬 들에게
박주 선
귀 촌
영상 으로
따 르는
뜨 겁다
정 식으로
위치 하고
한국 과학기술
손님 이
인센티브 를
관련 자
주주 총회
비서실 장이
비 유
포함 하는
의 대
드 론을
mw c
퍼 블리
서울 특별
세대 에
과태 료를
들이 는
바 위
연구 센터
유 휴
재 연
co un
198 6년
일회 용
예 민
의도 적으로
르 다
노력 과
그동안 의
놀 이를
통 하여
번 이나
있으 니까
지속 되는
6시 부터
전문 매체
발 라
사령 탑
라 오스
첨 예
말씀 하셨
감소 가
2 차례
일어나 고
한 신
방문 이
요 시
비용 과
무 원
협 은
기조 가
변 함
활 주로
잠재 적
4 건
비 금속
매매 의견을
음식 물
콜 로
필요 합니다
통해서 도
국 경을
남양 주시
옮 겼다
투입 된
들 러
이사 로
2000 여
7 기
사용 될
드라이 버
인터 파크
일 었다
먹 으면
실업 률은
리그 에서
적 십자
외 야
패키 지를
연구 회
거기 서
일 원에
송 이
앞 을
자 처
합격 자
1 m
3 부
이 선
감 기
북한 산
연구 원에
시작 한다고
장 충
최 승
pbr 은
신 재생
국립 중앙
c ia
생기 면
어드 바이
최종 구
심 상
sr t
우리나라 에
맞 벌이
통 의
요구 된다
담보 로
윤 곽
재 일
어떨 까
8000 억원
하 였습니다
범죄 가
년 에
장 한
제기 되는
검출 된
부산 을
회담 에
시리즈 의
수사 하고
엄마 가
논 설
g p
잃 지
거 버
8 시간
수 돗
항공 은
메 릴
카카오 페이
클 라우
상승 세
건 가요
고 기를
소프트 뱅크
효과 와
성균관 대
20년 간
극 장에서
중국 으로
4 로
스태 프
차 관이
거 머
14 00
크리에이 터
전환 할
외 압
주의 적
것이 지
똑 똑
부 수
짐 에
듣 기
기초 연금
사각 지대
창의 적
시민 들을
한국 전쟁
발전 이
금융감독 원은
세브란 스
여 운
배 석
지금까지 는
국민 권익
우수 성을
테크놀 로지
표 정을
효율 적
카 와
원 한다
신 기
하나 하나
2 개를
낮 출
대 수
양 사
총 학생
집계 한
12 5
양 파
사용 된다
2월 까지
ic a
꽃 이
특 약
많 게는
축 사를
운항 을
한반 도를
검찰 을
직 전에
수 퍼
테 니
등장 한다
원내대책 회의에서
역할 은
뜯 어
생리 대
병원 성
진 에
고 온
개 점
영 감을
특 집
했 으니
프라이 즈
검토 하는
일 로부터
경쟁 사
성과 연봉
코 의
대치 동
10 명이
소속 으로
박 광
발표 될
재 협상
인 물을
기생 충
주 제는
날 개
므 누
기대 감
창출 할
의원 총회에서
요 소로
정 오
국가 보훈
ig n
광 저우
다 이스
세 컨
환 매
맞 이해
오 뚜
거 칠
과학 적
단 기간
혈 중
강점 기
맛 볼
진 작
10 6
컨벤션 센터에서
피 드
인 위
홈페이지 와
반발 을
웨 이트
12 명
중심 을
현수 막
패러다 임
주 소를
나가 기
포털 사이트
설 악
원 장의
거 쳤다
자산 은
캐 롤
주도 의
내 건
때 를
의혹 으로
남 과
소요 되는
재 원을
분식 회계
소개 한
무 덤
여 왕
대 도시
부정 한
3 80
움직 일
상 점
데일리 안
연 승
아스 널
셔 틀
노 리고
조선 해양
of f
추 세가
부진 으로
섞 인
급 행
미사 일이
보 에
후 문
길 에서
코스메 틱
임 플란
카 스
하기 만
규모 도
조짐 을
건설 의
현 대로
노 릇
정 태
스마트폰 에
가져 다
오 해를
결 실을
빛 나는
주민 은
의 도를
거래 는
의 식이
참 담
낭 독
k im
대행 은
대학 수학능력
포 화
필 두로
사흘 간
물 가가
7 도
대 공
수 위
카운 터
갈 등의
과거 에는
5월 까지
항소심 에서
야 권의
오 피
답변 했다
서울중앙 지방
선진 화
용 을
역할 과
규정 했다
면 치
중 기부
빅 스
삼성 과
레이 트
의 총
량 에
방 수
증권 거래소
발휘 할
벡 스코
ot t
영 빈
마 로
행사 인
순 위는
영국 은
극단 적인
애널리스트 가
로 밍
여자 친구
일 기
브리핑 룸에서
스토 리를
발견 해
목 사는
시각 도
500 만원을
요 한
정보 공개
평가 할
50 명
핵심 이다
욕 설
학생 들과
이 씨
광 범위
이야 기도
부동산 을
체제 에
눈높 이에
삼 겹
활용 하면
구글 은
조 사업체
이견 을
기업 공개
인사청문 회에서
로 얄
sk t
핵심 투자
가족 들은
해 시
폭 넓게
필 라
시 중에
사회 와
프 렌
본 회의에
자리 에는
시뮬 레이션
산업 평균
무 차별
강조 한다
수도권 과
존 엄
주가 에
마 킹
견 을
11 5
다 쳐
송 정
녹취 록
한 동
꿈 과
인상 과
민 원을
100 개
구 하는
윤 모
투자 매력도를
전달 했다고
지 장이
께 서는
순 항
베 드
입 수
순 례
소통 하고
영 도
끼 고
무 서운
넷플 릭스
님 과
000 원을
유 람
1위 인
할머니 는
특 색
a bc
마을 의
계 리
3 위에
대법 원의
개선 됐다
볼 거리
증 빙
금융 당국이
하 든
확인 해야
등록 금
보고 했다
나타났 으며
부 안
사회 적으로
무리 하게
읍 면
진 동
추 이
점수 화하여
재판 부
앞 줄
이하 인
빌 리
할 수록
느끼 게
s on
부족 하다는
대상 자는
쿠 션
충격 이
관리 법
바 쁘
어 비스
직 급
고 척
규 범
올 림
용 호
코 코
칠 곡
집 결
금융 을
간담 회에
맥 주를
애 경
완 수
g ps
명 실
되 려면
째 로
이동 형
재정 비
계산 해보았다
반 사
핵심투자 지표를
본 사가
종목 일까
순매 수를
백 여
시험 이
울 트라
선 정을
습 관을
나섰 지만
저질 렀
수 아
이 우
국립 과학수사
쇼 크
3 번째
종합 점수
고려 하지
극 을
참가 한다
좁 아
실시 된다
판매 된
추진 단
2 승
원료 로
소 신
일시 적
공 기를
파트너 스
격 차는
무 마
세 정
선고 받은
전화 가
민주 적
맞이 한
이 씨가
공 정을
디 는
재 앙
경진 대회
부 총리가
정의 를
귀국 한
골 절
인 권을
역할 도
주인공 은
건 보
기여 했다
건국 대
가 명
하여 금
포스코 는
분 량의
원 들이
스포 티
하반기 에는
국민의당 과
톤 의
지급 된다
미 끄러
1 운동
들이 고
보 았다
거 꾸
변 환
관련해서 도
국정기획 자문
서 훈
교 내
e pl
업체 에서
연결 합니다
필요 해
가성 비
역 량이
처음 에
르 면서
마 드
군 데
기업 들을
전시 관
평소 보다
마 리아
종합 적인
해 나갈
시 선이
혁신 적
2018 학년도
서 남
의뢰 해
회장 에게
격려 했다
김의 겸
지금 보다
불법 으로
봄 철
타임 스는
화물 차
오픈 을
성향 이
이동 을
투명 성을
선생 의
공 신
신 앙
진행 돼
경 보가
성 평등
노 화
역임 한
국 장을
어렵 지
갈 무리
출신 이
시도 한
원 자로
de x
치 른다
거래 량을
등록 한
치 르는
전교 조
3월 에
컨센서 스와
영장 전담
단계 부터
미 에
800 만
일 보는
도덕 적
농 수산
무산 됐다
통일 부는
k f
음 모
더해 져
신뢰 할
인권 침해
디바이 스
진 안
국 면을
이용 을
모호 한
삼 국
수요 도
공원 과
항공 모
거 울
가 스를
차관 급
재 배치
루 프
초반 에
탈 취
단행 했다
울 진
외 교통
문제 라고
질 주
un g
여성가족 부
넣 을
건설 과
아나운 서
주 문을
경희 대
브랜드 는
수사 하는
억달러 로
성 장은
코 칭
자 행
100 원
의 전
지 형
에 스티
유 모
nation al
네이 처
기획 재정
bo ok
us b
붙 인
수 변
장소 는
조 기상
줬 다는
수요 일
예 배
추 상
가 열
불 리며
공백 을
탔 다
다 카
사 체
7월 까지
나누 어
잡 이
보 물
준비 된
묻 어
테크노 파크
추가 됐다
시 크
탑 승객
개발 의
발견 되지
개발 원
집중 된
봤 는데
복 당
도로 에
내년 에도
걸 린다
600 만
무엇 일까
자금 으로
했 나
차지 할
연휴 가
김 효
났 을
것과 는
획득 했다
논란 으로
가 공식
물 적
론 의
안 방
미드 필
전 향
특 산
선 적
사건 에서
스위 트
가정 에서
은행 에서
곳 곳
상업 용
고객 들은
라 든지
스스로 를
출시 해
교 인
코리아 의
청구 한
자동차 가
질환 으로
선수 들
하락 으로
무역 협상
얘기 하는
농 장에서
자유 구역
부처 가
관객 들의
는 지를
관측 이다
담 뱃
q r
팔 고
미래 통합
su mm
콜 드
교 재
공공 임대주택
보호 하고
노원 구
l ig
8 도
행동 으로
질환 이
과거 사
국세 청은
법 이다
쏟아 냈다
하 더라
하루 를
거 북
파 헤
시각 을
희망 이
이 국
금융 위원회는
제 안에
쿠르 드
프로그램 과
안팎 으로
14 억
옮 기는
추진 했다
개국 에
지방 을
친환경 차
귀 한
때문 이었다
깔 려
활동 가
부의 장
바람 직한
주거 복지
5 당
대구 시는
cj대한통 운
발간 한
계획 대로
박 홍
거꾸 로
야 심
바 스
들어 올
후 계
18 00
해결 하고
냈 다는
모니터링 을
억달러 를
활동 한
조금 만
지역 본부
앞 세운
간 선
198 5년
열 매
최적 화
인터넷 에
병 상
4월 까지
니스 탄
관심 도
지자체 와
이동 하고
보 단
중 년
자 라고
갈 등과
받아 서
중앙 위원회
명 성을
한 솔
상승 해
정치권 에
이 기는
6 기
부산 에
제보 가
블라디 보
보 레
향상 과
보 트
표현 하는
회계 법인
식약 처는
아마 추어
광복 절
필수 적인
매 운
금융 사
개 조
생활 의
유가증권 시장에서
송 출
토론 이
공무 원을
변 수로
지속 하고
리 테
3 호
낙 후
코 카
않고 도
신 남방
수 다
추진 해야
않았 습니까
업 의
학 급
산 하기
인 격
통과 했다
함 평
분 계
인 계
나선 다고
살 림
기간 과
학교 로
음 향
노동 자들의
적용 한다
압박 에
브 랜
k ot
번 이
기업 들
쌍용 차
빗 썸
500 억
파악 하는
모습 이었다
교 사의
공고 히
열 차가
줘 서
라 의
춤 을
차단 하는
특징 은
예방 과
움직 이고
자율 적으로
3 20
조 끼
방향 은
tomain info
어린 이날
입찰 에
매매 가
의 심을
육박 하는
개 체
이용 자들이
공 매
돌 릴
선발 한다
누 워
11 명
라 벨
급등 했다
거버 넌
못 하면서
so l
현대차 그룹
백 승
국무 장관
새누리 당의
상승 했고
대 회의
차별 을
믿 는
금융 의
불 렀다
쏘 나타
모델 에
연준 의
백 의
바람직 하다
고급 스러운
현금 으로
예상 됐다
고맙 습니다
코 팅
방 글라
첨 부
북 방
전 에도
신설 해
결정 된다
미 와
노력 하는
답변 이
정책 실장
경선 에
끝 나지
미 한
안타깝 다
콘텐츠 가
환경 오염
우리 와
도와 주는
제재 와
전 병
마무리 하고
앉 았다
갔 다가
박 민
직 거래
이름 의
8000 원
발표 와
스 킬
올라 와
시 도가
땀 을
법 도
제거 하는
박 현
연령 대
기 대해
영업 손실
현 저히
4월 에
집중 하는
벌써 부터
1 에
책 의
요인 이다
블룸 버
열 기가
창업 지원
알레 르기
수 박
당 혹
무 섭
홍 문
질의 응답
운 운
6 자
리 시
샷 을
예산 안을
청탁 을
엔 드
경고 를
부문 이
장애 인의
브뤼 셀
변 함이
저 자
담 화
액 화
브 러
밟 고
맞 췄다
활용 을
완료 되면
방위 사업
그 늘
랜드 는
상태 인
원 본
몰 두
연 평
차 차
적절 히
핵 무기를
조치 와
분 들을
국민연금 이
등 지에서
한정 판
조직 개편
안정 된
지구 를
플레이 스
장난 감
7 명의
한국 타이어
홍 수
기 야
고 리를
부모 와
작용 한
확인 했다고
세 인
보호 와
촬영 하고
판결 했다
사무 실에
라 노
넘 쳐
교 양
표 정
7 배
리포트 의
조정 하는
노선 에
f in
불 출마를
경찰 을
관 념
더불어민주당 의
펼쳐 진
제 너
m y
운전 면허
벌 인다
선수 와
옥 시
충돌 이
민 원이
비선 실세
무 대로
끝 내고
노 사가
엔 젤
힘 쓰
포기 하고
사진 공동취재단
다 저
원칙 으로
결혼 식을
인 보
추 종
포함 하면
계속 된
맞추 기
금액 에
노력 으로
이 들과
f l
비교해 보면
만장일치 로
말 에는
어렵 지만
서울 지방
이웃 을
공 휴
진다 면
마음 대로
급 변하는
기관 도
비용 도
만나 서
수익 성을
glo bal
표 절
이날 까지
전 까지는
율 도
현재 로서는
심폐 소생
채택 했다
한국당 과
법 적인
소득주도 성장
한다 면서
돌아 올
사라 지고
로드맵 을
펌 프
결혼 식
갑작 스러운
경 계를
량 과
흥미 로운
내 밀
면 모를
독립 을
붙 을
절 제
코스닥 시장
자기 소개
예 우
줄어든 다
희 가
초과 하는
수 위가
인 더
피해 자는
100 m
공 으로
도 마
주민 자치
가 꾸
대책 의
시기 와
충분 하다
임시 국회
만 세
강남 역
w m
시 하는
해주 신
대책 도
슬 기
출 현
봉 사를
ap p
참 전
공 원에
일어나 지
증시 에서
계 도
연습 을
150 만
거 지
동 차
펄 어비스
평 형
별 세
이 더리
므누 신
현대차 의
행 정부는
페 인트
이란 이
때 에
실 속
해 협
2009년 부터
공개 시장
낮아 진
병 의
국민 건강보험
노력 해야
출석 을
벌 을
다 쳤다
회사 다
독거 노인
서 점
총 연합회
돌 을
대 안이
못 한다는
11 8
성과 로
촘 촘
7 37
얻 지
버스 에
g ro
의 석을
밝히 기도
4 주간
촉 촉
뇌 졸
중 저가
주인공 이
확보 와
우려 로
진흥 공단
라이선 스
캠 코
나 비
도 둑
분 사
생 방송
트 림
재산 이
상 납
추 위
아 꼈
야 의
18 8
확대 된다
제 반
타 점을
pl at
브 레인
갈 등은
사업 단
갖춰 야
금융 권에
영역 에
발 길이
꼴 로
증가 율을
엔 화
재판 부에
폭탄 을
나와 야
u c
로 에서
낙 마
기준으로 는
시민 참여
계 에서
존재 를
오 르면
정 액
해소 할
복지 관
시작 했다고
물결 은
부 위를
사업 자는
가슴 에
악 순환
비 상이
닛 산
절 대로
키 를
한국 시리즈
클 레
편 도
컵 을
ur n
머 티
저 조
중단 했다
197 9년
해 보고
소식 통을
과감 히
왔 을
영 혼
성 북구
투 숙
았 기
주가 를
구 장
간 과
어디 로
조항 이
누 설
촉 매
탄 산
국가 별
8월 에
미 치고
헌법재판 소의
그렇 고
준비 해야
3 억원을
상대 방
주의 에
거래 비중은
2030년 까지
뚜 껑
좋 겠습니다
내 어
만난 다
백 색
즈 에
내년 까지
영국 과
위해서 도
크라우드 펀딩
논 술
어 젯
패 스를
잡 아야
최고 인민
시행 된다
지금 이
회전 율이
기 뻐
갇 혀
편의 시설
무기 한
제재 에
밸류 에이
수강 생
시 신이
다 퉈
올리 면
사 하
했 느냐
운동 본부
선출 된
싸 우
겪 어
관 리는
프레 시
재 정을
이사회 에서
음 료를
원 하고
시작 했습니다
권역 별
연구 와
근처 에
투자 도
상승 하는
우아 한
올해 에는
마 리의
국제 금융
성과 급
시킨 다는
무관 하게
체육 회
뜨 겁게
논 산
없 음을
반 론
광 진구
대통령 으로
지적 하며
생산 과
저 비용
이고 요
무궁 화
인으로 서
6 명을
26 만
센 서를
000 억원
망 원
사이 에서는
저 조한
걸 어서
동 명
훈 식
앱 스토어
정 준
같은 데요
일자 리는
연결 돼
어머니 는
정부 로부터
서귀포 시
m ed
온 전히
감 정이
형 상
국민 에
바 구니
줄 었고
강조 하면서
눈 치를
크 기가
원 외
넷 째
참여 연대
테이블 에
결과 도
바나 나
체크 카드
테헤 란
전 역에서
세계 로
서 방
롯데 면세점
증 과
은행 들이
16 억
따 를
기본 법
가 졌다고
해외 진출
건립 을
막 힌
부 유
풍부 하고
코스 를
직원 들
간 식
합의 로
시청 에서
센 텀
약 간의
씩 을
테르 테
장기 적
떠 오르는
사업 비를
붙 는
착 각
의 학과
눌 러
서 정
아이스 하키
세액 공제
김현 수는
산 동
증명 서
남 성을
금융 당국
미드필 더
g c
부 시장
구체 화
직면 한
기획 조정
천안 함
둘러 보고
햇 볕
딥 러닝
부 사장이
습 득
임대 료를
서 원
이 들도
인 피니
테 네
있었 으며
근 원
심 판을
부상 자
비 관
노사 정
구 하기
중 과
현 주가는
국면 에서
블루 투스
진정 성
비로 소
흔 적이
남 이
던 지는
통 역
컨설 턴
시민 들
23 9
안타깝 게
컨 디션
없는 지
우호 적인
h y
12 9
c ap
영업 점
이승 엽
원리 금
차 도
th er
성능 이
주민 들
s ec
시작 돼
역학 조사
할머니 가
호날 두
두 테르테
에 티오
철 새
쓰러 져
000 만원
모닝 포스트
압박 이
세계 무역
하여 야
모습 입니다
주력 할
커 브
배치 된
시범 사업
사우스 차이나
체제 의
검은 색
객관 적인
금 산
품질 관리
yo y
개인 정보를
집 회에서
애 정
분 비
점검 했다
했고 요
자 선
소 망
창 이
고 가의
b 씨의
당 규
조 씨는
산업통상자원 부는
띄 게
학습 을
제기 하는
이득 을
올해 보다
대선 이
의회 에서
치러 지는
보고서 가
자동차 는
니 퍼
애로 사항을
선두 를
남 궁
것 이어서
2 동
매수 세가
걸 러
영 변
다 나
시스템 이다
찾아 와
불합리 한
다양 하고
g l
하나 은행
국 이다
유동 비율
필요 성에
설명 한다
불 식
생산 자
진출 해
쉐 보레
운동 은
대 사로
기 흥
합 친
시장 점유율
응답 했다
존경 하는
사람 이다
악수 하고
5 건
타 파
kot ra
코 스트
국제 적인
2 억원을
기술 력과
났 다는
연합 회는
금융 상품
생각 으로
1 무
후 인
2015년 에는
조 계
방문 하고
ele ment
공급 에
잘 하는
벗 고
선정 할
니 를
선사 한다
스토 크
창출 하는
기여 하는
주도 적으로
발행 한
임산 부
6 번
완료 하고
인천 국제공
에너 지가
유 소년
h u
있 기에
문 예
제출 을
올라 갈
인베스트 먼트
재 밌
펼 치
농가 에서
제한 하고
살 릴
당시 에도
내 리지
성과 와
분기 내
에 다
공시 가격
연 이은
순간 에
상 근
정책 연구원
유발 하는
벌 금을
터 진
연 하게
판단 한다
째 인
보험 의
사라 질
낙하 산
무 혐의
처 로
카 가
방 조
정경 두
디 딤
조금 이나마
군사 분계
라 이나
비판 하고
기 부를
프로 그래
복 음
제3 의
신 재
거래 일을
입 주를
철 호
이외 의
전 액을
동 점
허용 했다
지켜 본
녹 화
찍 는
사 연을
압 구정
조 미
지시 로
내 연
후 지
제 언
겨 운
수석 을
거 점으로
나왔 지만
꼼꼼 하게
학술 지
지니 고
척 의
하락 이
지혜 를
책임 지고
탈 모
수 영장
글 은
최 정
심사 에
제 리
방법 도
기억 을
탑재 했다
밝혀 지지
비율 로
추석 을
분석 하는
목적 에
의 향
사무 소를
나 루
살 피
어려 웠
매 력이
la b
구 한
칠 성
문화 계
생활 과
관광 을
제약 사
제 빵
취 미
키우 기
성 추
해 라
피 하고
세종 문화
12월 에
최 동
뭐 라고
페이 퍼
이해 와
절차 는
탄 이
취 지에서
레버 리지
나 트
맞추 고
지향 하는
유 은혜
결정 하고
국정 원이
평 택시
협력 에
에피 소
선거 의
하기 보다는
국 정을
치열 하게
급 부상
브 이
규 어
경상 북도
독보 적인
올림픽 에
하루 가
류현 진은
외부 에서
구 도가
경 복
답 은
급등 한
견 지
다시 피
t er
지금 처럼
년 을
합동 참모
주민 들과
뒤 에서
가족 에게
정말 로
올 리기
종 금
한은 이
유격 수
쇼 를
콘텐츠 로
뛰어나 다
무 진
카 의
4 명은
대 까지
건 조기
양국 간
의원 실
액세 서리
플랫폼 인
이 씨의
시민 은
주 심
기회 도
방 대한
총 액은
모 친
출 입을
수출 에
순 서
수사 로
공간 은
설 사
진지 하게
재단 을
초 보
관계 기관
지적 한다
발굴 을
이었 으며
희 소
같아 서
6 건
컨 퍼런
개 회
집중 해
추천 한다
머물 렀
거짓 말을
움 은
백악 관은
병 수
칼 을
쓰 인
개 미
거 냐
발 돋
발 렌
리 처
휴 스턴
내정 자는
bb q
먼 트는
공무원 들이
종 과
수상 했다고
맞 선
문턱 을
나 르
보여 주기
광 학
식 중독
급 기야
끼 어
오세 훈
대표 부
값 에
천 주교
3000 여
는 지는
이 공
재난안전 대책본부
잔 액은
직 불
여야 의
농식품 부는
기본 으로
수색 을
잠재 력을
벤치 마킹
부 장이
포 수
거부 하는
지표 로
pe f
만나 게
사이트 에서
강화 될
12 3
하락 할
공판 에
바 라고
발사 대
행 정을
오 디션
선박 을
양 동
차량 용
격 한
옐 런
예상 돼
정치 개혁
시장 인
말 하기도
감소 에
폈 다
접근 을
의혹 의
나 리
모으 는
cj 오쇼핑
체감 할
통 제를
무너 져
발생 했다고
사우스차이나 모닝포스트
p f
약 관
스테이 션
번영 을
권한대행 이
공공기관 이
국민 소통
농식품 부
9 호선
네트웍 스
기쁨 을
정상회담 의
단 속에
t pp
해 리스
시스템 도
네티즌 들은
성명 서를
올해 까지
오 로
5 거래일
공 소시
국회의 장이
상황 이라고
원희 룡
증권 전문
지 옥
상장 지수
발언 에서
해결 책을
mou 를
담 양
실 점으로
공소시 효
모습 에
장으로 서
내 줬다
무 기로
모델 하우
전문 기관
매출 도
tomaininfo layer
양 지
들 였다
키 웠다
안정 과
통계 에
흔들 림
양 상
2 10
안전 자산
발생 했습니다
정상 에
게시 판에
팔레 스타인
와 이어
조선 소
도입 이
신 일
인사 들의
고 개
후보 도
n bc
제품 도
ser v
13 명
열 정을
피 난
오 송
지리 산
수상 자
지적 하고
유 례
무 시한
노출 된
불 화
한번 에
입 항
스 냅
지난 번
교통 망
1 분기에
분양 한다
초 빙
그러 니
아내 와
친 선
기소 했다
일으 켰
4 분
라이 더
클 렌
선정 한다
오 디
휴대 용
메이 트
단 골
압 력이
근무 하고
협의 체를
시 시
코 퍼
q m
걸 이
카 톡
합의 는
분 수
업 이
김 보
전월 대비
1 동
학 의
세계 랭킹
관세 청
형 인
훈 장
그 들을
없 으니
제 13
26 년
뿐 이었다
건조 한
b gf
제작 을
뷔 페
불 구
관리 비
4 곳
발 현
우 발
sk텔레콤 의
쏟아 지는
하려 다
부처 와
특강 을
독일 은
단체 들은
비전 과
장 내
당부 했습니다
샀 다
최 민
it al
5월 에
가파 르게
가슴 을
게 스트
국가 들이
롯데 의
삼성 디스플레이
발견 하고
기대 감에
공간 의
활용 이
결 제를
금 주
기반 시설
싱가포르 에서
경 각
추 대
표 류
데이터 가
만들어 낸
정책위의 장
t 급
원 도심
방 재
외 쳤다
정책 도
개정 에
비판 에
동 국대
보시 죠
n b
달러 가
선관 위는
같 고요
청구 권
달라 졌다
인명 피해는
위 태
청문 회에
받았 을
사장 으로
ig h
13 5
혁신 이
형태 가
3 조원
국무 회의를
관 왕
초기 부터
제품 들을
원 심
전월 보다
동탄 2
웨 이는
포함 될
퍼포먼 스를
간 첩
마 닐라
어깨 를
이언 주
시 로
이전 과
계 룡
co l
원 주시
되 다
방송 사
달러 당
건물 은
공동 대표는
합병 을
타 스
이슬람 국가
았 으나
음성 으로
정 주
분 실
그 간의
규제 는
거 두고
보였 지만
교 란
9 도
해주 길
효과 에
2008년 부터
죄송 하다
몫 을
현실 이다
갈 등으로
회의 에는
유 물
매 거진
미래 형
수 개월
기재 부는
내 서
사옥 에서
이동 식
지방 정부
안정 자금
자발 적인
변호 사의
유로 존
선착 순으로
김 이수
푸 는
김여 정
하루 빨리
가 나
청년 이
기 압
논 리를
비서 관을
수상 자로
운영 의
인체 에
카페 에서
이 근
대 진
수 은
생각 한
혈 을
진 원
놀 랍
mb n
p 500
분쟁 이
끔찍 한
인생 의
이 즈
해 인
내 시
엘 시티
en m
유상증 자
하기 까지
노력 한
물러 난
보행 자
잔 량
정보 도
전자 공시
보였 다고
적 기
9월 에
경 전철
인류 의
구매 가
어 플리
추진 위원회
미국 에서는
공 구
주목 해야
예 견
pc 방
아이 언
특 권
올림픽 에서
블록 에
방 호
원 숭
거리두 기
하 노
전술 핵
유지 될
31 개
운행 이
점검 할
대대 적으로
품목 은
함 으로
손 혜원
전통 적
sl bm
반영 했다
굵 직한
바 에
마 구
cj제일제 당
취 했다
성황 리에
선정 하는
통합 에
강 민
상 선
동맹 국
법 안에
보 탬
유튜 버
희 경
종목 으로
입장 권
일 단은
판 은
업계 를
조성 될
나왔 다고
비 방
27 개
지지 자
익 은
1 위는
누 르고
뤘 다
평화 적
강화 로
채 운
예측 했다
구상 이다
한 산
is s
허 위로
a ce
f re
내 걸고
주 주로
미 숙
일방 적
까다 로운
엉 뚱
ap i
실 점을
장비 가
다시 금
인 정을
수익 형
밀착 형
대학교 에서
남 매
조정 할
빅 뱅
대선 후보가
논의 될
느껴 지는
임명 했다
보좌 관이
미 소를
경상 남도
2 위로
비 상장
가능해 진다
진 열
수행 을
주재 한
코 디
활 기를
오징 어
구축 과
조 처를
원 심을
망 언
점수 인
재 테크
처 장은
틀 랜드
주주 총회에서
부진 에
검 진을
램 프
아이폰 7
는다 면
인사 혁신
않았 으나
무 관한
신 변
구글 이
챙 겼다
퓨 처
호텔 을
상세 히
지 각
않겠 느냐
6 60
회 상
태 도가
조류 인플루엔자
여 진
주택 시장
용 품을
인 연이
전시 를
카이 스트
포럼 을
도우 미
일 종
사업 장을
하자 마자
박 스를
레 볼루션
름 이
주주 총회를
w i
알렉 산
자리 다
지 점에
태 화
조작 을
연준 이
평생 학습
국무 위원
일회 성
감소 를
오 비
맞 대결
반 갑
저 렇게
접촉 자
수행 한다
터 라
능력 은
금 방
티 볼
조 이
세포 를
해결 될
인력 과
최소화 하고
라인 의
들어 오
총 회에
리 나
확대 된
현장 실습
아이 들과
깔끔 한
야 스
상황 이라
아버 지를
장소 가
전 단
수혜 를
점진 적으로
p op
마음 은
고조 되고
급 속도로
조사 도
막 아야
접 수는
안 락
제 인
있 겠습니다
아이폰 8
혔 습니다
공연 장
둘 이
운전자 의
공시 지가
선 회
시 책
복 직
시민 에게
상품 도
신 병
10 3
로봇 을
교육 생
시 효
자 란
개발 로
유니 버
안정 에
출시 하고
부담 도
남아 있다
대 졸
수 법으로
발표 됐다
조선 시대
이혜 훈
전환 해
val ue
25 분
보 금
생 략
남 편의
조합 은
낳 고
칼 슘
스 승
불편 함을
울릉 도
스마트폰 의
교 감
모색 하는
업계 에선
후베이 성
시작 하면서
비핵화 에
응답 한
발표 하며
외신 에
시 까지
전 에서는
기획 한
최 하위
11번 가
근본 적
돈 의
인정 해
1 점
공 로
적 당
부문 장
감 금
였 을
공정 위가
온라인 에서
내외 로
스케이 팅
전 승
구청 장이
프로젝트 의
언제 까지
방 중
ms net
유 수
소 금
f ir
쏟아 지고
경기 북부
한국 도
렸 으며
물 꼬
류 의
3차 원
명 당
전문 으로
숙 명
중단 한
없어 도
종 신
국무 위원장
근로 제
6 50
선수권 대회
외 고
이어 가는
확대 되는
전날 인
행안 부
교육 과정을
지지 도
치명 적인
환 의
보 온
조명 균
미래 지향
육 성에
한 껏
11 00
피해 자들이
불 안이
뮤지 션
본부 장을
천 막
재 취업
국민 은행
5 인
말 라는
우 성
마지막 까지
캠프 에서
r p
들어서 고
고 른
공정거래 위원회
11 7
발돋 움
안 주
몰 리고
제 때
구조 에
회고 록
적용 이
10월 에
위 약
주재 하고
박 보
박 범
lin e
터 트
유연 한
서 명을
안내 를
앞 섰다
예산 에
사 저
도 전에
높아 진다
단기 적으로
않았 는데
201 1
연계 된
대중 의
상 대가
추산 된다
입건 했다고
헌법재판 관
월 성
하 리
신 대
외곽 순환
메 타
머신 러닝
라인 에
입 각
구조 와
기획 했다
소송 에
가상 한
르 트
예정 됐던
두 면
간 병
아 람
여 동생
버 블
이후 부터
cj 헬로
꼼 수
다 듬
전망 됐다
터뜨 렸다
막 강한
회 원이
에티오 피아
화 답했다
ai 를
담 임
하 시기
사법 개혁
업체 다
자동차 부품
35 만
불 응
최 상
기한 을
충전 소
맨 유
단지 와
평년 보다
선 불
공급 되는
장려 금
투자자 별
내 에서는
개 는
협 회의
미네소 타
서울 동부
당 무
비상대책 위원회
wor k
침 범
내 무
개정 해
3 세
호 조를
기 회의
궤 도
실종 된
궐 련
출 판사
보 탰
작품 에
뇌물 죄
하락 에
티 웨이
귀 환
2 세대
밝혀 진
불과 해
고령 자
강 신
지 나가
재판 은
광 주의
다 낭
서한 을
티 넨
백 제
역량 과
제 주의
연구소 의
창 규
감 각을
투자 자를
영수 증
p x
브랜드 와
지나 고
분 향
좋 음
담당 자는
b j
힘 써
지출 을
배 상을
되 새
순 직
트 레일
넥 스트
20 세
정기 국회
취 하
가족 들과
시장 조사
시행 되는
700 만
계약 금
방사 성
이 거나
동기 보다
생 기고
고 병원성
유 린
물 자
금융 지원
설립 했다
워 진
휴 먼
발생 했을
달리 던
담당 한다
늘 리기
일 컫
조 목
000 만
공동 의
산업혁 명에
법 치
근 속
줬 으면
보 겠다
t y
규제 와
인사 의
내다 보고
시험 은
조심 스럽게
임금 이
주의 의
불편 이
일 용
관계자 도
선 인
낳 은
it ion
개봉 한
안전보장이 사회
단 협
3 500
박정 호
동반 한
임의 로
겠 어요
객관 적
설명 이
cont ent
내 렸습니다
구분 해
충 원
수립 하고
4 분의
돼 도
법학 전문대학원
간 사인
슬로 건
제작 에
되 므로
머 리에
지킴 이
앞장서 고
폭염 이
표 로
호텔 은
파악 하기
동 기간
반영 될
출신 이다
공정 하게
접수 됐다
아 를
친 척
내외 의
6 위
성 폭행을
적 성
is h
요 가
다 졌다
팬 들은
후 의
m it
상업 시설
이 베이
완성 했다
최대 치를
력 도
중단 됐다
분쟁 조정
무더 기로
파라 다이스
공개 해
신설 하고
강제 추행
저 온
초 점이
지 청
퀀 텀
확산 하고
식 탁
승객 이
가 겠습니다
맡 기
8 명의
조치 도
압박 했다
끈 한
드리 겠습니다
진 화에
영 의
안전 처는
문제 점
초반 의
정 민
민주당 에
프린 터
촉 각을
지출 이
동남 권
모 형
고 효율
걱정 하는
유 가는
이 학
포인트 가
중앙 방역
성 소수
입주 한
모 스
획기 적인
김 제
휘 둘
플러 그
l tv
네 가
트레이 딩
미흡 한
보 도록
여론 조사를
돌 풍
5천 만
마 술
존재 하지
재 가동
거 침
박수 현
맥도날 드
기 일을
우려 와
감사 원은
이전 의
오일 뱅크
고향 인
기각 했다
쓰 일
계획 으로
망 설
감소 와
받아 온
주시 길
법률 에
아 쉽다
방송 의
앱 은
산 다
인사청문 회를
연구 팀이
경로 당
코스피 지수는
온 도가
198 3년
도 요타
강 도가
다 룰
모멘텀 이
원 산지
스 몰
속 하는
런 트
속 보
치 인
공간 인
이란 은
지켜 보는
b er
신 소재
개 특위
구성 에
과정 으로
y e
자리 한
3 70
198 2년
순매수 량을
단 정
198 4년
노력 도
노력 했다
무 색
접근 성
쫓 아
증 평
자이언 츠
었 죠
회복 세를
의 지와
공개 되지
조 합의
보험료 가
재 확인
줄 면서
준 이
네이버 가
메디 컬
물러 났다
주목 했다
밀레 니얼
대 단지
다 세대
실 수로
엣 지
컷 오프
자전거 를
당첨 번호
독일 에서
호 도
동 백
지방 에서
역 부족
입장 입니다
기 종
수도권 에서
아 냐
주의 와
회동 에서
4 번째
가 령
기 법을
소외 된
에 마
마사 지
어려움 에
타 인의
나왔 고
현 악
설명 한
사랑 과
광주 시는
실 장의
누리꾼 들은
볼 륨
충격 에
구형 했다
힘 쓰고
시나리오 를
로 즈
신설 했다
먹 거리를
후보 들의
러시아 를
모집 을
전문가 들
필요하다 면
발 암
특정 한
질 과
황재 균
이야기 하는
오 성
라고 도
거 거든요
나 가지
답 했습니다
밤 부터
사업 법
공무 원은
량 으로
n 번
봉 화
범 위에서
노동 자가
져 서
확산 될
한국수 력
고 층
몰 리면서
마무리 할
모델 이다
파 열
원 치
다양 성
틈 새
연방 공개시장
측 도
접목 해
lin k
객 이
날카 로운
아 틀
블랙 박스
이튿 날
7 번
실리콘 밸리
엔지니 어
두 천
주 이다
라 가
열 차를
역 까지
후 원하는
도움 으로
회 화
두 꺼
보이 기도
액 체
등으로 부터
겸 임
실업 률
캠프 에
늦 어
광 진
오 존
유통 업체
소비 자는
않았 나
빈 은
함 부로
개정 된
고속 철도
31일 부터
사용 료
마 실
인천 시는
점 프
빌 린
유라 시아
녹 십자
lg 이노
외 치며
매 장이
대 행을
산 후
제출 해야
친 노
남녀 노
복 리
전북 도
은평 구
국 왕
집 합
김태 년
주목 받는
면적 의
7 건
노동 시장
심 에
과 자
바다 로
매니 지
녹 록
질 적인
법무 부가
지켜 볼
전국 으로
떡 볶
매출액 과
신속 처리
장벽 을
슈 머
의 회의
용 서
톤 을
이익 은
추진 하겠다고
완료 할
안타 로
단체 들이
lo gy
거세 게
급락 했다
서울시 립
참 패
요 동
예정 이었다
암 을
공존 하지만
회 부
계 시
전장 보다
기념 하는
주기 적으로
동맹 을
선언 하고
여성 에게
능 한
wel tomaininfolayer
외교 를
국민의당 의
사법 행정
상용 화를
때문 인
활용 하여
규제 개혁
미 친다
롯데 캐슬
가능 했다
측면 으로는
et y
조건 은
민주당 을
가 닥
홈 에서
홍 석
도 리
현대차 가
위기 의
g u
공격 으로
전환 한
적 이며
g et
클 레이
퇴 장
투표 율
여객 기
게임 으로
자 수
쓰레 기를
고의 로
권 혁
고 졸
배경 에는
8 배
제한 된
김정은 은
평화 통일
키 친
단 장으로
mar k
떼 어
확 률
김상 곤
관계 장관
등 에서도
오픈 마켓
벗어 날
윈 도
레 바
뒤집 어
외 관
하 곤
150 여
텐 데요
예방 할
즉각 적인
광주 에서
포럼 에서
고 작
여 수시
이민 자
컸 던
턱 없이
공공 주택
금융 거래
분양 가상한
다가 올
천 문학
쓰러 진
가입 자는
의견 수렴
업종 을
분 들에게
호텔 신라
프로 필
갔 던
하락 폭을
현대 오일뱅크
필요 하고
공모 가
토 큰
아 바
추경 을
민 영
서 머
보낸 다
sy stem
다음 날인
임 실
정체 가
형평 성
j u
코 트라
수소 차
b ack
히 기
예산 의
진행 이
비 티
동 상
휩싸 인
공 짜
키 가
변 했다
웰 빙
유안타 증권
포 크
부문 에서는
5000 여
유지 한
기 지에
스 탁
인사 하고
온 난
임명 동의
대 서양
국정 농
보건복지 부는
외 주
집 약
m at
입 지가
애 리조
종합 해
비엔 날레
지원 된다
롯데 가
요금 제를
st ar
한국 일보
금 지를
조성 되는
쳐 야
자본 을
부처 의
꾸 미
스코 어
후보 들은
운용 사
김 밥
경영 지원
t 의
났 던
들어가 면
세월호 가
노선 의
결의 안을
조직 에
평가 받고
1개월 간
5 로
기업 들과
협력 하기로
특검 에
런 칭
이산화 탄소
관 공
나 물
뿐만 이
ac h
경력 단절
자신 감
주장 해
막 지
뒤 진
리 딩
까 진
고 검
러 가
식 료품
건강 하고
염 색
기 강
당사 자인
쟁 점이
해석 했다
임명 됐다
접어 든
궁극 적으로
부담 해야
잃 게
수급 측면으로는
김포 공항
증가 는
코 나
보편 적
초음 파
당신 은
겨 루
체험 관
언급 하면서
커 지자
미성년 자
포스트 시즌
퍼 드
올 들어
1 주택
어떻게 든
시드 니
날 렸다
원 더
마 그
d ata
춘천 시
노 바
i os
비 주얼
동 급
모색 하고
무분별 한
실 었다
당선 됐다
소 행
신선 식품
지금 이라도
영향 에
합 한
단지 에서
풀 고
동력 으로
선고 했다고
부회장 에
에프 앤
동대문 구
디스플레 이를
3년 을
금호 아시아나
친구 와
조성 사업
보합 세를
k ist
교류 가
절 기
중 량
자격 은
모임 인
아쉬 움이
가해 자
구 성과
님 께서
억울 한
복 지를
야당 을
녹 아
맞 섰다
사진 으로
회담 은
1년 여
반영 하고
병 과
경 품을
밑 으로
계획 이며
줄 었지만
변화 로
정기 예금
올라 가는
강 국
2017년 부터
세계무역 기구
제 21대
인 들을
y s
노조 와
업무 와
새벽 에
억원 대
아 들은
11 1
오 가며
종 환
자신 도
완료 된
상 계
밤 의
가난 한
매 장은
일렉 트릭
내 주
관리 공단
숙 성
투 수로
겼 고
서 강대
해시 태
아 시
살 리고
제 기를
동 두천
kt 와
기업 들도
수도권 에
위메 프
왼쪽 에서
악 재가
연 고
유지 해야
c re
평균 점수인
닮 은
트레이 드
순간 을
4 80
오픈 한
기아차 의
소홀 히
추진 될
지금 부터
경쟁 률이
들었다 고
꿈 의
동물 보호
드 럼
조 원에
케 냐
터 에
혐의 와
협약 은
권 력이
돌아 서
모 비
개인 별
아파트 와
아이 와
p art
엿 볼
좋 겠다는
프로 축구
의료 진이
지 루
최소화 할
개정 이
두드러 졌다
해 명을
주시 고
교육 도
아름 답
서울시 교육청
과제 에
삶 은
lh 는
법사 위
n ll
안 개가
챙 기는
2 점
분명 하게
항암 제
28 개
핵심 적인
피해 자와
주가 변동
날 씨를
만큼 의
온 도를
페 스트
3 의
민 을
분양 가는
음 반
품목 에
분쟁 을
풍 경을
25 6
오 다
자동차 와
수 배
클리 닉
먹 지
진출 이
확신 한다
저 마다
부 끄럽
수익 은
수요 예측
애 매
이 재정
영국 에서
w er
부과 할
작 고
명백 히
2025년 까지
쫓 겨
공개 된다
매수 우위
5000 만원을
아닌 데
v is
청년 층
앤드 푸어스
국정 원의
마약 류
마일리 지
옆 에서
처리 한
정의 로운
라 떼
피력 했다
중 추
지식 과
했는 지를
엄격 하게
만달러 를
미국 도
혁신 에
강 사로
자부 심을
드 렸습니다
100 만원을
카 탈루
받아들이 고
주 주의
상승 과
무엇보다 도
개정 으로
ut ion
보도 는
통신 망
체포 됐다
아니 더라도
1층 에
보탬 이
재 의
포기 할
접 점을
파이낸셜 타임스
경영 권을
판매 되고
해소 될
기대 와
데 에는
백 혈
인사 들을
27 만
할 까요
한국 인의
추세 에
출시 됐다
경기도 지사
y g
일 문
모 하
갈아 치
생활 권
가구 당
유니 콘
엉 덩
밸류에이 션
tv 의
하였 으나
숙 이
시 했다
사용 자는
승리 의
터 의
말씀드 린
김수 현
등 교
아 동의
추가 적으로
경 주시
화 훼
언급 은
궤 도에
재무 구조
만큼 이나
re t
2 가지
낮 을
스타 가
포기 한
철 이
증 축
인지 도를
특별 조사
주시 죠
차단 하기
몸 의
주도 했다
위장 전입
정 용
세 율을
발생 을
론 과
들 보다
우 여
복합 쇼핑몰
장비 와
군 용
조별 리그
뿌 려
코스닥 지수는
시 의원
1조 원을
슬 리
미래 한국당
합 당
캠프 를
거듭 나
재 확인했다
갤럭시s 7
기여 를
무릎 을
나서 기로
갖 출
라 든가
못 하다
ap ec
국무 장관이
김모 씨
매체 에
전 형을
트랜 스포
좋 지만
면 과
항 로
원 두
풍 계리
세 훈
이용 자들의
기 회에
거 치면서
본 청
제외 된다
약 이
세 상의
잔 을
소송 이
범 국민
수행 한
아버 지와
인도 의
선발 해
구 도를
가로 챈
들어 가고
개 입을
최고 가
투자자 들에게
좋 다는
촛불 을
가 방을
가깝 게
규칙 을
물 동
요구 한다
세 스
확고 히
이루어 질
남 자가
캠프 는
거래 량의
사립 유치원
질 소
전 거래일
머티 리얼
체 조
압도 적으로
착용 한
투 어를
일본 으로
중요 성이
안팎 에서
쏠 림
천 명
최근 엔
c ns
구 명
생필 품
공 석
현 물
추가 된
사장 에
카 니
in d
it s
이해 하는
찍 을
놀 랐다
자유 와
연 제
본부 와
m 로
건강 이
세 습
적정 성
달아 난
의미 있는
입 주민
통합 해
냈 으며
떨어 지면서
분양 가가
사업 자를
거래 원
하 방
데 믹
불거 졌다
제시 한다
대처 할
b 는
ms i
아 태
변경 했다
텐 센트
정상 급
투입 할
우세 하다
미 처
거 고요
대책 과
배달 의
갔 을
자 급
개 각
대법원 장이
대법 원에서
처리 했다
변호 사와
마을 은
아쿠 아
후원 금을
라 서
영원 히
들 기
요즘 은
m t
공 세에
분 으로
완료 한
특수활동 비
유 급
대 도
최저 치를
적절 치
패러다 임을
북 상
누 리고
청년 의
고 난
차 은
다 수가
부 인이
아시아 의
하 더니
생활 가전
해 역
헌재 의
스테이 크
개선 되고
후 원을
제 12
커 진다
대표 적으로
중국 발
경우 엔
겠 느냐
호 찌
부 적합
끌어 올렸다
본 인은
부 흥
패 가
희 의
6 층
업그레이 드를
주의 자
승 합
리니지 m
날 려
내 겠다
보고 한
수성 구
느끼 지
현실 은
양 궁
삼 일
수출 액은
이태 원
공직 선거
오찬 을
트 라우
성공 했다고
권 영
4 학년
덕 수
버 트
한국거래소 에
의미 는
맞추 는
수립 을
남편 과
끼 칠
재미 있게
절반 에
강 도를
이 므로
유기 발광다이오드
말 아
존 속
샐 러드
차 선
아 쉽게
이 르게
시절 에
대 국
부 위에
원내대표 도
40 억
배 드
서민 금융
입장 과
금융 통화
비중 도
억 지
한 빛
뽑 은
메리츠 종금
브릿 지
동 조
비 주류
피해 자들의
공모 해
형성 하고
4000 만원
비정규직 의
합류 했다
지구 에서
입찰 을
난 항을
말 리
사용 하기
특활 비
유 화
조치 했다
장 에게
통 에
참 치
모 녀
작용 하고
시급 하다
인지 하고
배당 금
날 에
지원 사업을
2 15
사업 가
특례 법
추 월
테러 를
명실 상부
광고 는
자민 당
lg화학 은
내 국인
코 리안
견 조한
요 르
청 송
반발 해
네트 워킹
1 라운드
공청 회
추진 이
칼 라
천정 배
역 사는
보장 성
n at
합 치면
성 관계를
참여 형
평 안
차지 해
유지 에
화 염
양 립
밀 크
마 냥
순 위에
주식 의
가져 온
국토교통 부가
좋 겠다고
태 워
머리 카
양 일간
김기 현
준 다고
당선 인이
여객 선
특 이
냄새 가
한국 투자
호 투
모습 과
시즌 이
연관 된
펀 더
불 완전
주 위
참여 자
맞 닿
편의 성
레 몬
처 해
울산 시는
기본 급
상응 하는
벽 이
빈 틈
미 군의
치 르
토 양
옥 상
프랑크 푸르
누구 를
40 억원
쓰 인다
관 례
대선 주자
횟 수
세월호 를
기 권
버 닝
이스 탄
러 는
천 문
만들어 서
u fc
거 란
관리 의
존재 한다는
쿠 알라
장관 급
목표주가 의
극단 적
유지 되는
페 트
유리 하다
풍 요
다중 이용
쿠 웨이트
sk텔레콤 과
재 즈
사 들인
타워 에서
적 정한
스 모
공 실
c y
않 던
대기업 에
비무장 지대
자연 스레
스트라이 크
소상공 인의
수 지는
40 개
닛 케이
3 90
짓 을
진술 이
부 풀
결 을
운 명을
n t
서 거
창 수
입 대
매체 를
수수료 가
h er
안 토니
재택 근무
화력 발전소
관악 구
중 이었다
면 은
이 디
연방공개시장 위원회
에버 랜드
한 자리에
취향 에
마땅 한
홍 종
도입 한다
귀 족
욕 설을
수백 만
것이 지만
선호 도
말 만
모색 할
나무 가
감소 세를
사 절
영 예를
빠 지는
김 어
사로 잡
렉 트
허 니
코 가
급감 했다
민 심이
일간 지
사업 시행
나 면서
유 령
4 20
어 둠
모 노
상 고심
긴장 감이
로봇 이
대해서 만
티 가
도쿄 에서
최 씨와
자 활
14 명
반대 의
트렌 디
법조 계에
인가 요
희 석
저 격
후 진
주말 에
동 선을
작업 도
확산 이
덕분 이다
수칙 을
조기상 환
먹 었다
텍 의
포함 되어
확대 하기
확인 돼
온 스
전월 세
일정 과
2019년 도
수렴 하고
제 동을
최저임금 이
파 와
5 억원을
많아 서
승용 차를
현장 에서는
볼 트
한국 에서는
끊임 없는
웨이 브
생각 한다고
이 찬
400 만원
오르 지
방법 과
4 만원
디지털 데일리
기간 인
사 살
활동 했다
세 금이
500 명
채 가
리바 운드
학 문
한국 가스
비 앤
중앙 대
언론 에서
목적 의
주장 과
if e
스 무
그 보다
백 종
여유 를
지도 부를
밑 에
요구 되는
만들 지
자리 잡고
600 여
버스 터미널
향 토
시한 을
와이 즈
순 수한
국 선
경기 의
방 점을
웃 고
동의 하지
공정거래 법
올해 부터는
마 른
제 5
천 만
전쟁 에
유상증 자를
시 트를
네이버 의
발 화
이전 에는
11 6
금융 소비자
프로 농구
운송 장비
빠 뜨
사 소한
추 위가
엄격 히
지 스타
장관 으로
게임 즈는
전환 사채
표 창원
선박 의
개발도 상
펀더 멘
꿈 에
팰 리스
5개 년
대표 이사가
기록 했던
18 개월
인 들에게
변 하고
예탁 결제
품목 의
가지 의
분기 점
1 주당
강 압
네이 션
기 무사
해결 이
경 직
내 일은
주문 이
불 륜
피 겨
최고위원 이
하 이라
김 유
탈 환
치솟 았다
or y
70 년
경기도 와
가구 와
h r
계 명
기록 하면서
감 액
나 간다
요금 은
시 동을
공정 성을
공 항공
위 즈
다 드
거주 하고
선임 했다
if rs
v 30
카탈루 냐
뉘 엘
정치 국
겸 손
복지 부는
사드 배치
하 를
쿠알라 룸
볼넷 을
김 두
구 비
조 은
5 세
s f
수비 수
움직임 은
실 직
말 하기
형 식의
안 치
너 를
도 산
대상 의
2 라운드
17 대
옳 은
가전 제품
노력 은
중국 도
구간 이
건강 증진
비 시
노동 시간
19 00
다니 엘
잔 치
투입 된다
야당 과
거 치며
발 행을
내 준
골 고루
2015년 에
박병 호는
억 압
델 타
만드 는데
스타트 업을
퍼 부
받는 다고
신 정
소요 될
걸 그룹
국민 께
했는데 도
광주 전남
빛 의
의 장과
어려 웠던
탈 당을
출석 하고
확대 하기로
제 트
훔 쳐
들어 섰다
업무 는
누 르면
였 기
대 일
상황 에서는
한 부모
금 정
머 릿
요구 해
이벤트 로
말이 죠
갖춰 져
go od
필요 하면
있느냐 는
호 재로
점검 해
반 덤핑
특 위는
시장 조사업체
의료 정밀
노동 위원회
울산 시장
이 겼다
d er
어 묵
소비자 물가
궁금 증을
명이 었다
쌓아 온
안 철
책임 질
안산 시
가능해 졌다
경찰 에서
한 수원
정당 에
관계 에서
하 림
v el
직 장을
스튜 어드
닫 는
조직 으로
포지 션
삼 을
종 근
200 원
기 보다
2 는
한국 갤럽
an k
정호 성
소속 된
법 칙
수 임
할 만한
5 개의
b 씨를
한 차례
기념 사업
서 청원
t bs
재 조명
감소 해
보 임
토 익
궁금 한
지금 껏
토 막
운용 하는
화 도
달라 지는
연준 은
쓰 면
성능 과
지속 적
생 수
파 문이
100 여명이
출발 을
인데 다
무 급
안 구
연 비
출시 하는
정보보호 협정
파생 상품
세대 는
스타일 의
여러 분이
비난 이
의 사의
호 재가
사무 소에서
서 영
가 진다
부근 에서
점검 하는
일 입니다
각 료
반 잠수
절 망
운 임
중앙 당
명 소로
이어 가며
사용 에
지 중
당당 하게
고발 한
전통 의
도 루
모르 겠지만
책 상
판매 한다고
수요 자
안전 점검
비 오
안녕 하십니까
등판 해
옥 외
디자 인은
공감 대가
급 수
선수 들에게
반영 됐다
위험 성이
갖 지
박 유
역사 문화
하시 고
가 용
아프 가
증가 하며
기념 식에서
금 년
불 신
자아 냈다
업무 의
절실 한
b it
집 과
차 가운
일대 일
것 만으로도
사용 되고
지배 적이다
한국 인터넷
항생 제
레 스터
모 디
생산 은
표현 할
해소 에
뒤 덮
늘 었지만
성 지
현 관
항 은
생산 량이
인터넷전문 은행
북 서
오 거
경영 의
일부 개정
상황 실
급증 하는
트 루
재 물
가능 합니다
해 역에서
4 k
가 이
미 군이
권 성동
조합 이
동 맥
금리 인하
모 처럼
와 일드
전략 의
함유 된
하 원의
상 쇄
마케팅 에
심각 하다
창업 에
스 팀
높 기
신 격
레 지던
40 만원
애 정을
평 이
구매 하면
대단 한
축적 된
산업 진흥원
마 운
생활 체육
하 셔야
짧 아
액 면
기술 주
보도 된
사랑 에
전라 북도
스탠더드 앤드푸어스
맞 는다
채권 단
투입 되는
진행 하기로
방 배
버 릴
26 개
활 기
주도 할
회복 할
피 하는
분양 이
글로 비스
천 장
태극 기를
산업 협회
17 억
브리 지
갔 지만
200 억
보호 할
kia 는
걸림 돌이
수사 팀
초기 에는
판매 량을
대변 인도
핵 무
29 만
권리 행사
진입 이
쪽 을
징 벌
묶 여
제공 한다고
일 탈
기록 이다
접수 한
임시 회
공감 하고
내리 면서
주 자인
있 더라도
제작 사
나라 로
도착 할
걸 맞은
인종 차별
티넨 탈
사 이를
교 향
김 범
표 한다
수 종
전 원을
지 음
의 거
14 조
한편 으로는
대화 는
소설 가
함께 할
막 은
잃 을
선고 가
응급 의료
국민연금 의
범 이
슨 이
분류 된다
발의 했다
기술 이전
진 주시
심 정
없 거나
투자 자문
꼽 은
총 궐
관계 와
푸 짐
무 서
합 천
에 쓰
본부 의
발언 과
우수사 례
운 명
추진 되고
이철 우
견 고
비교해 보니
공략 을
9 명의
지분 율은
비용 의
7월 에
스 낵
법정 관리
총 파업
나 인
r f
기업 들에
9000 억원
한 민
화 두
남 조선
h mr
공 교
지속 해
탄생 했다
클럽 에서
디자인 에
정부서울 청사
판단 은
시큐 리티
v i
고 지를
18 7
대로 라면
in a
모 였다
달 부터
순 창
머무 는
복지 시설
결 제가
죽 어
넘어 가는
협조 해
김문 수
등 에서는
조정 에
서 연
서 경
박 명
봤 지만
기준 과
신 제품은
이어 폰
성 숙한
개최 됐다
중단 할
변동 성은
의 과
아니라 면
시 스트
하락 해
서울 시장이
카 리스
14 8
열 사
세상 에서
언 행
조 성과
누구 에게
지 뢰
얇 은
깎 아
설계 가
중소기업 중앙회
불가 피해
2 의
극 적인
타 개
방 청
의 욕
순매수 했고
비율 도
정치 인이
기록 물
지원 단
청소년 을
고민 정
자유한국당 을
설립 하고
정보 시스템
기획재 정부는
앱 으로
목표 주가는
공무 집행
상원 의원
냉 방
다르 다는
사령 관은
그 치고
여파 가
삼 계
비롯 된
12 7
행정자치 부
개선 으로
환율 조작
4 g
남 북한
지도 부의
적이 지만
1000 억
금리 로
야 만
계열 사의
제 19
자 초
출시 되는
조직 적으로
어머니 의
가담 한
스와 프
머 리가
사 칭
무력 화
부산 과
학 자금
음 은
펼 치며
다 오
가구 다
d 는
한중 일
k n
패 배를
구조 물
퍼 즐
참 전용
예정 이어서
하 순
침 착
스리 랑
장애 인을
스 미
아 디
협의 할
질환 에
루 살
리 카
완화 하는
수 명
감당 할
비 나
어 획
줬 다고
선임 됐다
표결 을
전국 을
판 례
최 모
2016년 에는
us e
서 천
책 과
증권 가
앞 바다에서
모르 지만
해 본
확정 할
음악 회
모른 다는
채택 한
sk브로드 밴드
엘리 엇
분 도
시도 했다
김현 수
5 18
교육 부와
뮬 러
교육 감이
친인 척
진 다는
유진 투자증권
입법 예고
분 한
구치 소
김 규
태 훈
교류 협력
실패 로
반복 되는
대비 하기
몰 락
블 렌
옮겨 져
참석 차
허리 케인
입장 도
카드 의
식 당을
u str
르 네
생산 해
유 입을
출발 하는
흥 국
잡 화
안 티
삼겹 살
장 세
오전 부터
원 장을
휠 라
페 스타
경기 남부
통 째로
같 지만
농 가를
유료 방송
주택 금융
거리 다
높 았던
넓 히고
반 정부
세무 조사
샌드 위치
물 가는
유일 하다
시그 널
k c
니 즈를
강 아지
형성 돼
군 도
윤 동
도시 는
수렴 해
뛰어 든
아 슬
서울 교통
주 효
계약 으로
당선 자
류 가
두 번째로
확대 는
실적 과
얘기 할
구 례
도보 로
t eu
요금 이
경 마
건전 성을
무 고
매수 비율
신 빙
근로기준 법
게임 이다
량 도
신 학
탄핵 에
공개 하며
인 프
봉 합
비난 하는
발 산
성이 나
거 실
최우수 상
쇼핑 을
꿈 이
전문 대학
보궐 선거
스튜어드 십
졸 음
일 대는
열 지
울 타
초 소형
어 플
하셨 다
s co
동 종
구 태
정 씨가
이라 서
요양 병원
박영 태
운동 과
입건 했다
수출 의
현재 로선
초 에는
발생 하면서
소통 할
유도 하고
속 옷
급등 할
싸 게
과징 금을
몰 카
밀 고
바 흐
앞 다퉈
적 일
배경 이
정치권 은
200 명
상태 는
시각 장애인
매 듭
트 라이
사 주
태 세
불 렀
점 퍼
접 종을
하 한
무 니
성적 은
필 지
처벌 할
백 남기
분위 기에
올랐 던
울주 군
의미 의
김진 표
토 마스
보건 당국은
걸 까
긴밀 하게
충 칭
단계 인
달 빛
펼쳐 질
의견 과
에마 뉘엘
중소기업 은
백 은
행 선
룩 스
기간 도
받았 으나
라 마
한국 은행은
불 사
재정 적
실시 했다고
들에 겐
진입 한
일 이었다
지 카
nas a
교 사를
보 러
환경 도
카메라 가
정도 만
도입 으로
고문 은
정치자금 법
보 기는
수 주를
페이스북 은
신종 코로나
각 급
보 시는
입 수한
루 머
구역 으로
홍보 에
인력 의
공무원 과
딛 고
전파 를
샴 푸
본 사와
수 자원
출시 된다
미만 인
am e
언 덕
극 찬
6년 간
크리스 탈
거래소 는
14 5
입 구에
안보 에
5 20
원 도
나오 기도
요청 으로
단 열
추경 안
투 수가
이노베이 션은
너 의
소 야
피 했다
이승 만
4 차례
망 명
멧 돼지
기관 장
100 세
숨겨 진
바른정당 이
송영 길
40 명
기획 됐다
정 찬
말씀 이
않았 으며
느 린
후보 자로
힘들 게
건 에서
총 연맹
비 리에
막 내
재 팬
부여 했다
블 레이드
예약 을
성격 의
두산 인프라
쿠알라룸 푸르
만 기가
수 저
남북 은
자체 의
지 주는
공동 체를
마운드 에
호 프
보 셨
페이 지를
일시 적인
사망 하고
이 베스트
불 기소
밝혔 고
국회 로
마 두로
추 는
15 억원
대원 들이
변 에
싸 우는
본 점에서
이야 말로
더블 유
었 는데요
의원 총회를
공학 부
4 기
달성 하기
점 주
tv 토론
국고 채
산 불이
치 르고
다 리가
분야 와
혼자 서
사로 서
카 슈
제시 하였고
방통 위
이 력이
12 조
섞 어
28 만
천 년
조성 한다
어젯 밤
자 락
착수 한
선 까지
어 닝
공모 에
아프가 니스탄
선수 들과
출 격
무산 된
3 세대
테크노 밸리
국무 부는
흔들 리지
충격 적인
도 정
새 해를
10 조원
절차 와
우수 하다
반복 적으로
초 속
넘 으면
형사 소송
기 량을
동 요
3 박
팔 렸다
가족 들의
실 외
방문 한다
정부 조직
극단 주의
가 리는
공 휴일
잠재 력이
말 합니다
정치권 에서
해왔 습니다
텀 블러
방문 에
나트 륨
되 니까
스포츠 유틸리티
밀 린
12 6
베트남 의
이메 일을
완 구
능력 에
평양 을
원 론
기한 이
안팎 에서는
인플루 언
누 출
국제 협력
극 한
히 데
됐 는데요
목표주가 로는
기조 에
기 사의
전 할
직무 를
호찌 민
치 렀다
운동 가
요구 는
종 북
소식 은
g 는
열 리지
훈 이
덩 달아
증 에
토론 토
사업 장에
권 순
4 선
대표 팀의
반성 하고
지도 자가
현 명한
인천 의
지원 한다고
에르 도안
의 약
스토 어를
몰 릴
싶 다면
기존 보다
1대 1
신뢰 도
11월 에
국가안전 보장
자금 의
노 량
장 하성
볼 보
전 라도
용 적
피 곤
특검 을
관광객 의
sk 증권
서울 지역
시각 으로
국회의원 을
비판 적인
동 국제
새 정치
감염 을
매 집주
노동 계
보탰 다
다 져
심사 와
발행 하는
따뜻 하게
여 타
혼 다
대화 하고
유형 의
특 단의
투자 금
신규 로
슨 의
예 쁜
5시 까지
령 은
증언 했다
일관 되게
오피스텔 은
배틀 그라운드
판매 된다
pos co
콜 을
사라 져
다툼 을
공간 도
생 후
검토 해야
홍보 하고
진입 할
같 지
c 가
주문 한
절대 평가
공 원으로
주석 과
전년 동월
신체 적
5 곳
되 겠습니다
식 음료
유발 할
일렉 트로
잃어버 린
풍 속
설치 가
망 라
방송 과
호 랑이
20배 이상
4 호
구성 할
하이 투자증권
연구 소를
성실 하게
나 이로
우 석
정 비를
손 질
말 하지
홀딩 스는
니 의
확인 20배이상
주력 매집주
메이저 세력의
미친 시세를
5조원 메이저세력의
켈 리
1만 2000
폐 사
여 럿
끼 친
확인 됐다고
추천 했다
또 래
바이러스 를
7 명을
고려 했다
구역 에
쌍 둥이
마련 하겠다
교 가
사회 부총리
환경영향 평가
준비 돼
우라 늄
골 퍼
지분 율
om ia
국정 원은
오승 환은
각 지에서
편의 점에서
비비 고
한국 여성
발 원
기울 여야
일주 일에
000 여
노 려
밟 아
변 한
피 서
있는데 도
원이 며
롯데 하이마트
투표 율이
아시아 태평양
한 유
모 션
영화 로
놀 란
박 동
도시 인
헌법재판 소장
거부 할
정 석
경 민
아 이에
c fo
코로나바이러스 감염증
교육지원 청
주식 시장
상승 은
눈 tv
정 씨의
출 항
파 르
k w
매매 회전율이
박스 오피스
a ws
지원 하며
배치 했다
서류 전형
장 래
주 셔서
비교 했을
제 9
엄 정한
부산 은행
따 르지
보복 을
도시 설
시작 하고
내 렸다고
tv 에
브 렌트
하게 도
개 요
국내 선
33 만
제주 특별자치
분리 해
항 일
문제 점이
업 주
기 프트
팔 려
건강 검진
받았 는데
크 리
전문 성과
이르 렀
00 만원을
골 자다
루살 렘
방 불
출근 길
그 리는
직 업을
u f
기 에서
이전 까지
vo d
누 리는
일문 일
태양 의
사 연
예 루살렘
고교 생
서울특별 시
리 언
라 미
가치 로
델 리
공개 될
어 와
바뀐 다
에이치 엘
j sa
아꼈 다
마 당에
작용 을
전당 대회를
평화 체제
총선 이
d y
구 해
붙 잡아
지정 하고
신 원을
최소화 하는
강 등
공교 롭게
파기 환송
빨 래
13 조
노태 우
당당 히
주목 됩니다
데이터 센터
박 희
거래 의
집 적
저 리
사각지 대에
드러 내는
종 속
것이 나
아이디어 가
해 충
명 지
양 상이다
면적 을
시키 면서
유지 하며
반대 한다
인사 에서
황 창규
하락 하는
계열 의
부 설
다니 고
b ts
당선 이
흔 한
청소년 들의
당 으로
위기 관리
방과 후
박 철
이탈리아 의
대표 이사를
기능 에
제출 된
문자 메시지를
상향 조정
연 대가
들어 야
자 긍
화웨 이는
단 위의
보인 다는
건의 했다
4 500
낙 선
해왔 고
전시 회를
기초자산 으로
몸 매
역 외
절감 할
득 이
제안 하는
인 질
번 을
70 억원
펼쳐 졌다
세일 즈
노트 7
명분 으로
높 인다
그랬 다
3 호선
시 술을
안 병
생생 하게
봄 을
강남 의
기지 에서
드러 날
읽 을
대한 상공회의소
심 근
염 을
대표 자
ul t
취 하지
원칙 이
존 을
이상 일
두려 움
적 당한
실현 하기
복 이
예 전에
딸 은
lg 그룹
해보 자
인 승
젠 은
노 사는
충 주시
수출 하는
gs omia
벙 커
산 화물
실 소유
있었다 면
사과 와
가공식 품
맡 길
3 승
산업 화
실천 하는
살 포
기울 이
위축 된
이용 권
모 르게
개 와
4년 제
스 완
깊 다
sc i
낮 다는
회계 연도
서울 시에
국가 들의
n go
4000 원
5 원
겼 다는
입국 자
n번 방
7 위
등이 었다
게 요
해 줘야
b us
아 워
팽팽 한
지사 에
두 뇌
족 을
해 발
윤 경
표결 에
나 이지
통신 과
헤지 펀드
비행 기를
변 하지
한국수력 원자력
할 아버지
아이오 닉
진흥 원은
날 의
공격 적으로
북한 인권
축 으로
포기 하는
가시 화
생산 되는
돌입 한
성 차별
과정 에서도
다 로
공간 이다
1970 년
2 경기
완화 에
이 직
현대 엔지니어링
눈 과
이름 과
공 항공사
코스피 200
혁 명의
한 몫
지자체 에
땅볼 로
금융 정보
김종 민
범죄 로
연구소 에서
대구 와
착용 하고
과 로
자신 감이
한국 사
계약 서를
2007년 부터
기류 가
물 갈
않아 야
위치 한다
농촌 진흥
18 6
맺 어
김 신
활약 했다
상황 인
호 화
시행 될
달라 진다
2018년 까지
거듭 날
제기 할
의 자
과시 했다
동물 의
이 별
검 체
이행 하지
고 3
농 담
원자력 안전
환 자들의
소개 하며
어 색
호텔 에
농 기계
탄핵 이
확정 한
감소 했고
유출 된
온라인 을
황 당한
원 세훈
롯데 백화점은
착 오
정도 면
받아들여 지지
기 지로
w bc
폐 기를
탈북 민
70 주년
경 보를
퍼 스
틀 에서
팬 들을
손 상을
기지 국
사 키
환영 한다
이지 스
4 분기에
상반기 까지
식 기
쓰 나
통과 시켰다
금융 은
연 관이
f oc
부 르고
항공 편
헝 그리
판매 해
생 선
마인 드
니 에
위 상
실 히
수요 와
없애 는
리처 드
찍 힌
백 두
경 합
돌 풍을
불안 해
항목 에
리 프트
강좌 를
손 목
정 대
이 것도
스 릴
크 라이
태풍 이
정리 하고
크 가
몰아주 기
대표 팀이
중심 지
총 장에
단 장을
만들어 내는
개념 이
택 한
이 효
시위 대가
등급 으로
판 에서
맞 출
군사 정보보호협정
확충 을
학생 에게
캐시 백
거주 자
차은 택
7 호선
과 언이
해 태
시도 하고
위원 의
우여 곡
정당 은
스 위치
한 컴
일부 에서는
찾아 보기
막 았다
돌입 한다
서울중앙지검 에
어우러 져
애플리 케이션을
피고 인의
2 종을
% .
지역 도
k lpga
파운드 리
삼성 전기
이뤄 지
타이 완
농 심
해석 도
연합 은
취업 준비생
헌법 을
연구 용역
작품 의
범행 에
함 안
복 숭
동기 대비
광화문 광장에서
소 울
파 병
심각 성을
경 동
부분 들이
60 년
보 던
세 트는
해 봐야
주식 이
나이지 리아
기간 에는
크 의
통과 해
석 과
용 접
대응 과
3 명으로
제 대
차질 없이
후쿠 오카
정리 한
케이블 tv
당 근
1월 에
전수 조사
1만 명
영상 과
스 틴
포인트 는
광범위 하게
조 찬
라이 벌
투 신
갑작 스럽게
침체 된
이 소
피 에
am p
혐의 다
개별 적으로
우 린
c er
돌 리
숨 에
아니 에요
살아 온
성 토
추락 한
아동 을
육 류
불투명 한
코 스타
않았다 며
낮아 질
추징 금
금액 으로
부모 는
괜찮 은
이사장 의
근로 소득
봉 송
7년 간
추진 하기
읽 기
발 코
웃돌 았다
서 문
숨 졌습니다
저 서
애초 에
죽음 의
이 차
건 가
40 분쯤
승리 한
감 사가
시절 인
기소 돼
7 개국
d lf
패 싱
합리 적으로
따 지면
최 연소
7 만원
전기가 스
기업 가치
입 힌
던 지고
b le
훈 훈
복귀 한
불 의
적 의
법제사법 위원회
싸 이
제작 했다
넘 고
군사 훈련
원유 철
입력 하면
cj제일제 당은
들 에서
이익 에
원 전을
여 소야
측면 도
살 피고
머니 s
자동차 보험
날 씨에
없어 야
c 의
임 단협
정의 선
북한 으로
방글라 데시
때 에도
4 단계
입증 했다
과기정통 부는
그 때는
고 르
킬 로
익 이
상승 세다
7 차
보 너스
준 희
텍사스 산
차 주
먹 어
자체 로
제조업 의
2019년 까지
4000 만
특수 관계
프란 치
구 시
g en
친구 들이
프랑 스는
블라디보 스토크
스 파크
방 증
보기 에는
격 화
프로젝트 가
194 8년
조직 과
레스 테
공유 했다
선고 받고
체계 의
15 9
가 했다
맞서 고
그림 이
시 판
co mp
이 리
양도 세
겼 다고
접 대
김 미
박 선
동 선
잡 혔다
해외 주식
준 결승
검 단
택 했다
주차 장을
차지 했고
생활 비
김현 아
쳤 을
최 문
논쟁 이
장애 인이
명 분을
선수 촌
접수 하면
출 동해
그룹 으로
고 승
독일 과
서울시 청
단 어가
인 기다
항공모 함
연구원 과
출 장을
혁 명을
제외 됐다
장르 의
살아 야
em ent
종부 세
3 개를
채권 형
최저 가
1 명의
큽 니다
le e
상대 의
그 란
계 정에
검증 이
전통 을
경복 궁
박 주민
비 급여
테러 가
로그 인
4 60
공 해
가 혹
영남 권
최 은
투자 했다
유도 할
시 외
으 려면
스카 이라
직 은
유가증권 시장
아 들과
월 등
시도 하는
자회사 로
당협 위원장
정 모
점 에서는
방 금
주 미
넘어 야
사라 지는
대 통합
15 세
광고 가
우 진
바이러스 에
하늘 이
체험 형
인턴 십
조사 에서는
위험 성을
살인 사건
구 애
비밀 번호
연구 자
f al
영화 다
예방 하고
흔들 리는
시작 과
시달 리고
차 원이
올 리지
비 누
정치 와
만찬 을
남 성과
광주 형
영 산
군 위
수사 할
유 전체
아침 부터
브랜드 다
제주 에서
지 시가
관리 시스템
자료 와
상한 가
충 전기
호 송
이대 호는
확산 되는
국 기
열었다 고
개그 맨
국가주석 이
강 아
예 치
갤럭시노트 8
팔 린
맞 습니다
dis play
태어 났다
따 냈다
적절 하지
오전 까지
현장 으로
언젠 가
카드 와
전달 해
소유 하고
개혁 은
6000 원
최후 의
각오 로
접근 성을
파악 했다
최고인민 회의
사 기를
옆 으로
항공 기를
매니지 먼트
w n
감 식
재 해석
경기도 의
거리 의
5 30
귀 여운
35 분
변 해
성 에서
공연 에
휴 전
결합 된
무너 졌다
적 십
용 량을
조 모
버닝 썬
평소 에
간격 으로
사 안은
현행 법상
위 성을
창 구를
확진 자의
연구 진이
혁신 센터
애 완
저 에게
주도 해
국산 화
o ut
삼진 으로
백화 점이
되었다 는
성수 기
캐 스터
28 년
9 급
불 문
행정 복지
빼 돌린
변 혁
향후 에도
퀄 리티
게이 밍
아름다 움을
주 스
잘 하고
d es
배 심
청량 리
이뤄 지면
뒤 처
자연 재해
여 지를
숫 자를
상 류
계속 할
흐 리고
내 에는
내 를
결정 해야
197 3년
자연 과
질병관리 본부는
토 요
섞 여
오 븐
분양 할
예상 이
참여 와
흔 들고
장 동
비 공식
스코 틀랜드
사업 장에서
ab le
자 세가
반 대해
사 이다
처음 엔
신뢰 성
불 공정거래
올라 서
합류 한
황 사
계속 해
스마트폰 과
관리 해
복 역
1만 여
난 에
효 력을
청년 실업
아이템 으로
다 케
cctv 를
예 타
신청 해
묵묵 히
랩 은
국내 의
써 서
허 술
출 연금
이평 선
의 상
피해 자에게
업 로드
근로 자는
남녀노 소
맞 지만
봄 이
우수 상
지정 하는
신격 호
개편 에
만남 이
출범 했다
물 이다
혈 당
캠페인 에
임 박한
2월 에
설비 투자
명 심
대표 들이
서 동
구현 할
기업 집단
이사 장을
달 하고
강 하고
들 게
연구소 장
25 전쟁
구속 했다고
시사 한
키 오
3 법
전략 적으로
있 나요
니 코
입 법을
캐롤 라이나
산업평균 지수는
저 수지
보 로
의뢰 한
지 경
상담 회
남 는다
퇴 사
원 인과
이순 신
찬성 하는
무책임 한
개선 했다
법률 안
메뉴 로
여기 저기
돼 요
상 큼
화 소
가입 이
이어 온
가 뜩
광산 구
대출 금리
궁금 해
처 에서
이란 과
판타 지
2 등
공산 이
점검 에
모 기
mo re
중 원
도로 는
단 풍
만 도
내려 갔다
스 님
j y
몰 라도
세워 진
직접 적
계좌 에
캐릭터 가
상세 한
역동 적인
마스크 팩
해당 하지
공 원은
새마을 금고
끼 쳐
8 건
ss g
진 실이
자유 로
연 승을
정 원을
바 비
j a
고민 해야
기울 일
곧 장
확 대한
감염 자가
생존 을
가뜩 이나
늘었다 고
리 틀
요청 하고
균 이
연 행
뛰어 들었다
외 부의
보건 환경
14 4
산 으로
영 입을
협력 하고
세금 으로
조사 됐습니다
일상 에서
이 프
반 군
포 진
름 을
물질 로
위 기로
서포터 즈
순매수 한
3 사는
ml b
k d
산업 에서
연출 했다
재판 장
공급 된다
구속 했다
이유 미
운영 하면서
열 광
프란치 스코
기대 하기
대장 암
교 두
열 기
검찰 총장이
후문 이다
규제 의
정책 관은
밤 새
국민연금 은
높 여야
제안 한다
강 세다
뼈 가
man ag
콜 레스테
200 8
스 루
인 연
날짜 를
조 명을
심 리지
필요 하지
산 둥
전 만
공급 과잉
r c
제 18
확정 되면
국민 들을
공연 으로
단 숨에
두 통
내려 졌다
고용 부
펴 고
한 마당
천안 시
18 억
한국 항공우주
파이 널
배 의
콜레스테 롤
한 마음
황 영
생산 성을
폭 등
외무 상은
공격 하는
프로세 스를
엔 비
진 드
체험 하고
교섭 을
고 체
출시 가
제출 하고
예측 할
롯데 제과
지역 화폐
고용 이
황 희
출시 에
하 거든요
실시 되는
정당 인
스타일 링
거 스
렌 털
이 양
금천 구
u x
거래 하는
매 개
범죄 인
197 8년
줍 니다
10 곳
194 5년
소 유의
요구 했습니다
전달 한다
17 6
장 학생
드러 나고
휩싸 였다
떨어 지
볼티모 어
믿 어
저장 장치
예정 이었던
바이오 의약품
5 60
환경 은
자산운용 은
00 59
브 라우
맞이 하는
겼 던
단 언
물 고기
쇄 도
사유 는
포착 됐다
엇갈 린
m on
유 언
히 토
조차 도
초과 한
조 림
90 만
국가 보안
재 적
물질 인
계획 의
판매 했다
낙 폭을
tech no
견 과
권리 와
11 3
비서실 장과
친화 적
보시 면
h i
선 장
광 안
고객 에
5 점
하나 만
혼 조
지도 부와
자 국의
자연 의
정병 국
회 원으로
대비 하고
c an
진 두
정 점을
도민 의
간 다고
특별 공급
해소 하는
스 텝
연 패
권 영진
부 경
외환 보유
평화 협정
1천 만
sm art
요 코
수주 한
소득 의
즈 음
이내 의
크리스 티
기억 에
스트 림
부정 청탁
편성 해
알 았
주 겠다
아토 피
쪽 의
이모 티콘
활 을
제시 하지
경영 학과
16 명
조성 하기
압박 하고
입 출금
환경 개선
구역 은
롯데마트 는
피츠 버그
360 도
홍보 대사
4000 여
거 시
비 야
높이 의
제작 하는
취소 했다
높 지만
경쟁 은
시범 경기
불가피 하게
살 만
설정 하고
산 부인과
내려 가
멜라 니아
할머니 의
계속 하고
가 한
엄 한
공백 이
1 억원으로
백 신을
토 대를
강 판
데 모
토론 회에
버 지
s 는
복 사
회 원을
교 의
돼 있다
하락 세로
손 수
대표 단이
국립 환경
현대 홈쇼핑
막 걸리
foc us
타깃 으로
et ri
나눔 의
규정 은
단일 화를
차별 화를
소 품
여 사의
필 승
이전 부터
성 신
심 사는
화력 발전
달 랐
예고 하고
na ver
직 관
미 라
현대 캐피탈
방침 이라고
낮 에는
기 세를
과 점
최 병
시작 부터
개막 식
위 기는
민정수석 이
익 명
심 플
재능 을
2 24
기준 치
하이 머
컨 트리
출석 했다
일문일 답
소독 을
안 테
고객 사
세력 과
제 스
지지 자들이
지식산업 센터
돌아 선
의뢰 했다
커버 리
격려 하고
증 대를
수 라
밀 렸다
성 관계
카메라 에
있 잖아요
정 리를
콘텐츠 와
화 석
해결 의
90 일
답답 한
긴급 체포
팬 데믹
미 야
숙 원
괴 한
산 간
자 르
압박 하는
정 청
700 여
경기 부양
4 30
현 상으로
시키 려는
박범 계
흔 드는
베트남 에서
평 판
정부세종 청사
역 점
전망 과
담당 한
탑승 한
크리스 마
2루 타를
더 위가
패키 지는
유 실
픽 셀
삼 천
더 를
정체 성
더불어 시민
마감 한
길 러
v d
확진 자와
엘리 자
갔 다고
하 반
여성 들은
1 개를
4 위를
집 의
폭 증
국정 원장
보 신
장 녀
알아 보겠습니다
꼽 히고
배우 가
도로 와
힘 들고
기장 군
견 디
틸 렌
음악 과
이더리 움
과학 자
회장 도
강릉 시
획 정
코 믹
한 숨을
co mm
성형 외과
방식 도
일 당
정보통신 망
승 선
부분 의
바리 스타
펠 로
스탠 다드
목격 자
지원 받을
진 상을
하락 세가
싶 을
칼 리
입 주가
정 혜
다 보
상 처가
찔 러
치 부
파생 결합
인수 해
궐련 형
6 분
확인 하지
다 저스
타 진
구글 플레이
24 00
전남 대
안보 와
본 의
부처 인
일 등
검토 가
김 씨를
스 커
비박 계
주 치의
역량 강화
198 1년
그 거
실 거래가
과거 를
항 에서
달 한
국제 사회가
한반도 에서
짜 릿
구현 한
대비 해야
마무리 됐다
신 현
gs 홈쇼핑
소 닉
항만 공사
i fa
대책 위원회
넘어 갈
어떻 습니까
소속 의
카카오 의
조치 의
메시 지로
모양 을
임직원 들의
두 터
국토 부가
구현 하는
새 삼
헌재 가
표시 했다
2 위는
겸 허
겹 치면서
표 명한
화 보를
보도 와
행복 주택
서 재
12 시간
대 산
믿 지
박람 회는
오거 돈
지표 는
공급 한
애틀 랜
전략 기획
예술 단
지 회
거래 비중을
휠체 어
열 과
준 우승
세포 가
악 화된
부담 하는
야 근
이 남
액 정
범 위에
교육 부의
알 리지
단 점을
20 4
선 명한
미 비
사 계절
이 르고
반영 하지
판 다
크로 스를
끌어 올리는
티 에
식품 은
반 떼
티 노
휴 직을
영향 도
불확실 성을
해왔 지만
봉 주
첩 보
친 한
화 상을
상장 폐지
인 지는
충돌 을
함께 했다
저 임금
정 명
운영 자
st o
집 회는
6 개국
보내 기
평가 했습니다
차 체
납득 할
여 권의
스마트 팜
국제 회의
단 수
명령 했다
손 꼽히는
금지 한
전망 대
비 행을
보수 층
어느 정도
전화 번호
바른정당 의
고소 했다
야 권은
최 현
발 발
지자체 는
한 전은
제한 된다
몸 과
옮 길
지구 와
이어 지며
토 지를
행 보가
극 도로
화 기
남 대문
셨 습니다
우 뚝
증가 했지만
eu 는
쿠데 타
수석 과
터 무니
없 었을
준 하는
유사 시
마련 이다
1심 은
자 원이
동작 을
지원 자
15 조
외 치는
지정 됐다
인 사이트
카 펫
것 에서
화장 품을
자본 금
빠 르면
상대 방의
선박 은
숲 을
샌드 박스
동 승
재무 장관
신 기술을
효율 이
갖 다
상장지수 펀드
경우 에만
대 하는
바 와
세 도
십 니다
80 억원
범죄가중처벌 법상
비 단
시행 해
자동차 에
리니지 2
열대 야
절 충
김포 시
님 께
생 계를
파 나
지 날
부 위원장이
대비 할
쉬 워
심 경을
정당 으로
문 명
끊 어
함 의
산 모
사내 이사
레바 논
가 액
숙 여
주차 장에서
연계 를
c ity
가능 성과
우 방
약 식
농 작물
8 명을
경찰 관이
어린 이를
근로 자를
질환 의
개최 될
받 자
1960 년대
도 난
론 이다
실적 도
석 면
사 인을
올리 게
성 대
조례 안
보 안을
연말 정산
고 압
마 력
스탠 딩
정규 시즌
법안 의
배 움
조합 장
초 상
k l
3월 에는
나 우
바 이에
데 르
너 머
20 분쯤
영화 에서
7 60
했을 까
표준 편
지구 로
부드럽 게
낭 만
지 폐
필요 에
셰 어링
종합 병원
주 담
철 학과
목 숨
들어 가지
포 위
자산 에
의심 하고
종 자
대학 으로
밤 사이
고 형
교 회에서
핵심 으로
비슷 하게
전 세가
아내 를
웰 컴
음 압
근처 에서
앞 에는
독립운동 가
기 법
수 인
책 이다
어린이 가
숨 져
장면 은
각 인
inter national
한화 생명
하락 했고
김 이
조례 를
임금 은
되 레
영 희
위 니아
내 걸
행사 한
따라 야
기준 인
세인트 루이스
사이 가
앤 디
일 대의
처음 입니다
채 광
기술 도
확 장에
오픈 했다
드러 내
보유 량
상위 권
맛 의
탄도 미사일을
공동 연구
상황 실에서
파 운
드러 나는
달 은
단계 가
회 자
피고 인은
1 절
x 는
전 반기
원칙 과
현대로 템
코스 로
매입 한
베트남 에
미래창조과학 부
섬 의
특성화 고
선박 이
차 입금
박 았다
일제 강점기
유지 보수
후보 인
도 깨
투표 는
5월 에는
진입 했다
당기 순
간 신
기능 으로
강 북구
다 며
8 50
웃 으며
흘 려
연기 한
투표 로
카페 를
접촉 이
플랫폼 이
분 단
반 쯤
높 습니다
지구 촌
7000 만원
지정 돼
결 별
14 9
선도 할
해 튼
휴 무
세종 대로
일본 어
협의 하고
말 했고
발생 이
벼 랑
파 장을
알파 벳
사 제
200 만원을
금지 된
구 간의
요 건이
sk 이노베이션은
북 동
수석 에
1 b
타석 에서
승 리에
자격 증을
당 장은
쏟 고
바 르게
예 측이
응 징
못 한다면
공약 에
편리 하고
국제 유가가
교류 의
m 에
게임 과
내 부를
감염 자
개헌 안
도 왔다
선 양
국회 법
협약 으로
제안 이
과 를
대응 해야
오 하이
승리 할
p 는
19 2
공 판을
n ull
불확실 한
어 필
잉 여
새겨 진
절 감을
해상 도
w in
전문 지
4일 간
통 로
역사 교과서
부모 를
아시아나항공 은
재 량
피 아니
기름 을
죄 질이
고구 마
몰 이
교육 비
인력 은
떨어진 다는
수 권
양성 평등
6 호
이사회 는
우 와
위 키
올라 간다
수출 국
활용 하기
플라 워
2 를
다 하는
케이블 카
우 익
두 부
의 사와
비 호
설명 회는
볼 때도
대표 해
니 콜
왔 으나
했다 면서
협의 회가
지침 에
율 과
눈 길
화학 무기
절실 하다
멜 론
물류 센터
임플란 트
양 주시
요청 해
2 급
싶 어서
투표 소
국제 영화제
매출액 증가율
물 어야
포용 적
판 정이
조원 태
사 위
유권 자들이
군 부대
피켓 을
구 내
출범 을
설명 해
어 라운드
이 마저도
짜 고
대통령 선거
13 9
예년 보다
모티브 로
위 암
도시 가스
광 장을
밀 폐
선 주
김영 춘
재능 기부
현 판
효 자
영원 한
st e
수치 로
부통령 은
활동 할
cj 그룹
세력 은
렉 스턴
지 켰
관 방
외교 부가
못지 않게
사무 실로
회원 사
운동 으로
책임 져야
협 치를
신분 증
의미 한
멸종 위기
반 칙
쿠 버
겁 고
마 크로
이야기 하고
참석 자
시스템 인
믿 음을
메디 톡스
더 운
불 고기
2 명과
내 세우고
모아 지고
상승 세로
설계 사
달러 에서
서버 를
나서 며
진행 하게
현재 와
불 린
이루 지
처분 이
김영 주
주식 은
위협 하고
정 씨
5 급
처 치
내부 에서는
팔 았다
쿠 키
글 에
돌아 오
인사 들과
이준 석
업 적을
기대 되고
십 리
발 걸음을
빌 리지
동탄2 신도시
구조조정 이
박용 만
현대중공업 은
도 축
가정 폭력
서 에는
소 용
판단 에서다
폐지 하고
순매도 하고
개장 해서
관계 도
기업 은행은
진지 한
단 층
선언 에
아들 인
올해 에도
농산 물을
밸 브
소재 가
퍼 레이드
폭 도
구현 했다
" ,
피해 에
고소 장을
제어 할
귀 띔
k cg
행 하는
19 50년
필드 에서
할 증
상생 을
감 세
맨 해튼
육성 하고
나 드는
해 제를
금융 당국의
탈 레
남북 경협
강 석
노 위
섰 습니다
거버넌 스
4월 에는
lg유플러스 가
sk 케미칼
잦 아
고속도로 를
터 와
fal se
부 정부
3 g
승 리가
str ong
온 열
초 로
힙 합
7 분
해석 할
부 대변인은
수술 이
류 는
많 았습니다
신용 정보
각광 받고
5 호선
경 실
느껴 진다
연 기에
전체 회의
리 커
브랜드 에
ss d
끈 을
국민연금 공단
지역 에서도
예 쁘
가로 수
a 를
강 이
20 세기
내놓 는다
보 더라도
타석 에
보장 하고
사로 잡았다
윤 호
기사 에
인수 했다
건물 에서
천 사
돌파 구를
천 둥
빈 슨
5000 명
선박 에
n ba
특 이한
안전 이
요 인은
농림축산식품 부는
한정 된
란 도
채택 된
ta in
페미니 즘
j e
장착 한
바 오
혔 던
세이 프가
제 정을
좀 비
때 면
인정 된다
택 지지
무 모
생 은
단호 한
왔 기
출연 했다
신설 된
헤 쳐
소개 해
2 가
태 를
리 모
오 타
심사 에서
