{
  "version": "1.0",
  "truncation": null,
  "padding": null,
  "added_tokens": [
    {
      "id": 0,
      "content": "<s>",
      "single_word": false,
      "lstrip": false,
      "rstrip": false,
      "normalized": false,
      "special": true
    },
    {
      "id": 1,
      "content": "<pad>",
      "single_word": false,
      "lstrip": false,
      "rstrip": false,
      "normalized": false,
      "special": true
    },
    {
      "id": 2,
      "content": "</s>",
      "single_word": false,
      "lstrip": false,
      "rstrip": false,
      "normalized": false,
      "special": true
    },
    {
      "id": 3,
      "content": "<unk>",
      "single_word": false,
      "lstrip": false,
      "rstrip": false,
      "normalized": false,
      "special": true
    },
    {
      "id": 4,
      "content": "<mask>",
      "single_word": false,
      "lstrip": false,
      "rstrip": false,
      "normalized": false,
      "special": true
    }
  ],
  "normalizer": null,
  "pre_tokenizer": {
    "type": "Whitespace"
  },
  "post_processor": null,
  "decoder": null,
  "model": {
    "type": "BPE",
    "dropout": null,
    "unk_token": null,
    "continuing_subword_prefix": null,
    "end_of_word_suffix": null,
    "fuse_unk": false,
    "vocab": {
      "<s>": 0,
      "<pad>": 1,
      "</s>": 2,
      "<unk>": 3,
      "<mask>": 4,
      "\"": 5,
      "%": 6,
      "'": 7,
      ",": 8,
      ".": 9,
      "0": 10,
      "1": 11,
      "2": 12,
      "3": 13,
      "4": 14,
      "5": 15,
      "6": 16,
      "7": 17,
      "8": 18,
      "9": 19,
      "a": 20,
      "b": 21,
      "c": 22,
      "d": 23,
      "e": 24,
      "f": 25,
      "g": 26,
      "h": 27,
      "i": 28,
      "j": 29,
      "k": 30,
      "l": 31,
      "m": 32,
      "n": 33,
      "o": 34,
      "p": 35,
      "q": 36,
      "r": 37,
      "s": 38,
      "t": 39,
      "u": 40,
      "v": 41,
      "w": 42,
      "x": 43,
      "y": 44,
      "z": 45,
      "·": 46,
      "‘": 47,
      "’": 48,
      "“": 49,
      "”": 50,
      "가": 51,
      "각": 52,
      "갂": 53,
      "갃": 54,
      "간": 55,
      "갇": 56,
      "갈": 57,
      "갉": 58,
      "갊": 59,
      "갍": 60,
      "갏": 61,
      "감": 62,
      "갑": 63,
      "값": 64,
      "갓": 65,
      "갔": 66,
      "강": 67,
      "갖": 68,
      "갗": 69,
      "갘": 70,
      "같": 71,
      "갚": 72,
      "갛": 73,
      "개": 74,
      "객": 75,
      "갠": 76,
      "갣": 77,
      "갤": 78,
      "갬": 79,
      "갭": 80,
      "갯": 81,
      "갰": 82,
      "갱": 83,
      "갲": 84,
      "갶": 85,
      "갷": 86,
      "갸": 87,
      "갹": 88,
      "갼": 89,
      "걀": 90,
      "걈": 91,
      "걉": 92,
      "걋": 93,
      "걌": 94,
      "걍": 95,
      "걑": 96,
      "걔": 97,
      "걕": 98,
      "걘": 99,
      "걜": 100,
      "걥": 101,
      "거": 102,
      "걱": 103,
      "걲": 104,
      "걳": 105,
      "건": 106,
      "걷": 107,
      "걸": 108,
      "걺": 109,
      "검": 110,
      "겁": 111,
      "겂": 112,
      "것": 113,
      "겄": 114,
      "겅": 115,
      "겆": 116,
      "겇": 117,
      "겈": 118,
      "겉": 119,
      "겊": 120,
      "겋": 121,
      "게": 122,
      "겍": 123,
      "겐": 124,
      "겓": 125,
      "겔": 126,
      "겜": 127,
      "겝": 128,
      "겟": 129,
      "겠": 130,
      "겡": 131,
      "겣": 132,
      "겤": 133,
      "겥": 134,
      "겨": 135,
      "격": 136,
      "겪": 137,
      "견": 138,
      "겭": 139,
      "겮": 140,
      "겯": 141,
      "결": 142,
      "겱": 143,
      "겳": 144,
      "겵": 145,
      "겶": 146,
      "겷": 147,
      "겸": 148,
      "겹": 149,
      "겻": 150,
      "겼": 151,
      "경": 152,
      "겾": 153,
      "겿": 154,
      "곁": 155,
      "곂": 156,
      "곃": 157,
      "계": 158,
      "곅": 159,
      "곈": 160,
      "곌": 161,
      "곔": 162,
      "곕": 163,
      "곗": 164,
      "곘": 165,
      "곙": 166,
      "곚": 167,
      "곟": 168,
      "고": 169,
      "곡": 170,
      "곤": 171,
      "곧": 172,
      "골": 173,
      "곪": 174,
      "곫": 175,
      "곬": 176,
      "곮": 177,
      "곯": 178,
      "곰": 179,
      "곱": 180,
      "곲": 181,
      "곳": 182,
      "곴": 183,
      "공": 184,
      "곶": 185,
      "곷": 186,
      "곹": 187,
      "곺": 188,
      "곻": 189,
      "과": 190,
      "곽": 191,
      "관": 192,
      "괁": 193,
      "괂": 194,
      "괃": 195,
      "괄": 196,
      "괌": 197,
      "괍": 198,
      "괏": 199,
      "광": 200,
      "괒": 201,
      "괕": 202,
      "괗": 203,
      "괘": 204,
      "괙": 205,
      "괜": 206,
      "괞": 207,
      "괠": 208,
      "괬": 209,
      "괭": 210,
      "괴": 211,
      "괵": 212,
      "괸": 213,
      "괼": 214,
      "굄": 215,
      "굅": 216,
      "굇": 217,
      "굉": 218,
      "굏": 219,
      "교": 220,
      "굑": 221,
      "굔": 222,
      "굗": 223,
      "굘": 224,
      "굠": 225,
      "굡": 226,
      "굣": 227,
      "굥": 228,
      "굦": 229,
      "굨": 230,
      "굩": 231,
      "굪": 232,
      "구": 233,
      "국": 234,
      "굮": 235,
      "굯": 236,
      "군": 237,
      "굳": 238,
      "굴": 239,
      "굵": 240,
      "굶": 241,
      "굷": 242,
      "굻": 243,
      "굼": 244,
      "굽": 245,
      "굿": 246,
      "궁": 247,
      "궂": 248,
      "궃": 249,
      "궅": 250,
      "궆": 251,
      "궇": 252,
      "궈": 253,
      "궉": 254,
      "권": 255,
      "궎": 256,
      "궏": 257,
      "궐": 258,
      "궗": 259,
      "궘": 260,
      "궙": 261,
      "궛": 262,
      "궜": 263,
      "궝": 264,
      "궞": 265,
      "궡": 266,
      "궣": 267,
      "궤": 268,
      "궨": 269,
      "궩": 270,
      "궬": 271,
      "궳": 272,
      "궷": 273,
      "궹": 274,
      "귀": 275,
      "귁": 276,
      "귄": 277,
      "귈": 278,
      "귐": 279,
      "귑": 280,
      "귓": 281,
      "귕": 282,
      "규": 283,
      "귝": 284,
      "균": 285,
      "귤": 286,
      "귬": 287,
      "귭": 288,
      "귱": 289,
      "귲": 290,
      "귶": 291,
      "그": 292,
      "극": 293,
      "귺": 294,
      "근": 295,
      "귾": 296,
      "귿": 297,
      "글": 298,
      "긁": 299,
      "긂": 300,
      "긆": 301,
      "긇": 302,
      "금": 303,
      "급": 304,
      "긋": 305,
      "긍": 306,
      "긎": 307,
      "긐": 308,
      "긑": 309,
      "긒": 310,
      "긓": 311,
      "긔": 312,
      "긘": 313,
      "긜": 314,
      "긤": 315,
      "긩": 316,
      "기": 317,
      "긱": 318,
      "긴": 319,
      "긷": 320,
      "길": 321,
      "긹": 322,
      "긺": 323,
      "긿": 324,
      "김": 325,
      "깁": 326,
      "깂": 327,
      "깃": 328,
      "깄": 329,
      "깅": 330,
      "깆": 331,
      "깇": 332,
      "깈": 333,
      "깉": 334,
      "깊": 335,
      "깋": 336,
      "까": 337,
      "깍": 338,
      "깎": 339,
      "깐": 340,
      "깓": 341,
      "깔": 342,
      "깖": 343,
      "깜": 344,
      "깝": 345,
      "깞": 346,
      "깟": 347,
      "깠": 348,
      "깡": 349,
      "깢": 350,
      "깥": 351,
      "깨": 352,
      "깩": 353,
      "깬": 354,
      "깯": 355,
      "깰": 356,
      "깵": 357,
      "깶": 358,
      "깸": 359,
      "깹": 360,
      "깻": 361,
      "깼": 362,
      "깽": 363,
      "꺄": 364,
      "꺅": 365,
      "꺌": 366,
      "꺠": 367,
      "꺤": 368,
      "꺨": 369,
      "꺳": 370,
      "꺼": 371,
      "꺽": 372,
      "꺾": 373,
      "껀": 374,
      "껄": 375,
      "껌": 376,
      "껍": 377,
      "껏": 378,
      "껐": 379,
      "껑": 380,
      "껓": 381,
      "껕": 382,
      "껗": 383,
      "께": 384,
      "껙": 385,
      "껜": 386,
      "껠": 387,
      "껨": 388,
      "껫": 389,
      "껭": 390,
      "껴": 391,
      "껵": 392,
      "껶": 393,
      "껸": 394,
      "껼": 395,
      "꼅": 396,
      "꼇": 397,
      "꼈": 398,
      "꼉": 399,
      "꼍": 400,
      "꼐": 401,
      "꼬": 402,
      "꼭": 403,
      "꼮": 404,
      "꼰": 405,
      "꼳": 406,
      "꼴": 407,
      "꼶": 408,
      "꼼": 409,
      "꼽": 410,
      "꼿": 411,
      "꽁": 412,
      "꽂": 413,
      "꽃": 414,
      "꽅": 415,
      "꽆": 416,
      "꽈": 417,
      "꽉": 418,
      "꽊": 419,
      "꽌": 420,
      "꽍": 421,
      "꽐": 422,
      "꽛": 423,
      "꽜": 424,
      "꽝": 425,
      "꽤": 426,
      "꽥": 427,
      "꽦": 428,
      "꽧": 429,
      "꽸": 430,
      "꽹": 431,
      "꾀": 432,
      "꾄": 433,
      "꾈": 434,
      "꾐": 435,
      "꾑": 436,
      "꾕": 437,
      "꾜": 438,
      "꾨": 439,
      "꾩": 440,
      "꾪": 441,
      "꾬": 442,
      "꾭": 443,
      "꾰": 444,
      "꾱": 445,
      "꾳": 446,
      "꾸": 447,
      "꾹": 448,
      "꾺": 449,
      "꾼": 450,
      "꾾": 451,
      "꾿": 452,
      "꿀": 453,
      "꿂": 454,
      "꿇": 455,
      "꿈": 456,
      "꿉": 457,
      "꿋": 458,
      "꿌": 459,
      "꿍": 460,
      "꿎": 461,
      "꿏": 462,
      "꿐": 463,
      "꿑": 464,
      "꿓": 465,
      "꿔": 466,
      "꿕": 467,
      "꿘": 468,
      "꿜": 469,
      "꿧": 470,
      "꿨": 471,
      "꿩": 472,
      "꿫": 473,
      "꿰": 474,
      "꿱": 475,
      "꿴": 476,
      "꿸": 477,
      "뀀": 478,
      "뀁": 479,
      "뀃": 480,
      "뀄": 481,
      "뀈": 482,
      "뀌": 483,
      "뀍": 484,
      "뀐": 485,
      "뀔": 486,
      "뀜": 487,
      "뀝": 488,
      "뀠": 489,
      "뀡": 490,
      "뀨": 491,
      "뀬": 492,
      "뀰": 493,
      "끄": 494,
      "끅": 495,
      "끆": 496,
      "끈": 497,
      "끊": 498,
      "끋": 499,
      "끌": 500,
      "끍": 501,
      "끎": 502,
      "끑": 503,
      "끓": 504,
      "끔": 505,
      "끕": 506,
      "끗": 507,
      "끙": 508,
      "끛": 509,
      "끜": 510,
      "끝": 511,
      "끞": 512,
      "끟": 513,
      "끠": 514,
      "끼": 515,
      "끽": 516,
      "낀": 517,
      "낁": 518,
      "낄": 519,
      "낌": 520,
      "낍": 521,
      "낏": 522,
      "낑": 523,
      "낒": 524,
      "낕": 525,
      "나": 526,
      "낙": 527,
      "낚": 528,
      "낛": 529,
      "난": 530,
      "낝": 531,
      "낞": 532,
      "낟": 533,
      "날": 534,
      "낡": 535,
      "낢": 536,
      "낣": 537,
      "낧": 538,
      "남": 539,
      "납": 540,
      "낫": 541,
      "났": 542,
      "낭": 543,
      "낮": 544,
      "낯": 545,
      "낰": 546,
      "낱": 547,
      "낲": 548,
      "낳": 549,
      "내": 550,
      "낵": 551,
      "낶": 552,
      "낸": 553,
      "낻": 554,
      "낼": 555,
      "냀": 556,
      "냄": 557,
      "냅": 558,
      "냇": 559,
      "냈": 560,
      "냉": 561,
      "냊": 562,
      "냌": 563,
      "냏": 564,
      "냐": 565,
      "냑": 566,
      "냔": 567,
      "냘": 568,
      "냛": 569,
      "냠": 570,
      "냡": 571,
      "냣": 572,
      "냤": 573,
      "냥": 574,
      "냨": 575,
      "냪": 576,
      "냬": 577,
      "냼": 578,
      "넀": 579,
      "너": 580,
      "넉": 581,
      "넊": 582,
      "넋": 583,
      "넌": 584,
      "넎": 585,
      "넏": 586,
      "널": 587,
      "넑": 588,
      "넒": 589,
      "넓": 590,
      "넔": 591,
      "넖": 592,
      "넗": 593,
      "넘": 594,
      "넙": 595,
      "넚": 596,
      "넛": 597,
      "넜": 598,
      "넝": 599,
      "넞": 600,
      "넠": 601,
      "넡": 602,
      "넢": 603,
      "넣": 604,
      "네": 605,
      "넥": 606,
      "넨": 607,
      "넫": 608,
      "넬": 609,
      "넮": 610,
      "넴": 611,
      "넵": 612,
      "넶": 613,
      "넷": 614,
      "넸": 615,
      "넹": 616,
      "넺": 617,
      "넻": 618,
      "넽": 619,
      "녀": 620,
      "녁": 621,
      "녂": 622,
      "년": 623,
      "녅": 624,
      "녇": 625,
      "녈": 626,
      "녋": 627,
      "념": 628,
      "녑": 629,
      "녓": 630,
      "녔": 631,
      "녕": 632,
      "녘": 633,
      "녙": 634,
      "녜": 635,
      "녝": 636,
      "녞": 637,
      "녟": 638,
      "녠": 639,
      "녡": 640,
      "녢": 641,
      "녣": 642,
      "녤": 643,
      "녯": 644,
      "녰": 645,
      "노": 646,
      "녹": 647,
      "논": 648,
      "녾": 649,
      "녿": 650,
      "놀": 651,
      "놂": 652,
      "놃": 653,
      "놄": 654,
      "놇": 655,
      "놈": 656,
      "놉": 657,
      "놋": 658,
      "놌": 659,
      "농": 660,
      "놏": 661,
      "놐": 662,
      "놑": 663,
      "높": 664,
      "놓": 665,
      "놔": 666,
      "놕": 667,
      "놘": 668,
      "놜": 669,
      "놧": 670,
      "놨": 671,
      "놩": 672,
      "놯": 673,
      "놰": 674,
      "뇄": 675,
      "뇌": 676,
      "뇍": 677,
      "뇐": 678,
      "뇓": 679,
      "뇔": 680,
      "뇜": 681,
      "뇝": 682,
      "뇟": 683,
      "뇠": 684,
      "뇨": 685,
      "뇩": 686,
      "뇬": 687,
      "뇰": 688,
      "뇸": 689,
      "뇻": 690,
      "뇽": 691,
      "눂": 692,
      "눃": 693,
      "누": 694,
      "눅": 695,
      "눈": 696,
      "눋": 697,
      "눌": 698,
      "눔": 699,
      "눕": 700,
      "눗": 701,
      "눙": 702,
      "눚": 703,
      "눝": 704,
      "눞": 705,
      "눟": 706,
      "눠": 707,
      "눤": 708,
      "눨": 709,
      "눳": 710,
      "눴": 711,
      "눵": 712,
      "눼": 713,
      "뉍": 714,
      "뉘": 715,
      "뉙": 716,
      "뉜": 717,
      "뉠": 718,
      "뉨": 719,
      "뉩": 720,
      "뉭": 721,
      "뉴": 722,
      "뉵": 723,
      "뉸": 724,
      "뉻": 725,
      "뉼": 726,
      "늄": 727,
      "늅": 728,
      "늇": 729,
      "늉": 730,
      "늎": 731,
      "늏": 732,
      "느": 733,
      "늑": 734,
      "늒": 735,
      "는": 736,
      "늕": 737,
      "늗": 738,
      "늘": 739,
      "늙": 740,
      "늚": 741,
      "늠": 742,
      "늡": 743,
      "늣": 744,
      "능": 745,
      "늦": 746,
      "늧": 747,
      "늨": 748,
      "늩": 749,
      "늪": 750,
      "늫": 751,
      "늬": 752,
      "늰": 753,
      "늴": 754,
      "늻": 755,
      "늿": 756,
      "닁": 757,
      "니": 758,
      "닉": 759,
      "닊": 760,
      "닋": 761,
      "닌": 762,
      "닏": 763,
      "닐": 764,
      "님": 765,
      "닙": 766,
      "닛": 767,
      "닜": 768,
      "닝": 769,
      "닞": 770,
      "닟": 771,
      "닠": 772,
      "닡": 773,
      "닢": 774,
      "닣": 775,
      "다": 776,
      "닥": 777,
      "닦": 778,
      "단": 779,
      "닩": 780,
      "닪": 781,
      "닫": 782,
      "달": 783,
      "닭": 784,
      "닮": 785,
      "닯": 786,
      "닲": 787,
      "닳": 788,
      "담": 789,
      "답": 790,
      "닶": 791,
      "닷": 792,
      "닸": 793,
      "당": 794,
      "닺": 795,
      "닻": 796,
      "닼": 797,
      "닽": 798,
      "닾": 799,
      "닿": 800,
      "대": 801,
      "댁": 802,
      "댄": 803,
      "댇": 804,
      "댈": 805,
      "댋": 806,
      "댐": 807,
      "댑": 808,
      "댓": 809,
      "댔": 810,
      "댕": 811,
      "댖": 812,
      "댗": 813,
      "댙": 814,
      "댚": 815,
      "댛": 816,
      "댜": 817,
      "댠": 818,
      "댤": 819,
      "댬": 820,
      "댭": 821,
      "댱": 822,
      "댶": 823,
      "댷": 824,
      "댸": 825,
      "덈": 826,
      "덉": 827,
      "더": 828,
      "덕": 829,
      "덖": 830,
      "덗": 831,
      "던": 832,
      "덙": 833,
      "덛": 834,
      "덜": 835,
      "덝": 836,
      "덞": 837,
      "덟": 838,
      "덣": 839,
      "덤": 840,
      "덥": 841,
      "덦": 842,
      "덧": 843,
      "덨": 844,
      "덩": 845,
      "덪": 846,
      "덫": 847,
      "덬": 848,
      "덭": 849,
      "덮": 850,
      "덯": 851,
      "데": 852,
      "덱": 853,
      "덴": 854,
      "덷": 855,
      "델": 856,
      "덿": 857,
      "뎀": 858,
      "뎁": 859,
      "뎃": 860,
      "뎄": 861,
      "뎅": 862,
      "뎈": 863,
      "뎉": 864,
      "뎌": 865,
      "뎍": 866,
      "뎐": 867,
      "뎓": 868,
      "뎔": 869,
      "뎗": 870,
      "뎜": 871,
      "뎝": 872,
      "뎠": 873,
      "뎡": 874,
      "뎦": 875,
      "뎨": 876,
      "뎬": 877,
      "뎰": 878,
      "도": 879,
      "독": 880,
      "돈": 881,
      "돋": 882,
      "돌": 883,
      "돍": 884,
      "돎": 885,
      "돐": 886,
      "돔": 887,
      "돕": 888,
      "돗": 889,
      "돘": 890,
      "동": 891,
      "돚": 892,
      "돛": 893,
      "돝": 894,
      "돞": 895,
      "돟": 896,
      "돠": 897,
      "돡": 898,
      "돤": 899,
      "돥": 900,
      "돨": 901,
      "돫": 902,
      "돰": 903,
      "돱": 904,
      "돴": 905,
      "돵": 906,
      "돶": 907,
      "돼": 908,
      "돽": 909,
      "됀": 910,
      "됄": 911,
      "됌": 912,
      "됍": 913,
      "됏": 914,
      "됐": 915,
      "되": 916,
      "됙": 917,
      "된": 918,
      "됝": 919,
      "됟": 920,
      "될": 921,
      "됢": 922,
      "됨": 923,
      "됩": 924,
      "됫": 925,
      "됬": 926,
      "됭": 927,
      "됮": 928,
      "됰": 929,
      "됲": 930,
      "됴": 931,
      "됵": 932,
      "됸": 933,
      "둄": 934,
      "둇": 935,
      "둉": 936,
      "둏": 937,
      "두": 938,
      "둑": 939,
      "둔": 940,
      "둕": 941,
      "둗": 942,
      "둘": 943,
      "둙": 944,
      "둚": 945,
      "둟": 946,
      "둠": 947,
      "둡": 948,
      "둣": 949,
      "둥": 950,
      "둬": 951,
      "둭": 952,
      "둮": 953,
      "둰": 954,
      "둴": 955,
      "둵": 956,
      "둼": 957,
      "둿": 958,
      "뒀": 959,
      "뒁": 960,
      "뒈": 961,
      "뒗": 962,
      "뒜": 963,
      "뒝": 964,
      "뒤": 965,
      "뒥": 966,
      "뒨": 967,
      "뒪": 968,
      "뒫": 969,
      "뒬": 970,
      "뒴": 971,
      "뒵": 972,
      "뒷": 973,
      "뒸": 974,
      "뒹": 975,
      "뒺": 976,
      "뒻": 977,
      "듀": 978,
      "듁": 979,
      "듄": 980,
      "듅": 981,
      "듈": 982,
      "듐": 983,
      "듕": 984,
      "드": 985,
      "득": 986,
      "든": 987,
      "듡": 988,
      "듣": 989,
      "들": 990,
      "듥": 991,
      "듦": 992,
      "듧": 993,
      "듨": 994,
      "듪": 995,
      "듫": 996,
      "듬": 997,
      "듭": 998,
      "듯": 999,
      "등": 1000,
      "듲": 1001,
      "듵": 1002,
      "듷": 1003,
      "듸": 1004,
      "듹": 1005,
      "듼": 1006,
      "딈": 1007,
      "딋": 1008,
      "딍": 1009,
      "디": 1010,
      "딕": 1011,
      "딘": 1012,
      "딛": 1013,
      "딜": 1014,
      "딤": 1015,
      "딥": 1016,
      "딧": 1017,
      "딨": 1018,
      "딩": 1019,
      "딪": 1020,
      "딫": 1021,
      "딭": 1022,
      "딮": 1023,
      "딯": 1024,
      "따": 1025,
      "딱": 1026,
      "딲": 1027,
      "딴": 1028,
      "딷": 1029,
      "딸": 1030,
      "딹": 1031,
      "땀": 1032,
      "땁": 1033,
      "땃": 1034,
      "땄": 1035,
      "땅": 1036,
      "땋": 1037,
      "때": 1038,
      "땍": 1039,
      "땐": 1040,
      "땓": 1041,
      "땔": 1042,
      "땜": 1043,
      "땝": 1044,
      "땟": 1045,
      "땠": 1046,
      "땡": 1047,
      "땨": 1048,
      "땵": 1049,
      "땽": 1050,
      "떄": 1051,
      "떈": 1052,
      "떊": 1053,
      "떎": 1054,
      "떒": 1055,
      "떔": 1056,
      "떖": 1057,
      "떘": 1058,
      "떙": 1059,
      "떠": 1060,
      "떡": 1061,
      "떢": 1062,
      "떤": 1063,
      "떥": 1064,
      "떦": 1065,
      "떧": 1066,
      "떨": 1067,
      "떩": 1068,
      "떪": 1069,
      "떫": 1070,
      "떯": 1071,
      "떰": 1072,
      "떱": 1073,
      "떳": 1074,
      "떴": 1075,
      "떵": 1076,
      "떸": 1077,
      "떻": 1078,
      "떼": 1079,
      "떽": 1080,
      "뗀": 1081,
      "뗄": 1082,
      "뗌": 1083,
      "뗍": 1084,
      "뗏": 1085,
      "뗐": 1086,
      "뗑": 1087,
      "뗘": 1088,
      "뗜": 1089,
      "뗠": 1090,
      "뗪": 1091,
      "뗬": 1092,
      "뗴": 1093,
      "뗸": 1094,
      "뗼": 1095,
      "똈": 1096,
      "또": 1097,
      "똑": 1098,
      "똔": 1099,
      "똗": 1100,
      "똘": 1101,
      "똚": 1102,
      "똟": 1103,
      "똠": 1104,
      "똡": 1105,
      "똣": 1106,
      "똥": 1107,
      "똫": 1108,
      "똬": 1109,
      "똭": 1110,
      "똰": 1111,
      "뙇": 1112,
      "뙈": 1113,
      "뙋": 1114,
      "뙜": 1115,
      "뙡": 1116,
      "뙤": 1117,
      "뙨": 1118,
      "뙬": 1119,
      "뙵": 1120,
      "뚀": 1121,
      "뚁": 1122,
      "뚜": 1123,
      "뚝": 1124,
      "뚠": 1125,
      "뚤": 1126,
      "뚥": 1127,
      "뚧": 1128,
      "뚫": 1129,
      "뚬": 1130,
      "뚯": 1131,
      "뚱": 1132,
      "뚷": 1133,
      "뚸": 1134,
      "뚼": 1135,
      "뛔": 1136,
      "뛰": 1137,
      "뛴": 1138,
      "뛸": 1139,
      "뜀": 1140,
      "뜁": 1141,
      "뜄": 1142,
      "뜅": 1143,
      "뜌": 1144,
      "뜐": 1145,
      "뜛": 1146,
      "뜨": 1147,
      "뜩": 1148,
      "뜬": 1149,
      "뜯": 1150,
      "뜰": 1151,
      "뜷": 1152,
      "뜸": 1153,
      "뜹": 1154,
      "뜻": 1155,
      "뜼": 1156,
      "뜽": 1157,
      "뜿": 1158,
      "띁": 1159,
      "띄": 1160,
      "띅": 1161,
      "띇": 1162,
      "띈": 1163,
      "띌": 1164,
      "띔": 1165,
      "띕": 1166,
      "띠": 1167,
      "띡": 1168,
      "띤": 1169,
      "띨": 1170,
      "띰": 1171,
      "띱": 1172,
      "띳": 1173,
      "띵": 1174,
      "라": 1175,
      "락": 1176,
      "띾": 1177,
      "란": 1178,
      "랂": 1179,
      "랃": 1180,
      "랄": 1181,
      "랅": 1182,
      "람": 1183,
      "랍": 1184,
      "랎": 1185,
      "랏": 1186,
      "랐": 1187,
      "랑": 1188,
      "랒": 1189,
      "랓": 1190,
      "랔": 1191,
      "랕": 1192,
      "랖": 1193,
      "랗": 1194,
      "래": 1195,
      "랙": 1196,
      "랛": 1197,
      "랜": 1198,
      "랟": 1199,
      "랠": 1200,
      "램": 1201,
      "랩": 1202,
      "랫": 1203,
      "랬": 1204,
      "랭": 1205,
      "랱": 1206,
      "랲": 1207,
      "랳": 1208,
      "랴": 1209,
      "략": 1210,
      "랷": 1211,
      "랸": 1212,
      "랼": 1213,
      "럄": 1214,
      "럅": 1215,
      "럇": 1216,
      "럈": 1217,
      "량": 1218,
      "럐": 1219,
      "럔": 1220,
      "럤": 1221,
      "러": 1222,
      "럭": 1223,
      "럯": 1224,
      "런": 1225,
      "럲": 1226,
      "럴": 1227,
      "럶": 1228,
      "럷": 1229,
      "럻": 1230,
      "럼": 1231,
      "럽": 1232,
      "럾": 1233,
      "럿": 1234,
      "렀": 1235,
      "렁": 1236,
      "렂": 1237,
      "렃": 1238,
      "렅": 1239,
      "렆": 1240,
      "렇": 1241,
      "레": 1242,
      "렉": 1243,
      "렌": 1244,
      "렎": 1245,
      "렏": 1246,
      "렐": 1247,
      "렗": 1248,
      "렘": 1249,
      "렙": 1250,
      "렛": 1251,
      "렜": 1252,
      "렝": 1253,
      "렞": 1254,
      "렡": 1255,
      "렣": 1256,
      "려": 1257,
      "력": 1258,
      "렦": 1259,
      "련": 1260,
      "렪": 1261,
      "렫": 1262,
      "렬": 1263,
      "렴": 1264,
      "렵": 1265,
      "렶": 1266,
      "렷": 1267,
      "렸": 1268,
      "령": 1269,
      "렺": 1270,
      "렿": 1271,
      "례": 1272,
      "롄": 1273,
      "롈": 1274,
      "롐": 1275,
      "롑": 1276,
      "롓": 1277,
      "로": 1278,
      "록": 1279,
      "롟": 1280,
      "론": 1281,
      "롣": 1282,
      "롤": 1283,
      "롦": 1284,
      "롬": 1285,
      "롭": 1286,
      "롮": 1287,
      "롯": 1288,
      "롱": 1289,
      "롲": 1290,
      "롳": 1291,
      "롵": 1292,
      "롶": 1293,
      "롷": 1294,
      "롸": 1295,
      "롹": 1296,
      "롼": 1297,
      "뢀": 1298,
      "뢉": 1299,
      "뢊": 1300,
      "뢍": 1301,
      "뢎": 1302,
      "뢔": 1303,
      "뢨": 1304,
      "뢰": 1305,
      "뢱": 1306,
      "뢴": 1307,
      "뢷": 1308,
      "뢸": 1309,
      "뢾": 1310,
      "뢿": 1311,
      "룀": 1312,
      "룁": 1313,
      "룃": 1314,
      "룄": 1315,
      "룅": 1316,
      "룋": 1317,
      "료": 1318,
      "룍": 1319,
      "룐": 1320,
      "룔": 1321,
      "룜": 1322,
      "룝": 1323,
      "룞": 1324,
      "룟": 1325,
      "룠": 1326,
      "룡": 1327,
      "루": 1328,
      "룩": 1329,
      "룬": 1330,
      "룰": 1331,
      "룸": 1332,
      "룹": 1333,
      "룻": 1334,
      "룼": 1335,
      "룽": 1336,
      "뤀": 1337,
      "뤂": 1338,
      "뤄": 1339,
      "뤅": 1340,
      "뤈": 1341,
      "뤌": 1342,
      "뤓": 1343,
      "뤔": 1344,
      "뤗": 1345,
      "뤘": 1346,
      "뤙": 1347,
      "뤚": 1348,
      "뤟": 1349,
      "뤠": 1350,
      "뤡": 1351,
      "뤤": 1352,
      "뤨": 1353,
      "뤰": 1354,
      "뤱": 1355,
      "뤳": 1356,
      "뤴": 1357,
      "뤵": 1358,
      "뤼": 1359,
      "뤽": 1360,
      "륀": 1361,
      "륄": 1362,
      "륌": 1363,
      "륍": 1364,
      "륏": 1365,
      "륐": 1366,
      "륑": 1367,
      "류": 1368,
      "륙": 1369,
      "륜": 1370,
      "륝": 1371,
      "률": 1372,
      "륡": 1373,
      "륨": 1374,
      "륩": 1375,
      "륫": 1376,
      "륬": 1377,
      "륭": 1378,
      "륮": 1379,
      "륱": 1380,
      "륳": 1381,
      "르": 1382,
      "륵": 1383,
      "른": 1384,
      "륹": 1385,
      "륻": 1386,
      "를": 1387,
      "륽": 1388,
      "륾": 1389,
      "륿": 1390,
      "릁": 1391,
      "릂": 1392,
      "릃": 1393,
      "름": 1394,
      "릅": 1395,
      "릇": 1396,
      "릉": 1397,
      "릊": 1398,
      "릍": 1399,
      "릎": 1400,
      "릏": 1401,
      "릐": 1402,
      "릔": 1403,
      "릘": 1404,
      "릠": 1405,
      "릡": 1406,
      "릥": 1407,
      "릫": 1408,
      "리": 1409,
      "릭": 1410,
      "릮": 1411,
      "린": 1412,
      "릳": 1413,
      "릴": 1414,
      "릵": 1415,
      "릷": 1416,
      "림": 1417,
      "립": 1418,
      "릾": 1419,
      "릿": 1420,
      "맀": 1421,
      "링": 1422,
      "맂": 1423,
      "맃": 1424,
      "맄": 1425,
      "맅": 1426,
      "맆": 1427,
      "맇": 1428,
      "마": 1429,
      "막": 1430,
      "맊": 1431,
      "만": 1432,
      "맍": 1433,
      "많": 1434,
      "맏": 1435,
      "말": 1436,
      "맑": 1437,
      "맒": 1438,
      "맓": 1439,
      "맔": 1440,
      "맕": 1441,
      "맗": 1442,
      "맘": 1443,
      "맙": 1444,
      "맛": 1445,
      "맜": 1446,
      "망": 1447,
      "맞": 1448,
      "맟": 1449,
      "맠": 1450,
      "맡": 1451,
      "맢": 1452,
      "맣": 1453,
      "매": 1454,
      "맥": 1455,
      "맨": 1456,
      "맫": 1457,
      "맬": 1458,
      "맴": 1459,
      "맵": 1460,
      "맶": 1461,
      "맷": 1462,
      "맸": 1463,
      "맹": 1464,
      "맺": 1465,
      "맻": 1466,
      "맽": 1467,
      "맾": 1468,
      "맿": 1469,
      "먀": 1470,
      "먁": 1471,
      "먄": 1472,
      "먆": 1473,
      "먈": 1474,
      "먓": 1475,
      "먕": 1476,
      "먗": 1477,
      "먜": 1478,
      "먮": 1479,
      "먯": 1480,
      "머": 1481,
      "먹": 1482,
      "먺": 1483,
      "먼": 1484,
      "먽": 1485,
      "먾": 1486,
      "먿": 1487,
      "멀": 1488,
      "멂": 1489,
      "멈": 1490,
      "멉": 1491,
      "멊": 1492,
      "멋": 1493,
      "멌": 1494,
      "멍": 1495,
      "멎": 1496,
      "멏": 1497,
      "멑": 1498,
      "멓": 1499,
      "메": 1500,
      "멕": 1501,
      "멘": 1502,
      "멛": 1503,
      "멜": 1504,
      "멤": 1505,
      "멥": 1506,
      "멧": 1507,
      "멨": 1508,
      "멩": 1509,
      "멪": 1510,
      "멫": 1511,
      "멭": 1512,
      "멮": 1513,
      "며": 1514,
      "멱": 1515,
      "면": 1516,
      "멵": 1517,
      "멶": 1518,
      "멷": 1519,
      "멸": 1520,
      "몀": 1521,
      "몃": 1522,
      "몄": 1523,
      "명": 1524,
      "몆": 1525,
      "몇": 1526,
      "몉": 1527,
      "몊": 1528,
      "몋": 1529,
      "몌": 1530,
      "몐": 1531,
      "몟": 1532,
      "몡": 1533,
      "모": 1534,
      "목": 1535,
      "몪": 1536,
      "몫": 1537,
      "몬": 1538,
      "몯": 1539,
      "몰": 1540,
      "몴": 1541,
      "몸": 1542,
      "몹": 1543,
      "못": 1544,
      "몽": 1545,
      "몾": 1546,
      "뫀": 1547,
      "뫁": 1548,
      "뫂": 1549,
      "뫃": 1550,
      "뫄": 1551,
      "뫅": 1552,
      "뫈": 1553,
      "뫌": 1554,
      "뫔": 1555,
      "뫘": 1556,
      "뫙": 1557,
      "뫚": 1558,
      "뫰": 1559,
      "뫴": 1560,
      "뫼": 1561,
      "묀": 1562,
      "묄": 1563,
      "묍": 1564,
      "묎": 1565,
      "묏": 1566,
      "묑": 1567,
      "묓": 1568,
      "묗": 1569,
      "묘": 1570,
      "묙": 1571,
      "묜": 1572,
      "묠": 1573,
      "묨": 1574,
      "묩": 1575,
      "묫": 1576,
      "묭": 1577,
      "무": 1578,
      "묵": 1579,
      "묶": 1580,
      "묷": 1581,
      "문": 1582,
      "묹": 1583,
      "묺": 1584,
      "묻": 1585,
      "물": 1586,
      "묽": 1587,
      "묾": 1588,
      "묿": 1589,
      "뭀": 1590,
      "뭄": 1591,
      "뭅": 1592,
      "뭆": 1593,
      "뭇": 1594,
      "뭉": 1595,
      "뭊": 1596,
      "뭋": 1597,
      "뭍": 1598,
      "뭎": 1599,
      "뭏": 1600,
      "뭐": 1601,
      "뭔": 1602,
      "뭘": 1603,
      "뭡": 1604,
      "뭣": 1605,
      "뭤": 1606,
      "뭥": 1607,
      "뭩": 1608,
      "뭬": 1609,
      "뭰": 1610,
      "뭴": 1611,
      "뮈": 1612,
      "뮉": 1613,
      "뮌": 1614,
      "뮐": 1615,
      "뮘": 1616,
      "뮙": 1617,
      "뮝": 1618,
      "뮤": 1619,
      "뮥": 1620,
      "뮨": 1621,
      "뮫": 1622,
      "뮬": 1623,
      "뮴": 1624,
      "뮵": 1625,
      "뮹": 1626,
      "뮺": 1627,
      "므": 1628,
      "믁": 1629,
      "믄": 1630,
      "믇": 1631,
      "믈": 1632,
      "믐": 1633,
      "믓": 1634,
      "믕": 1635,
      "믚": 1636,
      "믛": 1637,
      "믜": 1638,
      "믠": 1639,
      "미": 1640,
      "믹": 1641,
      "민": 1642,
      "믽": 1643,
      "믾": 1644,
      "믿": 1645,
      "밀": 1646,
      "밂": 1647,
      "밈": 1648,
      "밉": 1649,
      "밋": 1650,
      "밌": 1651,
      "밍": 1652,
      "밎": 1653,
      "및": 1654,
      "밑": 1655,
      "밒": 1656,
      "밓": 1657,
      "바": 1658,
      "박": 1659,
      "밖": 1660,
      "밗": 1661,
      "반": 1662,
      "밙": 1663,
      "밚": 1664,
      "받": 1665,
      "발": 1666,
      "밝": 1667,
      "밞": 1668,
      "밟": 1669,
      "밠": 1670,
      "밢": 1671,
      "밣": 1672,
      "밤": 1673,
      "밥": 1674,
      "밦": 1675,
      "밧": 1676,
      "밨": 1677,
      "방": 1678,
      "밪": 1679,
      "밫": 1680,
      "밭": 1681,
      "밮": 1682,
      "밯": 1683,
      "배": 1684,
      "백": 1685,
      "밲": 1686,
      "밳": 1687,
      "밴": 1688,
      "밷": 1689,
      "밸": 1690,
      "밹": 1691,
      "뱀": 1692,
      "뱁": 1693,
      "뱃": 1694,
      "뱄": 1695,
      "뱅": 1696,
      "뱆": 1697,
      "뱉": 1698,
      "뱋": 1699,
      "뱌": 1700,
      "뱍": 1701,
      "뱎": 1702,
      "뱐": 1703,
      "뱓": 1704,
      "뱔": 1705,
      "뱕": 1706,
      "뱜": 1707,
      "뱝": 1708,
      "뱟": 1709,
      "뱡": 1710,
      "뱶": 1711,
      "버": 1712,
      "벅": 1713,
      "벆": 1714,
      "번": 1715,
      "벉": 1716,
      "벋": 1717,
      "벌": 1718,
      "벍": 1719,
      "벎": 1720,
      "벏": 1721,
      "벑": 1722,
      "범": 1723,
      "법": 1724,
      "벗": 1725,
      "벙": 1726,
      "벚": 1727,
      "벛": 1728,
      "벝": 1729,
      "벞": 1730,
      "베": 1731,
      "벡": 1732,
      "벤": 1733,
      "벧": 1734,
      "벨": 1735,
      "벩": 1736,
      "벮": 1737,
      "벰": 1738,
      "벱": 1739,
      "벳": 1740,
      "벴": 1741,
      "벵": 1742,
      "벹": 1743,
      "벼": 1744,
      "벽": 1745,
      "벾": 1746,
      "변": 1747,
      "볃": 1748,
      "별": 1749,
      "볅": 1750,
      "볇": 1751,
      "볌": 1752,
      "볍": 1753,
      "볏": 1754,
      "볐": 1755,
      "병": 1756,
      "볒": 1757,
      "볓": 1758,
      "볔": 1759,
      "볕": 1760,
      "볘": 1761,
      "볜": 1762,
      "볠": 1763,
      "보": 1764,
      "복": 1765,
      "볶": 1766,
      "본": 1767,
      "볹": 1768,
      "볻": 1769,
      "볼": 1770,
      "볽": 1771,
      "볿": 1772,
      "봁": 1773,
      "봄": 1774,
      "봅": 1775,
      "봇": 1776,
      "봈": 1777,
      "봉": 1778,
      "봊": 1779,
      "봌": 1780,
      "봍": 1781,
      "봎": 1782,
      "봏": 1783,
      "봐": 1784,
      "봑": 1785,
      "봒": 1786,
      "봔": 1787,
      "봘": 1788,
      "봙": 1789,
      "봣": 1790,
      "봤": 1791,
      "봥": 1792,
      "봬": 1793,
      "봰": 1794,
      "봴": 1795,
      "봽": 1796,
      "뵀": 1797,
      "뵈": 1798,
      "뵉": 1799,
      "뵌": 1800,
      "뵐": 1801,
      "뵘": 1802,
      "뵙": 1803,
      "뵛": 1804,
      "뵜": 1805,
      "뵝": 1806,
      "뵤": 1807,
      "뵥": 1808,
      "뵨": 1809,
      "뵬": 1810,
      "뵷": 1811,
      "뵹": 1812,
      "부": 1813,
      "북": 1814,
      "붂": 1815,
      "붃": 1816,
      "분": 1817,
      "붆": 1818,
      "붇": 1819,
      "불": 1820,
      "붉": 1821,
      "붊": 1822,
      "붋": 1823,
      "붏": 1824,
      "붐": 1825,
      "붑": 1826,
      "붓": 1827,
      "붔": 1828,
      "붕": 1829,
      "붖": 1830,
      "붗": 1831,
      "붘": 1832,
      "붙": 1833,
      "붚": 1834,
      "붛": 1835,
      "붜": 1836,
      "붠": 1837,
      "붤": 1838,
      "붥": 1839,
      "붰": 1840,
      "붳": 1841,
      "붴": 1842,
      "붵": 1843,
      "붸": 1844,
      "붹": 1845,
      "붾": 1846,
      "붿": 1847,
      "뷀": 1848,
      "뷁": 1849,
      "뷄": 1850,
      "뷅": 1851,
      "뷔": 1852,
      "뷕": 1853,
      "뷘": 1854,
      "뷜": 1855,
      "뷤": 1856,
      "뷧": 1857,
      "뷩": 1858,
      "뷰": 1859,
      "뷱": 1860,
      "뷴": 1861,
      "뷷": 1862,
      "뷸": 1863,
      "븀": 1864,
      "븃": 1865,
      "븅": 1866,
      "븇": 1867,
      "브": 1868,
      "븍": 1869,
      "븎": 1870,
      "븐": 1871,
      "븑": 1872,
      "븒": 1873,
      "븓": 1874,
      "블": 1875,
      "븕": 1876,
      "븜": 1877,
      "븝": 1878,
      "븟": 1879,
      "븡": 1880,
      "븥": 1881,
      "븨": 1882,
      "븬": 1883,
      "븯": 1884,
      "븰": 1885,
      "븸": 1886,
      "빀": 1887,
      "빃": 1888,
      "비": 1889,
      "빅": 1890,
      "빆": 1891,
      "빈": 1892,
      "빋": 1893,
      "빌": 1894,
      "빍": 1895,
      "빎": 1896,
      "빐": 1897,
      "빔": 1898,
      "빕": 1899,
      "빖": 1900,
      "빗": 1901,
      "빘": 1902,
      "빙": 1903,
      "빚": 1904,
      "빛": 1905,
      "빝": 1906,
      "빞": 1907,
      "빟": 1908,
      "빠": 1909,
      "빡": 1910,
      "빤": 1911,
      "빧": 1912,
      "빨": 1913,
      "빩": 1914,
      "빰": 1915,
      "빱": 1916,
      "빳": 1917,
      "빴": 1918,
      "빵": 1919,
      "빻": 1920,
      "빼": 1921,
      "빽": 1922,
      "뺀": 1923,
      "뺃": 1924,
      "뺄": 1925,
      "뺌": 1926,
      "뺍": 1927,
      "뺏": 1928,
      "뺐": 1929,
      "뺑": 1930,
      "뺒": 1931,
      "뺕": 1932,
      "뺘": 1933,
      "뺙": 1934,
      "뺜": 1935,
      "뺢": 1936,
      "뺣": 1937,
      "뺤": 1938,
      "뺨": 1939,
      "뺩": 1940,
      "뺴": 1941,
      "뺵": 1942,
      "뺸": 1943,
      "뺼": 1944,
      "뻄": 1945,
      "뻅": 1946,
      "뻇": 1947,
      "뻈": 1948,
      "뻉": 1949,
      "뻐": 1950,
      "뻑": 1951,
      "뻔": 1952,
      "뻗": 1953,
      "뻘": 1954,
      "뻠": 1955,
      "뻡": 1956,
      "뻣": 1957,
      "뻤": 1958,
      "뻥": 1959,
      "뻩": 1960,
      "뻬": 1961,
      "뻭": 1962,
      "뻰": 1963,
      "뻴": 1964,
      "뻽": 1965,
      "뻿": 1966,
      "뼀": 1967,
      "뼁": 1968,
      "뼈": 1969,
      "뼉": 1970,
      "뼊": 1971,
      "뼏": 1972,
      "뼘": 1973,
      "뼙": 1974,
      "뼛": 1975,
      "뼜": 1976,
      "뼝": 1977,
      "뼞": 1978,
      "뼤": 1979,
      "뼥": 1980,
      "뽀": 1981,
      "뽁": 1982,
      "뽂": 1983,
      "뽄": 1984,
      "뽈": 1985,
      "뽐": 1986,
      "뽑": 1987,
      "뽔": 1988,
      "뽕": 1989,
      "뽖": 1990,
      "뽞": 1991,
      "뽠": 1992,
      "뽢": 1993,
      "뽱": 1994,
      "뾔": 1995,
      "뾚": 1996,
      "뾰": 1997,
      "뾱": 1998,
      "뾼": 1999,
      "뿅": 2000,
      "뿉": 2001,
      "뿌": 2002,
      "뿍": 2003,
      "뿐": 2004,
      "뿔": 2005,
      "뿜": 2006,
      "뿝": 2007,
      "뿟": 2008,
      "뿠": 2009,
      "뿡": 2010,
      "뿨": 2011,
      "뿰": 2012,
      "뿵": 2013,
      "쀓": 2014,
      "쀠": 2015,
      "쀼": 2016,
      "쁀": 2017,
      "쁂": 2018,
      "쁃": 2019,
      "쁄": 2020,
      "쁌": 2021,
      "쁘": 2022,
      "쁙": 2023,
      "쁜": 2024,
      "쁠": 2025,
      "쁨": 2026,
      "쁩": 2027,
      "쁫": 2028,
      "쁺": 2029,
      "쁽": 2030,
      "삎": 2031,
      "삐": 2032,
      "삑": 2033,
      "삔": 2034,
      "삘": 2035,
      "삚": 2036,
      "삜": 2037,
      "삠": 2038,
      "삡": 2039,
      "삣": 2040,
      "삥": 2041,
      "삨": 2042,
      "사": 2043,
      "삭": 2044,
      "삮": 2045,
      "삯": 2046,
      "산": 2047,
      "삱": 2048,
      "삲": 2049,
      "삳": 2050,
      "살": 2051,
      "삵": 2052,
      "삶": 2053,
      "삷": 2054,
      "삺": 2055,
      "삻": 2056,
      "삼": 2057,
      "삽": 2058,
      "삾": 2059,
      "삿": 2060,
      "샀": 2061,
      "상": 2062,
      "샂": 2063,
      "샃": 2064,
      "샅": 2065,
      "샆": 2066,
      "샇": 2067,
      "새": 2068,
      "색": 2069,
      "샊": 2070,
      "샌": 2071,
      "샏": 2072,
      "샐": 2073,
      "샒": 2074,
      "샘": 2075,
      "샙": 2076,
      "샛": 2077,
      "샜": 2078,
      "생": 2079,
      "샞": 2080,
      "샣": 2081,
      "샤": 2082,
      "샥": 2083,
      "샨": 2084,
      "샬": 2085,
      "샮": 2086,
      "샴": 2087,
      "샵": 2088,
      "샷": 2089,
      "샸": 2090,
      "샹": 2091,
      "샾": 2092,
      "섀": 2093,
      "섁": 2094,
      "섄": 2095,
      "섈": 2096,
      "섎": 2097,
      "섏": 2098,
      "섐": 2099,
      "섑": 2100,
      "섓": 2101,
      "섕": 2102,
      "서": 2103,
      "석": 2104,
      "섞": 2105,
      "섟": 2106,
      "선": 2107,
      "섡": 2108,
      "섢": 2109,
      "섣": 2110,
      "설": 2111,
      "섥": 2112,
      "섦": 2113,
      "섧": 2114,
      "섨": 2115,
      "섩": 2116,
      "섪": 2117,
      "섫": 2118,
      "섬": 2119,
      "섭": 2120,
      "섯": 2121,
      "섰": 2122,
      "성": 2123,
      "섲": 2124,
      "섳": 2125,
      "섴": 2126,
      "섵": 2127,
      "섶": 2128,
      "섷": 2129,
      "세": 2130,
      "섹": 2131,
      "섻": 2132,
      "센": 2133,
      "섿": 2134,
      "셀": 2135,
      "셅": 2136,
      "셈": 2137,
      "셉": 2138,
      "셋": 2139,
      "셌": 2140,
      "셍": 2141,
      "셎": 2142,
      "셏": 2143,
      "셑": 2144,
      "셒": 2145,
      "셓": 2146,
      "셔": 2147,
      "셕": 2148,
      "셖": 2149,
      "션": 2150,
      "셜": 2151,
      "셤": 2152,
      "셥": 2153,
      "셧": 2154,
      "셨": 2155,
      "셩": 2156,
      "셰": 2157,
      "셱": 2158,
      "셲": 2159,
      "셴": 2160,
      "셸": 2161,
      "솀": 2162,
      "솁": 2163,
      "솃": 2164,
      "솅": 2165,
      "솊": 2166,
      "소": 2167,
      "속": 2168,
      "솎": 2169,
      "솏": 2170,
      "손": 2171,
      "솑": 2172,
      "솒": 2173,
      "솓": 2174,
      "솔": 2175,
      "솜": 2176,
      "솝": 2177,
      "솟": 2178,
      "송": 2179,
      "솢": 2180,
      "솥": 2181,
      "솦": 2182,
      "솨": 2183,
      "솩": 2184,
      "솬": 2185,
      "솰": 2186,
      "솸": 2187,
      "솽": 2188,
      "쇄": 2189,
      "쇅": 2190,
      "쇋": 2191,
      "쇌": 2192,
      "쇗": 2193,
      "쇘": 2194,
      "쇠": 2195,
      "쇡": 2196,
      "쇤": 2197,
      "쇨": 2198,
      "쇰": 2199,
      "쇱": 2200,
      "쇳": 2201,
      "쇴": 2202,
      "쇵": 2203,
      "쇼": 2204,
      "쇽": 2205,
      "숀": 2206,
      "숄": 2207,
      "숈": 2208,
      "숌": 2209,
      "숍": 2210,
      "숏": 2211,
      "숑": 2212,
      "숔": 2213,
      "숖": 2214,
      "수": 2215,
      "숙": 2216,
      "숛": 2217,
      "순": 2218,
      "숝": 2219,
      "숟": 2220,
      "술": 2221,
      "숢": 2222,
      "숣": 2223,
      "숤": 2224,
      "숨": 2225,
      "숩": 2226,
      "숫": 2227,
      "숭": 2228,
      "숮": 2229,
      "숯": 2230,
      "숰": 2231,
      "숱": 2232,
      "숲": 2233,
      "숳": 2234,
      "숴": 2235,
      "숵": 2236,
      "숸": 2237,
      "숼": 2238,
      "쉄": 2239,
      "쉅": 2240,
      "쉈": 2241,
      "쉉": 2242,
      "쉐": 2243,
      "쉑": 2244,
      "쉔": 2245,
      "쉘": 2246,
      "쉠": 2247,
      "쉡": 2248,
      "쉣": 2249,
      "쉥": 2250,
      "쉨": 2251,
      "쉩": 2252,
      "쉬": 2253,
      "쉭": 2254,
      "쉰": 2255,
      "쉴": 2256,
      "쉶": 2257,
      "쉼": 2258,
      "쉽": 2259,
      "쉿": 2260,
      "슁": 2261,
      "슆": 2262,
      "슈": 2263,
      "슉": 2264,
      "슌": 2265,
      "슐": 2266,
      "슘": 2267,
      "슙": 2268,
      "슛": 2269,
      "슝": 2270,
      "슟": 2271,
      "슡": 2272,
      "슢": 2273,
      "스": 2274,
      "슥": 2275,
      "슨": 2276,
      "슫": 2277,
      "슬": 2278,
      "슭": 2279,
      "슮": 2280,
      "슯": 2281,
      "슱": 2282,
      "슳": 2283,
      "슴": 2284,
      "습": 2285,
      "슶": 2286,
      "슷": 2287,
      "슸": 2288,
      "승": 2289,
      "슻": 2290,
      "슼": 2291,
      "슽": 2292,
      "슾": 2293,
      "슿": 2294,
      "싀": 2295,
      "싁": 2296,
      "싄": 2297,
      "싈": 2298,
      "싐": 2299,
      "싑": 2300,
      "시": 2301,
      "식": 2302,
      "싞": 2303,
      "싟": 2304,
      "신": 2305,
      "싡": 2306,
      "싢": 2307,
      "싣": 2308,
      "실": 2309,
      "싥": 2310,
      "싦": 2311,
      "싧": 2312,
      "싨": 2313,
      "싩": 2314,
      "싪": 2315,
      "싫": 2316,
      "심": 2317,
      "십": 2318,
      "싮": 2319,
      "싯": 2320,
      "싰": 2321,
      "싱": 2322,
      "싲": 2323,
      "싳": 2324,
      "싴": 2325,
      "싵": 2326,
      "싶": 2327,
      "싷": 2328,
      "싸": 2329,
      "싹": 2330,
      "싺": 2331,
      "싻": 2332,
      "싼": 2333,
      "싾": 2334,
      "싿": 2335,
      "쌀": 2336,
      "쌆": 2337,
      "쌇": 2338,
      "쌈": 2339,
      "쌉": 2340,
      "쌋": 2341,
      "쌌": 2342,
      "쌍": 2343,
      "쌒": 2344,
      "쌓": 2345,
      "쌔": 2346,
      "쌕": 2347,
      "쌘": 2348,
      "쌜": 2349,
      "쌤": 2350,
      "쌥": 2351,
      "쌧": 2352,
      "쌨": 2353,
      "쌩": 2354,
      "쌯": 2355,
      "쌰": 2356,
      "쌴": 2357,
      "썀": 2358,
      "썅": 2359,
      "썌": 2360,
      "썑": 2361,
      "썕": 2362,
      "썜": 2363,
      "썝": 2364,
      "써": 2365,
      "썩": 2366,
      "썪": 2367,
      "썬": 2368,
      "썰": 2369,
      "썲": 2370,
      "썵": 2371,
      "썸": 2372,
      "썹": 2373,
      "썻": 2374,
      "썼": 2375,
      "썽": 2376,
      "쎁": 2377,
      "쎃": 2378,
      "쎄": 2379,
      "쎅": 2380,
      "쎈": 2381,
      "쎌": 2382,
      "쎔": 2383,
      "쎕": 2384,
      "쎗": 2385,
      "쎘": 2386,
      "쎙": 2387,
      "쎠": 2388,
      "쎤": 2389,
      "쎰": 2390,
      "쎴": 2391,
      "쎼": 2392,
      "쎽": 2393,
      "쎾": 2394,
      "쏀": 2395,
      "쏄": 2396,
      "쏆": 2397,
      "쏘": 2398,
      "쏙": 2399,
      "쏜": 2400,
      "쏟": 2401,
      "쏠": 2402,
      "쏨": 2403,
      "쏩": 2404,
      "쏫": 2405,
      "쏭": 2406,
      "쏱": 2407,
      "쏳": 2408,
      "쏴": 2409,
      "쏵": 2410,
      "쏸": 2411,
      "쐇": 2412,
      "쐈": 2413,
      "쐉": 2414,
      "쐐": 2415,
      "쐝": 2416,
      "쐞": 2417,
      "쐤": 2418,
      "쐬": 2419,
      "쐰": 2420,
      "쐴": 2421,
      "쐻": 2422,
      "쐼": 2423,
      "쐽": 2424,
      "쑀": 2425,
      "쑈": 2426,
      "쑌": 2427,
      "쑐": 2428,
      "쑝": 2429,
      "쑤": 2430,
      "쑥": 2431,
      "쑨": 2432,
      "쑫": 2433,
      "쑬": 2434,
      "쑴": 2435,
      "쑵": 2436,
      "쑷": 2437,
      "쑹": 2438,
      "쑾": 2439,
      "쒀": 2440,
      "쒓": 2441,
      "쒔": 2442,
      "쒕": 2443,
      "쒖": 2444,
      "쒗": 2445,
      "쒜": 2446,
      "쒸": 2447,
      "쒼": 2448,
      "쓋": 2449,
      "쓔": 2450,
      "쓘": 2451,
      "쓣": 2452,
      "쓩": 2453,
      "쓰": 2454,
      "쓱": 2455,
      "쓴": 2456,
      "쓸": 2457,
      "쓺": 2458,
      "쓽": 2459,
      "쓿": 2460,
      "씀": 2461,
      "씁": 2462,
      "씃": 2463,
      "씅": 2464,
      "씈": 2465,
      "씉": 2466,
      "씌": 2467,
      "씐": 2468,
      "씔": 2469,
      "씠": 2470,
      "씨": 2471,
      "씩": 2472,
      "씪": 2473,
      "씬": 2474,
      "씯": 2475,
      "씰": 2476,
      "씸": 2477,
      "씹": 2478,
      "씻": 2479,
      "씼": 2480,
      "씽": 2481,
      "앃": 2482,
      "아": 2483,
      "악": 2484,
      "앆": 2485,
      "앇": 2486,
      "안": 2487,
      "앉": 2488,
      "않": 2489,
      "앋": 2490,
      "알": 2491,
      "앍": 2492,
      "앎": 2493,
      "앏": 2494,
      "앐": 2495,
      "앑": 2496,
      "앓": 2497,
      "암": 2498,
      "압": 2499,
      "앖": 2500,
      "앗": 2501,
      "았": 2502,
      "앙": 2503,
      "앚": 2504,
      "앛": 2505,
      "앜": 2506,
      "앝": 2507,
      "앞": 2508,
      "앟": 2509,
      "애": 2510,
      "액": 2511,
      "앢": 2512,
      "앤": 2513,
      "앥": 2514,
      "앧": 2515,
      "앨": 2516,
      "앰": 2517,
      "앱": 2518,
      "앲": 2519,
      "앳": 2520,
      "앴": 2521,
      "앵": 2522,
      "앷": 2523,
      "앹": 2524,
      "앺": 2525,
      "앻": 2526,
      "야": 2527,
      "약": 2528,
      "앾": 2529,
      "얀": 2530,
      "얃": 2531,
      "얄": 2532,
      "얅": 2533,
      "얆": 2534,
      "얇": 2535,
      "얉": 2536,
      "얊": 2537,
      "얋": 2538,
      "얌": 2539,
      "얍": 2540,
      "얏": 2541,
      "얐": 2542,
      "양": 2543,
      "얕": 2544,
      "얖": 2545,
      "얗": 2546,
      "얘": 2547,
      "얜": 2548,
      "얠": 2549,
      "얩": 2550,
      "얫": 2551,
      "얬": 2552,
      "얭": 2553,
      "어": 2554,
      "억": 2555,
      "얶": 2556,
      "언": 2557,
      "얹": 2558,
      "얺": 2559,
      "얻": 2560,
      "얼": 2561,
      "얽": 2562,
      "얾": 2563,
      "얿": 2564,
      "엃": 2565,
      "엄": 2566,
      "업": 2567,
      "없": 2568,
      "엇": 2569,
      "었": 2570,
      "엉": 2571,
      "엊": 2572,
      "엋": 2573,
      "엌": 2574,
      "엍": 2575,
      "엎": 2576,
      "엏": 2577,
      "에": 2578,
      "엑": 2579,
      "엓": 2580,
      "엔": 2581,
      "엗": 2582,
      "엘": 2583,
      "엙": 2584,
      "엜": 2585,
      "엠": 2586,
      "엡": 2587,
      "엣": 2588,
      "엤": 2589,
      "엥": 2590,
      "엦": 2591,
      "엩": 2592,
      "엪": 2593,
      "엫": 2594,
      "여": 2595,
      "역": 2596,
      "엮": 2597,
      "엯": 2598,
      "연": 2599,
      "엱": 2600,
      "엲": 2601,
      "엳": 2602,
      "열": 2603,
      "엵": 2604,
      "엶": 2605,
      "엷": 2606,
      "엹": 2607,
      "엺": 2608,
      "엻": 2609,
      "염": 2610,
      "엽": 2611,
      "엾": 2612,
      "엿": 2613,
      "였": 2614,
      "영": 2615,
      "옂": 2616,
      "옃": 2617,
      "옄": 2618,
      "옅": 2619,
      "옆": 2620,
      "옇": 2621,
      "예": 2622,
      "옉": 2623,
      "옌": 2624,
      "옏": 2625,
      "옐": 2626,
      "옒": 2627,
      "옘": 2628,
      "옙": 2629,
      "옚": 2630,
      "옛": 2631,
      "옜": 2632,
      "옝": 2633,
      "옞": 2634,
      "옟": 2635,
      "옣": 2636,
      "오": 2637,
      "옥": 2638,
      "온": 2639,
      "옫": 2640,
      "올": 2641,
      "옭": 2642,
      "옮": 2643,
      "옯": 2644,
      "옰": 2645,
      "옱": 2646,
      "옲": 2647,
      "옳": 2648,
      "옴": 2649,
      "옵": 2650,
      "옷": 2651,
      "옸": 2652,
      "옹": 2653,
      "옺": 2654,
      "옻": 2655,
      "옼": 2656,
      "옽": 2657,
      "옾": 2658,
      "옿": 2659,
      "와": 2660,
      "왁": 2661,
      "완": 2662,
      "왇": 2663,
      "왈": 2664,
      "왋": 2665,
      "왏": 2666,
      "왐": 2667,
      "왑": 2668,
      "왓": 2669,
      "왔": 2670,
      "왕": 2671,
      "왙": 2672,
      "왜": 2673,
      "왝": 2674,
      "왠": 2675,
      "왤": 2676,
      "왬": 2677,
      "왭": 2678,
      "왯": 2679,
      "왰": 2680,
      "왱": 2681,
      "외": 2682,
      "왹": 2683,
      "왼": 2684,
      "왽": 2685,
      "욀": 2686,
      "욈": 2687,
      "욉": 2688,
      "욋": 2689,
      "욌": 2690,
      "욍": 2691,
      "욎": 2692,
      "요": 2693,
      "욕": 2694,
      "욘": 2695,
      "욛": 2696,
      "욜": 2697,
      "욤": 2698,
      "욥": 2699,
      "욦": 2700,
      "욧": 2701,
      "욨": 2702,
      "용": 2703,
      "욯": 2704,
      "우": 2705,
      "욱": 2706,
      "운": 2707,
      "욵": 2708,
      "욷": 2709,
      "울": 2710,
      "욹": 2711,
      "욺": 2712,
      "욻": 2713,
      "욼": 2714,
      "욾": 2715,
      "욿": 2716,
      "움": 2717,
      "웁": 2718,
      "웃": 2719,
      "웄": 2720,
      "웅": 2721,
      "웆": 2722,
      "웇": 2723,
      "웈": 2724,
      "웉": 2725,
      "웊": 2726,
      "웋": 2727,
      "워": 2728,
      "웍": 2729,
      "웎": 2730,
      "웏": 2731,
      "원": 2732,
      "웑": 2733,
      "웒": 2734,
      "웓": 2735,
      "월": 2736,
      "웖": 2737,
      "웗": 2738,
      "웚": 2739,
      "웛": 2740,
      "웜": 2741,
      "웝": 2742,
      "웟": 2743,
      "웠": 2744,
      "웡": 2745,
      "웢": 2746,
      "웤": 2747,
      "웥": 2748,
      "웧": 2749,
      "웨": 2750,
      "웩": 2751,
      "웬": 2752,
      "웯": 2753,
      "웰": 2754,
      "웳": 2755,
      "웸": 2756,
      "웹": 2757,
      "웻": 2758,
      "웼": 2759,
      "웽": 2760,
      "윁": 2761,
      "위": 2762,
      "윅": 2763,
      "윈": 2764,
      "윋": 2765,
      "윌": 2766,
      "윔": 2767,
      "윕": 2768,
      "윗": 2769,
      "윘": 2770,
      "윙": 2771,
      "윚": 2772,
      "윛": 2773,
      "윝": 2774,
      "윟": 2775,
      "유": 2776,
      "육": 2777,
      "윢": 2778,
      "윤": 2779,
      "윥": 2780,
      "윦": 2781,
      "윧": 2782,
      "율": 2783,
      "윫": 2784,
      "윭": 2785,
      "윯": 2786,
      "윰": 2787,
      "윱": 2788,
      "윳": 2789,
      "융": 2790,
      "윶": 2791,
      "윷": 2792,
      "윹": 2793,
      "윺": 2794,
      "윻": 2795,
      "으": 2796,
      "윽": 2797,
      "윾": 2798,
      "은": 2799,
      "읁": 2800,
      "읂": 2801,
      "읃": 2802,
      "을": 2803,
      "읅": 2804,
      "읆": 2805,
      "읇": 2806,
      "읉": 2807,
      "읊": 2808,
      "읋": 2809,
      "음": 2810,
      "읍": 2811,
      "읎": 2812,
      "읏": 2813,
      "읐": 2814,
      "응": 2815,
      "읒": 2816,
      "읓": 2817,
      "읔": 2818,
      "읕": 2819,
      "읖": 2820,
      "읗": 2821,
      "의": 2822,
      "읙": 2823,
      "읜": 2824,
      "읟": 2825,
      "읠": 2826,
      "읨": 2827,
      "읩": 2828,
      "읫": 2829,
      "읭": 2830,
      "읮": 2831,
      "읯": 2832,
      "읱": 2833,
      "읳": 2834,
      "이": 2835,
      "익": 2836,
      "읶": 2837,
      "읷": 2838,
      "인": 2839,
      "읹": 2840,
      "읺": 2841,
      "읻": 2842,
      "일": 2843,
      "읽": 2844,
      "읾": 2845,
      "읿": 2846,
      "잀": 2847,
      "잂": 2848,
      "잃": 2849,
      "임": 2850,
      "입": 2851,
      "잆": 2852,
      "잇": 2853,
      "있": 2854,
      "잉": 2855,
      "잊": 2856,
      "잋": 2857,
      "잌": 2858,
      "잍": 2859,
      "잎": 2860,
      "잏": 2861,
      "자": 2862,
      "작": 2863,
      "잒": 2864,
      "잔": 2865,
      "잖": 2866,
      "잗": 2867,
      "잘": 2868,
      "잙": 2869,
      "잚": 2870,
      "잛": 2871,
      "잠": 2872,
      "잡": 2873,
      "잣": 2874,
      "잤": 2875,
      "장": 2876,
      "잦": 2877,
      "잧": 2878,
      "잩": 2879,
      "잪": 2880,
      "잫": 2881,
      "재": 2882,
      "잭": 2883,
      "잮": 2884,
      "잰": 2885,
      "잴": 2886,
      "잼": 2887,
      "잽": 2888,
      "잿": 2889,
      "쟀": 2890,
      "쟁": 2891,
      "쟂": 2892,
      "쟃": 2893,
      "쟆": 2894,
      "쟇": 2895,
      "쟈": 2896,
      "쟉": 2897,
      "쟌": 2898,
      "쟎": 2899,
      "쟐": 2900,
      "쟘": 2901,
      "쟙": 2902,
      "쟛": 2903,
      "쟜": 2904,
      "쟝": 2905,
      "쟤": 2906,
      "쟨": 2907,
      "쟬": 2908,
      "쟾": 2909,
      "저": 2910,
      "적": 2911,
      "젂": 2912,
      "젃": 2913,
      "전": 2914,
      "젅": 2915,
      "젆": 2916,
      "젇": 2917,
      "절": 2918,
      "젊": 2919,
      "젋": 2920,
      "젌": 2921,
      "젏": 2922,
      "점": 2923,
      "접": 2924,
      "젒": 2925,
      "젓": 2926,
      "젔": 2927,
      "정": 2928,
      "젖": 2929,
      "젗": 2930,
      "젙": 2931,
      "젛": 2932,
      "제": 2933,
      "젝": 2934,
      "젠": 2935,
      "젣": 2936,
      "젤": 2937,
      "젬": 2938,
      "젭": 2939,
      "젯": 2940,
      "젰": 2941,
      "젱": 2942,
      "젲": 2943,
      "젴": 2944,
      "젵": 2945,
      "젶": 2946,
      "져": 2947,
      "젹": 2948,
      "젺": 2949,
      "젼": 2950,
      "졀": 2951,
      "졈": 2952,
      "졉": 2953,
      "졋": 2954,
      "졌": 2955,
      "졍": 2956,
      "졎": 2957,
      "졓": 2958,
      "졔": 2959,
      "졘": 2960,
      "졜": 2961,
      "졩": 2962,
      "조": 2963,
      "족": 2964,
      "졲": 2965,
      "존": 2966,
      "졶": 2967,
      "졷": 2968,
      "졸": 2969,
      "졺": 2970,
      "졿": 2971,
      "좀": 2972,
      "좁": 2973,
      "좃": 2974,
      "좄": 2975,
      "종": 2976,
      "좆": 2977,
      "좇": 2978,
      "좉": 2979,
      "좊": 2980,
      "좋": 2981,
      "좌": 2982,
      "좍": 2983,
      "좎": 2984,
      "좐": 2985,
      "좔": 2986,
      "좝": 2987,
      "좟": 2988,
      "좠": 2989,
      "좡": 2990,
      "좧": 2991,
      "좨": 2992,
      "좬": 2993,
      "좼": 2994,
      "죄": 2995,
      "죈": 2996,
      "죌": 2997,
      "죍": 2998,
      "죔": 2999,
      "죕": 3000,
      "죗": 3001,
      "죘": 3002,
      "죙": 3003,
      "죝": 3004,
      "죠": 3005,
      "죡": 3006,
      "죤": 3007,
      "죳": 3008,
      "죴": 3009,
      "죵": 3010,
      "주": 3011,
      "죽": 3012,
      "죾": 3013,
      "준": 3014,
      "줃": 3015,
      "줄": 3016,
      "줅": 3017,
      "줆": 3018,
      "줈": 3019,
      "줌": 3020,
      "줍": 3021,
      "줏": 3022,
      "줐": 3023,
      "중": 3024,
      "줒": 3025,
      "줓": 3026,
      "줔": 3027,
      "줕": 3028,
      "줗": 3029,
      "줘": 3030,
      "줜": 3031,
      "줠": 3032,
      "줫": 3033,
      "줬": 3034,
      "줭": 3035,
      "줴": 3036,
      "줸": 3037,
      "쥐": 3038,
      "쥑": 3039,
      "쥔": 3040,
      "쥘": 3041,
      "쥠": 3042,
      "쥡": 3043,
      "쥣": 3044,
      "쥤": 3045,
      "쥥": 3046,
      "쥬": 3047,
      "쥭": 3048,
      "쥰": 3049,
      "쥴": 3050,
      "쥼": 3051,
      "쥿": 3052,
      "즁": 3053,
      "즈": 3054,
      "즉": 3055,
      "즋": 3056,
      "즌": 3057,
      "즏": 3058,
      "즐": 3059,
      "즘": 3060,
      "즙": 3061,
      "즛": 3062,
      "증": 3063,
      "즞": 3064,
      "즟": 3065,
      "즤": 3066,
      "즨": 3067,
      "즹": 3068,
      "지": 3069,
      "직": 3070,
      "짂": 3071,
      "진": 3072,
      "짅": 3073,
      "짆": 3074,
      "짇": 3075,
      "질": 3076,
      "짊": 3077,
      "짋": 3078,
      "짍": 3079,
      "짎": 3080,
      "짐": 3081,
      "집": 3082,
      "짒": 3083,
      "짓": 3084,
      "짔": 3085,
      "징": 3086,
      "짖": 3087,
      "짗": 3088,
      "짘": 3089,
      "짙": 3090,
      "짚": 3091,
      "짛": 3092,
      "짜": 3093,
      "짝": 3094,
      "짞": 3095,
      "짠": 3096,
      "짢": 3097,
      "짤": 3098,
      "짥": 3099,
      "짦": 3100,
      "짧": 3101,
      "짫": 3102,
      "짬": 3103,
      "짭": 3104,
      "짮": 3105,
      "짯": 3106,
      "짰": 3107,
      "짱": 3108,
      "짷": 3109,
      "째": 3110,
      "짹": 3111,
      "짼": 3112,
      "짽": 3113,
      "쨀": 3114,
      "쨈": 3115,
      "쨉": 3116,
      "쨋": 3117,
      "쨌": 3118,
      "쨍": 3119,
      "쨓": 3120,
      "쨔": 3121,
      "쨕": 3122,
      "쨘": 3123,
      "쨧": 3124,
      "쨩": 3125,
      "쨰": 3126,
      "쨴": 3127,
      "쩃": 3128,
      "쩄": 3129,
      "쩌": 3130,
      "쩍": 3131,
      "쩐": 3132,
      "쩔": 3133,
      "쩜": 3134,
      "쩝": 3135,
      "쩟": 3136,
      "쩠": 3137,
      "쩡": 3138,
      "쩨": 3139,
      "쩬": 3140,
      "쩰": 3141,
      "쩹": 3142,
      "쩼": 3143,
      "쩽": 3144,
      "쪄": 3145,
      "쪈": 3146,
      "쪗": 3147,
      "쪘": 3148,
      "쪙": 3149,
      "쪤": 3150,
      "쪼": 3151,
      "쪽": 3152,
      "쪾": 3153,
      "쫀": 3154,
      "쫃": 3155,
      "쫄": 3156,
      "쫌": 3157,
      "쫍": 3158,
      "쫏": 3159,
      "쫑": 3160,
      "쫒": 3161,
      "쫓": 3162,
      "쫗": 3163,
      "쫘": 3164,
      "쫙": 3165,
      "쫜": 3166,
      "쫨": 3167,
      "쫴": 3168,
      "쬈": 3169,
      "쬐": 3170,
      "쬑": 3171,
      "쬔": 3172,
      "쬘": 3173,
      "쬠": 3174,
      "쬡": 3175,
      "쬤": 3176,
      "쬥": 3177,
      "쬬": 3178,
      "쬭": 3179,
      "쬰": 3180,
      "쬼": 3181,
      "쭁": 3182,
      "쭈": 3183,
      "쭉": 3184,
      "쭊": 3185,
      "쭌": 3186,
      "쭏": 3187,
      "쭐": 3188,
      "쭘": 3189,
      "쭙": 3190,
      "쭛": 3191,
      "쭝": 3192,
      "쭤": 3193,
      "쭸": 3194,
      "쮀": 3195,
      "쮄": 3196,
      "쮜": 3197,
      "쮠": 3198,
      "쮤": 3199,
      "쮸": 3200,
      "쯊": 3201,
      "쯍": 3202,
      "쯔": 3203,
      "쯕": 3204,
      "쯘": 3205,
      "쯜": 3206,
      "쯤": 3207,
      "쯥": 3208,
      "쯧": 3209,
      "쯩": 3210,
      "쯪": 3211,
      "쯰": 3212,
      "찌": 3213,
      "찍": 3214,
      "찎": 3215,
      "찐": 3216,
      "찓": 3217,
      "찔": 3218,
      "찜": 3219,
      "찝": 3220,
      "찟": 3221,
      "찡": 3222,
      "찢": 3223,
      "찣": 3224,
      "찦": 3225,
      "찧": 3226,
      "차": 3227,
      "착": 3228,
      "찬": 3229,
      "찭": 3230,
      "찮": 3231,
      "찯": 3232,
      "찰": 3233,
      "찱": 3234,
      "찵": 3235,
      "찶": 3236,
      "찷": 3237,
      "참": 3238,
      "찹": 3239,
      "찻": 3240,
      "찼": 3241,
      "창": 3242,
      "찾": 3243,
      "찿": 3244,
      "챁": 3245,
      "챂": 3246,
      "챃": 3247,
      "채": 3248,
      "책": 3249,
      "챈": 3250,
      "챌": 3251,
      "챔": 3252,
      "챕": 3253,
      "챗": 3254,
      "챘": 3255,
      "챙": 3256,
      "챞": 3257,
      "챠": 3258,
      "챡": 3259,
      "챤": 3260,
      "챦": 3261,
      "챨": 3262,
      "챰": 3263,
      "챱": 3264,
      "챳": 3265,
      "챵": 3266,
      "챶": 3267,
      "챷": 3268,
      "처": 3269,
      "척": 3270,
      "천": 3271,
      "첝": 3272,
      "첞": 3273,
      "첟": 3274,
      "철": 3275,
      "첡": 3276,
      "첢": 3277,
      "첧": 3278,
      "첨": 3279,
      "첩": 3280,
      "첫": 3281,
      "첬": 3282,
      "청": 3283,
      "첮": 3284,
      "첯": 3285,
      "첱": 3286,
      "첲": 3287,
      "체": 3288,
      "첵": 3289,
      "첸": 3290,
      "첻": 3291,
      "첼": 3292,
      "쳄": 3293,
      "쳅": 3294,
      "쳇": 3295,
      "쳉": 3296,
      "쳌": 3297,
      "쳎": 3298,
      "쳏": 3299,
      "쳐": 3300,
      "쳑": 3301,
      "쳒": 3302,
      "쳔": 3303,
      "쳖": 3304,
      "쳘": 3305,
      "쳠": 3306,
      "쳡": 3307,
      "쳣": 3308,
      "쳤": 3309,
      "쳥": 3310,
      "쳦": 3311,
      "쳧": 3312,
      "쳬": 3313,
      "쳰": 3314,
      "쳴": 3315,
      "초": 3316,
      "촉": 3317,
      "촊": 3318,
      "촌": 3319,
      "촏": 3320,
      "촐": 3321,
      "촘": 3322,
      "촙": 3323,
      "촛": 3324,
      "총": 3325,
      "촞": 3326,
      "촟": 3327,
      "촣": 3328,
      "촤": 3329,
      "촥": 3330,
      "촨": 3331,
      "촬": 3332,
      "촵": 3333,
      "촹": 3334,
      "쵀": 3335,
      "쵄": 3336,
      "쵇": 3337,
      "최": 3338,
      "쵝": 3339,
      "쵠": 3340,
      "쵣": 3341,
      "쵤": 3342,
      "쵬": 3343,
      "쵯": 3344,
      "쵱": 3345,
      "쵲": 3346,
      "쵳": 3347,
      "쵴": 3348,
      "쵷": 3349,
      "쵸": 3350,
      "쵹": 3351,
      "쵺": 3352,
      "쵼": 3353,
      "춀": 3354,
      "춈": 3355,
      "춉": 3356,
      "춋": 3357,
      "춍": 3358,
      "추": 3359,
      "축": 3360,
      "춖": 3361,
      "춘": 3362,
      "춛": 3363,
      "출": 3364,
      "춝": 3365,
      "춞": 3366,
      "춟": 3367,
      "춠": 3368,
      "춡": 3369,
      "춢": 3370,
      "춣": 3371,
      "춤": 3372,
      "춥": 3373,
      "춧": 3374,
      "춨": 3375,
      "충": 3376,
      "춪": 3377,
      "춫": 3378,
      "춭": 3379,
      "춮": 3380,
      "춯": 3381,
      "춰": 3382,
      "춲": 3383,
      "춴": 3384,
      "춸": 3385,
      "췃": 3386,
      "췄": 3387,
      "췅": 3388,
      "췊": 3389,
      "췌": 3390,
      "췍": 3391,
      "췐": 3392,
      "췔": 3393,
      "췟": 3394,
      "췡": 3395,
      "취": 3396,
      "췩": 3397,
      "췬": 3398,
      "췰": 3399,
      "췸": 3400,
      "췹": 3401,
      "췻": 3402,
      "췼": 3403,
      "췽": 3404,
      "췾": 3405,
      "츃": 3406,
      "츄": 3407,
      "츅": 3408,
      "츈": 3409,
      "츌": 3410,
      "츔": 3411,
      "츕": 3412,
      "츙": 3413,
      "츛": 3414,
      "츠": 3415,
      "측": 3416,
      "츢": 3417,
      "츣": 3418,
      "츤": 3419,
      "츧": 3420,
      "츨": 3421,
      "츩": 3422,
      "츰": 3423,
      "츱": 3424,
      "츳": 3425,
      "층": 3426,
      "츹": 3427,
      "츺": 3428,
      "츼": 3429,
      "츽": 3430,
      "칀": 3431,
      "치": 3432,
      "칙": 3433,
      "친": 3434,
      "칞": 3435,
      "칟": 3436,
      "칠": 3437,
      "칡": 3438,
      "칢": 3439,
      "침": 3440,
      "칩": 3441,
      "칫": 3442,
      "칭": 3443,
      "칮": 3444,
      "칯": 3445,
      "칰": 3446,
      "칱": 3447,
      "칲": 3448,
      "칳": 3449,
      "카": 3450,
      "칵": 3451,
      "칸": 3452,
      "칻": 3453,
      "칼": 3454,
      "캄": 3455,
      "캅": 3456,
      "캇": 3457,
      "캉": 3458,
      "캌": 3459,
      "캍": 3460,
      "캎": 3461,
      "캐": 3462,
      "캑": 3463,
      "캔": 3464,
      "캘": 3465,
      "캙": 3466,
      "캠": 3467,
      "캡": 3468,
      "캣": 3469,
      "캤": 3470,
      "캥": 3471,
      "캩": 3472,
      "캪": 3473,
      "캬": 3474,
      "캭": 3475,
      "캰": 3476,
      "캴": 3477,
      "캼": 3478,
      "캽": 3479,
      "컀": 3480,
      "컁": 3481,
      "컅": 3482,
      "컈": 3483,
      "컐": 3484,
      "컒": 3485,
      "컖": 3486,
      "컘": 3487,
      "컙": 3488,
      "커": 3489,
      "컥": 3490,
      "컨": 3491,
      "컫": 3492,
      "컬": 3493,
      "컴": 3494,
      "컵": 3495,
      "컷": 3496,
      "컸": 3497,
      "컹": 3498,
      "컻": 3499,
      "컼": 3500,
      "컽": 3501,
      "컾": 3502,
      "컿": 3503,
      "케": 3504,
      "켁": 3505,
      "켄": 3506,
      "켈": 3507,
      "켐": 3508,
      "켑": 3509,
      "켓": 3510,
      "켔": 3511,
      "켕": 3512,
      "켘": 3513,
      "켙": 3514,
      "켜": 3515,
      "켝": 3516,
      "켠": 3517,
      "켢": 3518,
      "켣": 3519,
      "켤": 3520,
      "켬": 3521,
      "켭": 3522,
      "켯": 3523,
      "켰": 3524,
      "켱": 3525,
      "켲": 3526,
      "켳": 3527,
      "켴": 3528,
      "켵": 3529,
      "켸": 3530,
      "콀": 3531,
      "콉": 3532,
      "코": 3533,
      "콕": 3534,
      "콘": 3535,
      "콙": 3536,
      "콛": 3537,
      "콜": 3538,
      "콤": 3539,
      "콥": 3540,
      "콧": 3541,
      "콩": 3542,
      "콫": 3543,
      "콬": 3544,
      "콭": 3545,
      "콰": 3546,
      "콱": 3547,
      "콴": 3548,
      "콸": 3549,
      "쾀": 3550,
      "쾃": 3551,
      "쾅": 3552,
      "쾌": 3553,
      "쾍": 3554,
      "쾐": 3555,
      "쾔": 3556,
      "쾡": 3557,
      "쾨": 3558,
      "쾩": 3559,
      "쾬": 3560,
      "쾰": 3561,
      "쾲": 3562,
      "쾹": 3563,
      "쾻": 3564,
      "쾽": 3565,
      "쿄": 3566,
      "쿈": 3567,
      "쿋": 3568,
      "쿌": 3569,
      "쿕": 3570,
      "쿗": 3571,
      "쿙": 3572,
      "쿠": 3573,
      "쿡": 3574,
      "쿤": 3575,
      "쿨": 3576,
      "쿰": 3577,
      "쿱": 3578,
      "쿳": 3579,
      "쿵": 3580,
      "쿸": 3581,
      "쿹": 3582,
      "쿼": 3583,
      "쿽": 3584,
      "퀀": 3585,
      "퀄": 3586,
      "퀌": 3587,
      "퀍": 3588,
      "퀎": 3589,
      "퀏": 3590,
      "퀑": 3591,
      "퀕": 3592,
      "퀘": 3593,
      "퀙": 3594,
      "퀜": 3595,
      "퀝": 3596,
      "퀠": 3597,
      "퀩": 3598,
      "퀫": 3599,
      "퀬": 3600,
      "퀭": 3601,
      "퀴": 3602,
      "퀵": 3603,
      "퀸": 3604,
      "퀼": 3605,
      "큄": 3606,
      "큅": 3607,
      "큇": 3608,
      "큉": 3609,
      "큌": 3610,
      "큎": 3611,
      "큐": 3612,
      "큔": 3613,
      "큘": 3614,
      "큠": 3615,
      "큡": 3616,
      "큣": 3617,
      "큥": 3618,
      "크": 3619,
      "큭": 3620,
      "큰": 3621,
      "클": 3622,
      "큹": 3623,
      "큼": 3624,
      "큽": 3625,
      "큿": 3626,
      "킁": 3627,
      "킄": 3628,
      "킅": 3629,
      "킈": 3630,
      "키": 3631,
      "킥": 3632,
      "킨": 3633,
      "킬": 3634,
      "킴": 3635,
      "킵": 3636,
      "킷": 3637,
      "킹": 3638,
      "킻": 3639,
      "킼": 3640,
      "킽": 3641,
      "킾": 3642,
      "타": 3643,
      "탁": 3644,
      "탃": 3645,
      "탄": 3646,
      "탆": 3647,
      "탇": 3648,
      "탈": 3649,
      "탉": 3650,
      "탍": 3651,
      "탐": 3652,
      "탑": 3653,
      "탒": 3654,
      "탓": 3655,
      "탔": 3656,
      "탕": 3657,
      "탖": 3658,
      "탘": 3659,
      "탙": 3660,
      "태": 3661,
      "택": 3662,
      "탟": 3663,
      "탠": 3664,
      "탣": 3665,
      "탤": 3666,
      "탬": 3667,
      "탭": 3668,
      "탯": 3669,
      "탰": 3670,
      "탱": 3671,
      "탳": 3672,
      "탶": 3673,
      "탸": 3674,
      "탹": 3675,
      "탼": 3676,
      "턀": 3677,
      "턉": 3678,
      "턋": 3679,
      "턌": 3680,
      "턍": 3681,
      "턔": 3682,
      "터": 3683,
      "턱": 3684,
      "턴": 3685,
      "턵": 3686,
      "털": 3687,
      "턻": 3688,
      "텀": 3689,
      "텁": 3690,
      "텃": 3691,
      "텄": 3692,
      "텅": 3693,
      "텈": 3694,
      "텉": 3695,
      "텋": 3696,
      "테": 3697,
      "텍": 3698,
      "텐": 3699,
      "텒": 3700,
      "텓": 3701,
      "텔": 3702,
      "텖": 3703,
      "텙": 3704,
      "텛": 3705,
      "템": 3706,
      "텝": 3707,
      "텟": 3708,
      "텠": 3709,
      "텡": 3710,
      "텢": 3711,
      "텤": 3712,
      "텥": 3713,
      "텦": 3714,
      "텨": 3715,
      "텩": 3716,
      "텬": 3717,
      "텰": 3718,
      "텶": 3719,
      "텸": 3720,
      "텹": 3721,
      "텻": 3722,
      "텼": 3723,
      "텽": 3724,
      "톄": 3725,
      "톅": 3726,
      "톈": 3727,
      "톙": 3728,
      "토": 3729,
      "톡": 3730,
      "톤": 3731,
      "톧": 3732,
      "톨": 3733,
      "톰": 3734,
      "톱": 3735,
      "톳": 3736,
      "통": 3737,
      "톶": 3738,
      "톷": 3739,
      "톹": 3740,
      "톺": 3741,
      "톻": 3742,
      "톼": 3743,
      "퇀": 3744,
      "퇄": 3745,
      "퇑": 3746,
      "퇘": 3747,
      "퇴": 3748,
      "퇸": 3749,
      "퇻": 3750,
      "퇼": 3751,
      "툅": 3752,
      "툇": 3753,
      "툉": 3754,
      "툐": 3755,
      "툕": 3756,
      "툘": 3757,
      "툠": 3758,
      "툥": 3759,
      "투": 3760,
      "툭": 3761,
      "툰": 3762,
      "툳": 3763,
      "툴": 3764,
      "툶": 3765,
      "툼": 3766,
      "툽": 3767,
      "툿": 3768,
      "퉁": 3769,
      "퉂": 3770,
      "퉅": 3771,
      "퉆": 3772,
      "퉈": 3773,
      "퉉": 3774,
      "퉖": 3775,
      "퉛": 3776,
      "퉜": 3777,
      "퉤": 3778,
      "퉵": 3779,
      "퉷": 3780,
      "튀": 3781,
      "튁": 3782,
      "튄": 3783,
      "튈": 3784,
      "튐": 3785,
      "튑": 3786,
      "튓": 3787,
      "튕": 3788,
      "튜": 3789,
      "튝": 3790,
      "튠": 3791,
      "튤": 3792,
      "튬": 3793,
      "튭": 3794,
      "튱": 3795,
      "트": 3796,
      "특": 3797,
      "튺": 3798,
      "튻": 3799,
      "튼": 3800,
      "튽": 3801,
      "튿": 3802,
      "틀": 3803,
      "틁": 3804,
      "틂": 3805,
      "틄": 3806,
      "틈": 3807,
      "틉": 3808,
      "틋": 3809,
      "틍": 3810,
      "틎": 3811,
      "틐": 3812,
      "틑": 3813,
      "틓": 3814,
      "틔": 3815,
      "틘": 3816,
      "틜": 3817,
      "틤": 3818,
      "티": 3819,
      "틱": 3820,
      "틴": 3821,
      "틸": 3822,
      "팀": 3823,
      "팁": 3824,
      "팃": 3825,
      "팅": 3826,
      "팇": 3827,
      "팈": 3828,
      "팉": 3829,
      "파": 3830,
      "팍": 3831,
      "팎": 3832,
      "팏": 3833,
      "판": 3834,
      "팑": 3835,
      "팓": 3836,
      "팔": 3837,
      "팖": 3838,
      "팜": 3839,
      "팝": 3840,
      "팟": 3841,
      "팠": 3842,
      "팡": 3843,
      "팢": 3844,
      "팤": 3845,
      "팥": 3846,
      "팦": 3847,
      "팧": 3848,
      "패": 3849,
      "팩": 3850,
      "팬": 3851,
      "팯": 3852,
      "팰": 3853,
      "팸": 3854,
      "팹": 3855,
      "팻": 3856,
      "팼": 3857,
      "팽": 3858,
      "퍀": 3859,
      "퍁": 3860,
      "퍃": 3861,
      "퍄": 3862,
      "퍅": 3863,
      "퍈": 3864,
      "퍌": 3865,
      "퍙": 3866,
      "퍠": 3867,
      "퍼": 3868,
      "퍽": 3869,
      "펀": 3870,
      "펃": 3871,
      "펄": 3872,
      "펌": 3873,
      "펍": 3874,
      "펏": 3875,
      "펐": 3876,
      "펑": 3877,
      "펕": 3878,
      "펖": 3879,
      "펗": 3880,
      "페": 3881,
      "펙": 3882,
      "펜": 3883,
      "펠": 3884,
      "펢": 3885,
      "펨": 3886,
      "펩": 3887,
      "펫": 3888,
      "펭": 3889,
      "펱": 3890,
      "펲": 3891,
      "펳": 3892,
      "펴": 3893,
      "펵": 3894,
      "편": 3895,
      "펹": 3896,
      "펺": 3897,
      "펼": 3898,
      "펽": 3899,
      "폂": 3900,
      "폄": 3901,
      "폅": 3902,
      "폈": 3903,
      "평": 3904,
      "폊": 3905,
      "폋": 3906,
      "폍": 3907,
      "폏": 3908,
      "폐": 3909,
      "폑": 3910,
      "폔": 3911,
      "폘": 3912,
      "폠": 3913,
      "폡": 3914,
      "폣": 3915,
      "폥": 3916,
      "폨": 3917,
      "포": 3918,
      "폭": 3919,
      "폮": 3920,
      "폯": 3921,
      "폰": 3922,
      "폳": 3923,
      "폴": 3924,
      "폶": 3925,
      "폼": 3926,
      "폽": 3927,
      "폿": 3928,
      "퐁": 3929,
      "퐃": 3930,
      "퐅": 3931,
      "퐇": 3932,
      "퐈": 3933,
      "퐉": 3934,
      "퐌": 3935,
      "퐐": 3936,
      "퐘": 3937,
      "퐝": 3938,
      "퐤": 3939,
      "퐷": 3940,
      "푀": 3941,
      "푁": 3942,
      "푄": 3943,
      "푈": 3944,
      "푑": 3945,
      "푓": 3946,
      "푕": 3947,
      "표": 3948,
      "푝": 3949,
      "푠": 3950,
      "푣": 3951,
      "푤": 3952,
      "푬": 3953,
      "푭": 3954,
      "푯": 3955,
      "푱": 3956,
      "푲": 3957,
      "푶": 3958,
      "푸": 3959,
      "푹": 3960,
      "푼": 3961,
      "푿": 3962,
      "풀": 3963,
      "풂": 3964,
      "품": 3965,
      "풉": 3966,
      "풋": 3967,
      "풍": 3968,
      "풐": 3969,
      "풒": 3970,
      "풔": 3971,
      "풘": 3972,
      "풨": 3973,
      "풩": 3974,
      "풰": 3975,
      "퓀": 3976,
      "퓌": 3977,
      "퓍": 3978,
      "퓐": 3979,
      "퓔": 3980,
      "퓟": 3981,
      "퓨": 3982,
      "퓩": 3983,
      "퓬": 3984,
      "퓰": 3985,
      "퓲": 3986,
      "퓸": 3987,
      "퓻": 3988,
      "퓽": 3989,
      "프": 3990,
      "픅": 3991,
      "픈": 3992,
      "플": 3993,
      "픓": 3994,
      "픔": 3995,
      "픕": 3996,
      "픗": 3997,
      "픙": 3998,
      "픝": 3999,
      "픞": 4000,
      "픠": 4001,
      "픨": 4002,
      "피": 4003,
      "픽": 4004,
      "핀": 4005,
      "핃": 4006,
      "필": 4007,
      "핅": 4008,
      "핊": 4009,
      "핋": 4010,
      "핌": 4011,
      "핍": 4012,
      "핏": 4013,
      "핐": 4014,
      "핑": 4015,
      "핒": 4016,
      "핓": 4017,
      "핔": 4018,
      "핕": 4019,
      "핖": 4020,
      "핗": 4021,
      "하": 4022,
      "학": 4023,
      "핚": 4024,
      "핛": 4025,
      "한": 4026,
      "핝": 4027,
      "핞": 4028,
      "핟": 4029,
      "할": 4030,
      "핡": 4031,
      "핢": 4032,
      "핣": 4033,
      "핤": 4034,
      "핥": 4035,
      "핦": 4036,
      "핧": 4037,
      "함": 4038,
      "합": 4039,
      "핫": 4040,
      "핬": 4041,
      "항": 4042,
      "핮": 4043,
      "핰": 4044,
      "핱": 4045,
      "핲": 4046,
      "핳": 4047,
      "해": 4048,
      "핵": 4049,
      "핶": 4050,
      "핷": 4051,
      "핸": 4052,
      "핻": 4053,
      "핼": 4054,
      "햄": 4055,
      "햅": 4056,
      "햇": 4057,
      "했": 4058,
      "행": 4059,
      "햊": 4060,
      "햋": 4061,
      "햌": 4062,
      "햎": 4063,
      "햏": 4064,
      "햐": 4065,
      "햑": 4066,
      "햔": 4067,
      "햘": 4068,
      "햝": 4069,
      "햠": 4070,
      "햡": 4071,
      "햣": 4072,
      "햤": 4073,
      "향": 4074,
      "햬": 4075,
      "햼": 4076,
      "햿": 4077,
      "헀": 4078,
      "헁": 4079,
      "허": 4080,
      "헉": 4081,
      "헌": 4082,
      "헐": 4083,
      "헒": 4084,
      "헓": 4085,
      "헗": 4086,
      "험": 4087,
      "헙": 4088,
      "헛": 4089,
      "헜": 4090,
      "헝": 4091,
      "헡": 4092,
      "헣": 4093,
      "헤": 4094,
      "헥": 4095,
      "헨": 4096,
      "헫": 4097,
      "헬": 4098,
      "헰": 4099,
      "헴": 4100,
      "헵": 4101,
      "헷": 4102,
      "헸": 4103,
      "헹": 4104,
      "헿": 4105,
      "혀": 4106,
      "혁": 4107,
      "혂": 4108,
      "혃": 4109,
      "현": 4110,
      "혅": 4111,
      "혆": 4112,
      "혈": 4113,
      "혏": 4114,
      "혐": 4115,
      "협": 4116,
      "혓": 4117,
      "혔": 4118,
      "형": 4119,
      "혖": 4120,
      "혛": 4121,
      "혜": 4122,
      "혠": 4123,
      "혤": 4124,
      "혭": 4125,
      "혯": 4126,
      "혰": 4127,
      "혱": 4128,
      "혵": 4129,
      "호": 4130,
      "혹": 4131,
      "혼": 4132,
      "혿": 4133,
      "홀": 4134,
      "홁": 4135,
      "홅": 4136,
      "홇": 4137,
      "홈": 4138,
      "홉": 4139,
      "홋": 4140,
      "홍": 4141,
      "홐": 4142,
      "홑": 4143,
      "홒": 4144,
      "홓": 4145,
      "화": 4146,
      "확": 4147,
      "홗": 4148,
      "환": 4149,
      "홙": 4150,
      "홛": 4151,
      "활": 4152,
      "홟": 4153,
      "홢": 4154,
      "홤": 4155,
      "홥": 4156,
      "홧": 4157,
      "홨": 4158,
      "황": 4159,
      "홪": 4160,
      "홯": 4161,
      "홰": 4162,
      "홱": 4163,
      "홴": 4164,
      "홻": 4165,
      "횃": 4166,
      "횄": 4167,
      "횅": 4168,
      "회": 4169,
      "획": 4170,
      "횐": 4171,
      "횓": 4172,
      "횔": 4173,
      "횜": 4174,
      "횝": 4175,
      "횟": 4176,
      "횡": 4177,
      "횢": 4178,
      "효": 4179,
      "횩": 4180,
      "횬": 4181,
      "횰": 4182,
      "횸": 4183,
      "횹": 4184,
      "횻": 4185,
      "횼": 4186,
      "횽": 4187,
      "후": 4188,
      "훅": 4189,
      "훈": 4190,
      "훌": 4191,
      "훍": 4192,
      "훎": 4193,
      "훏": 4194,
      "훑": 4195,
      "훓": 4196,
      "훔": 4197,
      "훕": 4198,
      "훗": 4199,
      "훙": 4200,
      "훜": 4201,
      "훝": 4202,
      "훠": 4203,
      "훤": 4204,
      "훨": 4205,
      "훰": 4206,
      "훴": 4207,
      "훵": 4208,
      "훻": 4209,
      "훼": 4210,
      "훽": 4211,
      "휀": 4212,
      "휄": 4213,
      "휍": 4214,
      "휏": 4215,
      "휑": 4216,
      "휘": 4217,
      "휙": 4218,
      "휜": 4219,
      "휠": 4220,
      "휨": 4221,
      "휩": 4222,
      "휫": 4223,
      "휭": 4224,
      "휴": 4225,
      "휵": 4226,
      "휸": 4227,
      "휻": 4228,
      "휼": 4229,
      "흄": 4230,
      "흉": 4231,
      "흏": 4232,
      "흐": 4233,
      "흑": 4234,
      "흔": 4235,
      "흕": 4236,
      "흗": 4237,
      "흘": 4238,
      "흙": 4239,
      "흝": 4240,
      "흠": 4241,
      "흡": 4242,
      "흣": 4243,
      "흥": 4244,
      "흩": 4245,
      "흫": 4246,
      "희": 4247,
      "흭": 4248,
      "흰": 4249,
      "흴": 4250,
      "흼": 4251,
      "흽": 4252,
      "힁": 4253,
      "힅": 4254,
      "히": 4255,
      "힉": 4256,
      "힌": 4257,
      "힐": 4258,
      "힑": 4259,
      "힔": 4260,
      "힕": 4261,
      "힘": 4262,
      "힙": 4263,
      "힛": 4264,
      "힜": 4265,
      "힝": 4266,
      "힠": 4267,
      "힡": 4268,
      "힣": 4269,
      "으로": 4270,
      "했다": 4271,
      "에서": 4272,
      "있다": 4273,
      "하는": 4274,
      "하고": 4275,
      "이다": 4276,
      "니다": 4277,
      "20": 4278,
      "한다": 4279,
      "00": 4280,
      "이라": 4281,
      "지난": 4282,
      "있는": 4283,
      "습니다": 4284,
      "까지": 4285,
      "면서": 4286,
      "지만": 4287,
      "201": 4288,
      "한국": 4289,
      "대한": 4290,
      "서울": 4291,
      "부터": 4292,
      "것으로": 4293,
      "들이": 4294,
      "었다": 4295,
      "대표": 4296,
      "통령": 4297,
      "10": 4298,
      "기업": 4299,
      "대통령": 4300,
      "에게": 4301,
      "정부": 4302,
      "된다": 4303,
      "됐다": 4304,
      "적으로": 4305,
      "밝혔": 4306,
      "적인": 4307,
      "사업": 4308,
      "위해": 4309,
      "에는": 4310,
      "하기": 4311,
      "위원": 4312,
      "시장": 4313,
      "밝혔다": 4314,
      "이라고": 4315,
      "미국": 4316,
      "19": 4317,
      "통해": 4318,
      "이어": 4319,
      "지역": 4320,
      "다는": 4321,
      "대해": 4322,
      "말했다": 4323,
      "지원": 4324,
      "하게": 4325,
      "이번": 4326,
      "시간": 4327,
      "투자": 4328,
      "의원": 4329,
      "관계": 4330,
      "중국": 4331,
      "다고": 4332,
      "관련": 4333,
      "억원": 4334,
      "들의": 4335,
      "가능": 4336,
      "자는": 4337,
      "장은": 4338,
      "우리": 4339,
      "들은": 4340,
      "되는": 4341,
      "하지": 4342,
      "국민": 4343,
      "보다": 4344,
      "진행": 4345,
      "조사": 4346,
      "았다": 4347,
      "이날": 4348,
      "11": 4349,
      "30": 4350,
      "문제": 4351,
      "함께": 4352,
      "하다": 4353,
      "들어": 4354,
      "위한": 4355,
      "등을": 4356,
      "12": 4357,
      "사진": 4358,
      "때문": 4359,
      "경기": 4360,
      "장을": 4361,
      "지난해": 4362,
      "연구": 4363,
      "에도": 4364,
      "제공": 4365,
      "이상": 4366,
      "후보": 4367,
      "교육": 4368,
      "라고": 4369,
      "000": 4370,
      "경우": 4371,
      "산업": 4372,
      "기술": 4373,
      "사회": 4374,
      "북한": 4375,
      "에서는": 4376,
      "도록": 4377,
      "개발": 4378,
      "하며": 4379,
      "계획": 4380,
      "금융": 4381,
      "것이": 4382,
      "였다": 4383,
      "이후": 4384,
      "해야": 4385,
      "올해": 4386,
      "비스": 4387,
      "국내": 4388,
      "같은": 4389,
      "상황": 4390,
      "회의": 4391,
      "최근": 4392,
      "만원": 4393,
      "예정": 4394,
      "아니": 4395,
      "사를": 4396,
      "졌다": 4397,
      "민주": 4398,
      "15": 4399,
      "따라": 4400,
      "사람": 4401,
      "르면": 4402,
      "기를": 4403,
      "대로": 4404,
      "서비스": 4405,
      "입니다": 4406,
      "현재": 4407,
      "하면": 4408,
      "하겠": 4409,
      "으며": 4410,
      "거래": 4411,
      "정책": 4412,
      "대상": 4413,
      "세계": 4414,
      "장이": 4415,
      "경찰": 4416,
      "리는": 4417,
      "했습니다": 4418,
      "일본": 4419,
      "기록": 4420,
      "필요": 4421,
      "따르면": 4422,
      "결과": 4423,
      "국회": 4424,
      "전문": 4425,
      "그러": 4426,
      "성이": 4427,
      "관리": 4428,
      "운영": 4429,
      "설명": 4430,
      "은행": 4431,
      "자가": 4432,
      "되고": 4433,
      "들을": 4434,
      "것은": 4435,
      "가장": 4436,
      "사는": 4437,
      "국가": 4438,
      "자리": 4439,
      "시작": 4440,
      "프로": 4441,
      "삼성": 4442,
      "사용": 4443,
      "정보": 4444,
      "라는": 4445,
      "스트": 4446,
      "기관": 4447,
      "이는": 4448,
      "제품": 4449,
      "기준": 4450,
      "평가": 4451,
      "규모": 4452,
      "장관": 4453,
      "하면서": 4454,
      "성을": 4455,
      "이용": 4456,
      "18": 4457,
      "했다고": 4458,
      "하지만": 4459,
      "지는": 4460,
      "25": 4461,
      "학교": 4462,
      "것이다": 4463,
      "지를": 4464,
      "안전": 4465,
      "보고": 4466,
      "200": 4467,
      "발표": 4468,
      "문화": 4469,
      "사실": 4470,
      "증가": 4471,
      "13": 4472,
      "위원회": 4473,
      "력을": 4474,
      "특히": 4475,
      "이나": 4476,
      "오는": 4477,
      "추진": 4478,
      "이에": 4479,
      "생각": 4480,
      "는데": 4481,
      "이를": 4482,
      "대비": 4483,
      "14": 4484,
      "모두": 4485,
      "검찰": 4486,
      "다양": 4487,
      "서는": 4488,
      "다른": 4489,
      "그는": 4490,
      "1일": 4491,
      "50": 4492,
      "판매": 4493,
      "오후": 4494,
      "16": 4495,
      "센터": 4496,
      "리고": 4497,
      "동안": 4498,
      "7일": 4499,
      "확인": 4500,
      "환경": 4501,
      "이라는": 4502,
      "정치": 4503,
      "도로": 4504,
      "참여": 4505,
      "발생": 4506,
      "정을": 4507,
      "명이": 4508,
      "성장": 4509,
      "아이": 4510,
      "기간": 4511,
      "오전": 4512,
      "열린": 4513,
      "업체": 4514,
      "시아": 4515,
      "있어": 4516,
      "분석": 4517,
      "이고": 4518,
      "민주당": 4519,
      "상승": 4520,
      "24": 4521,
      "부산": 4522,
      "상을": 4523,
      "때문에": 4524,
      "학생": 4525,
      "선거": 4526,
      "관계자는": 4527,
      "활동": 4528,
      "나타": 4529,
      "가운": 4530,
      "지고": 4531,
      "피해": 4532,
      "없다": 4533,
      "수는": 4534,
      "지금": 4535,
      "전망": 4536,
      "레이": 4537,
      "사가": 4538,
      "다양한": 4539,
      "많은": 4540,
      "가운데": 4541,
      "부분": 4542,
      "것을": 4543,
      "최고": 4544,
      "트럼": 4545,
      "자신": 4546,
      "기에": 4547,
      "트럼프": 4548,
      "전자": 4549,
      "랜드": 4550,
      "화를": 4551,
      "공개": 4552,
      "5년": 4553,
      "한다고": 4554,
      "도시": 4555,
      "확대": 4556,
      "내용": 4557,
      "없는": 4558,
      "로나": 4559,
      "마트": 4560,
      "정상": 4561,
      "이라며": 4562,
      "혐의": 4563,
      "리를": 4564,
      "시설": 4565,
      "추가": 4566,
      "기대": 4567,
      "100": 4568,
      "당시": 4569,
      "하나": 4570,
      "수준": 4571,
      "이런": 4572,
      "강조": 4573,
      "부는": 4574,
      "들에게": 4575,
      "고객": 4576,
      "등이": 4577,
      "있습니다": 4578,
      "결정": 4579,
      "국제": 4580,
      "라인": 4581,
      "씨는": 4582,
      "달러": 4583,
      "사건": 4584,
      "22": 4585,
      "코로나": 4586,
      "있다고": 4587,
      "미래": 4588,
      "수사": 4589,
      "등의": 4590,
      "점을": 4591,
      "회사": 4592,
      "시민": 4593,
      "알려": 4594,
      "가격": 4595,
      "그룹": 4596,
      "마련": 4597,
      "최대": 4598,
      "로운": 4599,
      "강화": 4600,
      "자유": 4601,
      "가는": 4602,
      "23": 4603,
      "보인": 4604,
      "청와": 4605,
      "페이": 4606,
      "상품": 4607,
      "바이": 4608,
      "개선": 4609,
      "스타": 4610,
      "공동": 4611,
      "기가": 4612,
      "현대": 4613,
      "현지": 4614,
      "예정이다": 4615,
      "왔다": 4616,
      "전국": 4617,
      "청와대": 4618,
      "시스": 4619,
      "포함": 4620,
      "주택": 4621,
      "다시": 4622,
      "거나": 4623,
      "활용": 4624,
      "여러": 4625,
      "1년": 4626,
      "없이": 4627,
      "사이": 4628,
      "40": 4629,
      "소비": 4630,
      "명을": 4631,
      "직원": 4632,
      "과정": 4633,
      "에서도": 4634,
      "전체": 4635,
      "주의": 4636,
      "있도록": 4637,
      "생산": 4638,
      "재인": 4639,
      "한국당": 4640,
      "인터": 4641,
      "그런": 4642,
      "한다는": 4643,
      "28": 4644,
      "매출": 4645,
      "예상": 4646,
      "했고": 4647,
      "방문": 4648,
      "있다는": 4649,
      "7년": 4650,
      "중앙": 4651,
      "지적": 4652,
      "안을": 4653,
      "문재인": 4654,
      "지방": 4655,
      "자의": 4656,
      "건설": 4657,
      "자동": 4658,
      "일부": 4659,
      "대표는": 4660,
      "발전": 4661,
      "치를": 4662,
      "분야": 4663,
      "도를": 4664,
      "26": 4665,
      "주장": 4666,
      "않는": 4667,
      "아니라": 4668,
      "높은": 4669,
      "사고": 4670,
      "회장": 4671,
      "통신": 4672,
      "영업": 4673,
      "3년": 4674,
      "경쟁": 4675,
      "위를": 4676,
      "라이": 4677,
      "지지": 4678,
      "개월": 4679,
      "들과": 4680,
      "영향": 4681,
      "만큼": 4682,
      "했던": 4683,
      "해외": 4684,
      "해서": 4685,
      "직접": 4686,
      "글로": 4687,
      "병원": 4688,
      "주요": 4689,
      "났다": 4690,
      "단체": 4691,
      "보험": 4692,
      "설명했다": 4693,
      "이유": 4694,
      "협력": 4695,
      "노동": 4696,
      "특별": 4697,
      "여성": 4698,
      "모습": 4699,
      "파트": 4700,
      "요구": 4701,
      "경영": 4702,
      "주민": 4703,
      "기존": 4704,
      "이익": 4705,
      "준비": 4706,
      "가지": 4707,
      "29": 4708,
      "증권": 4709,
      "개인": 4710,
      "중심": 4711,
      "수도": 4712,
      "오늘": 4713,
      "명의": 4714,
      "데이": 4715,
      "적용": 4716,
      "모든": 4717,
      "이미": 4718,
      "수가": 4719,
      "2년": 4720,
      "지속": 4721,
      "회를": 4722,
      "리아": 4723,
      "자를": 4724,
      "tv": 4725,
      "이었다": 4726,
      "생활": 4727,
      "업계": 4728,
      "성과": 4729,
      "적극": 4730,
      "받고": 4731,
      "받아": 4732,
      "시스템": 4733,
      "한편": 4734,
      "참석": 4735,
      "in": 4736,
      "처럼": 4737,
      "관광": 4738,
      "대학": 4739,
      "4년": 4740,
      "분기": 4741,
      "나라": 4742,
      "해당": 4743,
      "세를": 4744,
      "대통령은": 4745,
      "다음": 4746,
      "판단": 4747,
      "구성": 4748,
      "항공": 4749,
      "글로벌": 4750,
      "그러나": 4751,
      "행사": 4752,
      "앞서": 4753,
      "원은": 4754,
      "기도": 4755,
      "의견": 4756,
      "업무": 4757,
      "어려": 4758,
      "불어": 4759,
      "렸다": 4760,
      "수출": 4761,
      "합니다": 4762,
      "전략": 4763,
      "있을": 4764,
      "제로": 4765,
      "두고": 4766,
      "새로운": 4767,
      "보도": 4768,
      "17": 4769,
      "평균": 4770,
      "상태": 4771,
      "구조": 4772,
      "6년": 4773,
      "대통령이": 4774,
      "리가": 4775,
      "겠다": 4776,
      "영상": 4777,
      "감독": 4778,
      "재판": 4779,
      "수익": 4780,
      "현장": 4781,
      "대구": 4782,
      "그램": 4783,
      "주는": 4784,
      "원을": 4785,
      "대책": 4786,
      "처음": 4787,
      "우려": 4788,
      "방송": 4789,
      "롯데": 4790,
      "외국": 4791,
      "관심": 4792,
      "er": 4793,
      "출시": 4794,
      "보인다": 4795,
      "또한": 4796,
      "60": 4797,
      "받은": 4798,
      "중요": 4799,
      "회담": 4800,
      "혁신": 4801,
      "하여": 4802,
      "게임": 4803,
      "식을": 4804,
      "하락": 4805,
      "lg": 4806,
      "유지": 4807,
      "지난달": 4808,
      "만에": 4809,
      "가족": 4810,
      "대응": 4811,
      "합의": 4812,
      "역시": 4813,
      "금을": 4814,
      "정도": 4815,
      "스마트": 4816,
      "등에": 4817,
      "자체": 4818,
      "인사": 4819,
      "계획이다": 4820,
      "인이": 4821,
      "시는": 4822,
      "8년": 4823,
      "기로": 4824,
      "하겠다": 4825,
      "언론": 4826,
      "더불어": 4827,
      "계약": 4828,
      "개최": 4829,
      "책임": 4830,
      "기는": 4831,
      "내년": 4832,
      "건강": 4833,
      "앞으로": 4834,
      "중소": 4835,
      "교통": 4836,
      "sk": 4837,
      "보면": 4838,
      "않고": 4839,
      "자료": 4840,
      "선정": 4841,
      "브랜드": 4842,
      "러스": 4843,
      "않은": 4844,
      "주가": 4845,
      "인은": 4846,
      "전했다": 4847,
      "각각": 4848,
      "논의": 4849,
      "되지": 4850,
      "반도": 4851,
      "공급": 4852,
      "가구": 4853,
      "계속": 4854,
      "성공": 4855,
      "이뤄": 4856,
      "강조했다": 4857,
      "코로나19": 4858,
      "있었다": 4859,
      "신청": 4860,
      "효과": 4861,
      "영화": 4862,
      "종목": 4863,
      "확보": 4864,
      "지도": 4865,
      "인천": 4866,
      "수를": 4867,
      "사의": 4868,
      "으면": 4869,
      "많이": 4870,
      "스크": 4871,
      "본부": 4872,
      "으나": 4873,
      "감소": 4874,
      "정부가": 4875,
      "비롯": 4876,
      "차량": 4877,
      "프로그램": 4878,
      "했지만": 4879,
      "70": 4880,
      "렇게": 4881,
      "니까": 4882,
      "원이": 4883,
      "통합": 4884,
      "일반": 4885,
      "대상으로": 4886,
      "인트": 4887,
      "운동": 4888,
      "코스": 4889,
      "번째": 4890,
      "카드": 4891,
      "예산": 4892,
      "실시": 4893,
      "의원은": 4894,
      "하기로": 4895,
      "소득": 4896,
      "만들": 4897,
      "아파트": 4898,
      "on": 4899,
      "자동차": 4900,
      "선을": 4901,
      "행정": 4902,
      "원내": 4903,
      "위원장": 4904,
      "일까지": 4905,
      "국정": 4906,
      "기다": 4907,
      "의혹": 4908,
      "목표": 4909,
      "의료": 4910,
      "제도": 4911,
      "국민의": 4912,
      "보호": 4913,
      "대출": 4914,
      "늘어": 4915,
      "제를": 4916,
      "받는": 4917,
      "광주": 4918,
      "제주": 4919,
      "협의": 4920,
      "it": 4921,
      "복지": 4922,
      "따른": 4923,
      "시행": 4924,
      "핵심": 4925,
      "전문가": 4926,
      "외교": 4927,
      "대회": 4928,
      "실적": 4929,
      "설치": 4930,
      "같이": 4931,
      "조정": 4932,
      "있고": 4933,
      "가치": 4934,
      "정당": 4935,
      "3월": 4936,
      "대를": 4937,
      "역할": 4938,
      "수요": 4939,
      "고용": 4940,
      "도입": 4941,
      "안정": 4942,
      "있었": 4943,
      "떨어": 4944,
      "부담": 4945,
      "일부터": 4946,
      "조선": 4947,
      "ai": 4948,
      "력이": 4949,
      "드러": 4950,
      "공식": 4951,
      "일자리": 4952,
      "자인": 4953,
      "더욱": 4954,
      "라며": 4955,
      "집중": 4956,
      "포인트": 4957,
      "과학": 4958,
      "기반": 4959,
      "80": 4960,
      "바로": 4961,
      "나는": 4962,
      "선수": 4963,
      "반영": 4964,
      "냈다": 4965,
      "등으로": 4966,
      "대통령의": 4967,
      "또는": 4968,
      "치료": 4969,
      "좋은": 4970,
      "시에": 4971,
      "기능": 4972,
      "원에": 4973,
      "종합": 4974,
      "4월": 4975,
      "구속": 4976,
      "단지": 4977,
      "물론": 4978,
      "6월": 4979,
      "이동": 4980,
      "이며": 4981,
      "때문이다": 4982,
      "자로": 4983,
      "의미": 4984,
      "이야": 4985,
      "사장": 4986,
      "공공": 4987,
      "그리고": 4988,
      "거리": 4989,
      "해결": 4990,
      "대선": 4991,
      "어떤": 4992,
      "부문": 4993,
      "되면": 4994,
      "원의": 4995,
      "수석": 4996,
      "le": 4997,
      "정부의": 4998,
      "방식": 4999,
      "않았다": 5000,
      "사무": 5001,
      "정부는": 5002,
      "단계": 5003,
      "세대": 5004,
      "전에": 5005,
      "나온": 5006,
      "도가": 5007,
      "씨가": 5008,
      "더불어민주당": 5009,
      "고려": 5010,
      "과의": 5011,
      "데이터": 5012,
      "부가": 5013,
      "제가": 5014,
      "받았다": 5015,
      "조성": 5016,
      "중인": 5017,
      "프리": 5018,
      "보여": 5019,
      "모델": 5020,
      "기획": 5021,
      "9년": 5022,
      "비판": 5023,
      "자산": 5024,
      "무역": 5025,
      "ic": 5026,
      "찾아": 5027,
      "신고": 5028,
      "5월": 5029,
      "권을": 5030,
      "아닌": 5031,
      "하려": 5032,
      "구축": 5033,
      "1만": 5034,
      "2015년": 5035,
      "만들어": 5036,
      "부동": 5037,
      "인을": 5038,
      "ne": 5039,
      "비용": 5040,
      "위치": 5041,
      "공정": 5042,
      "조치": 5043,
      "기념": 5044,
      "했다는": 5045,
      "입장": 5046,
      "제시": 5047,
      "않았": 5048,
      "당국": 5049,
      "그래": 5050,
      "ar": 5051,
      "시키": 5052,
      "분양": 5053,
      "라도": 5054,
      "제기": 5055,
      "검토": 5056,
      "변화": 5057,
      "인정": 5058,
      "청년": 5059,
      "크게": 5060,
      "an": 5061,
      "공간": 5062,
      "공사": 5063,
      "9월": 5064,
      "반기": 5065,
      "제보": 5066,
      "가능성이": 5067,
      "개혁": 5068,
      "차례": 5069,
      "유럽": 5070,
      "500": 5071,
      "자신의": 5072,
      "대전": 5073,
      "스는": 5074,
      "보유": 5075,
      "다만": 5076,
      "자들이": 5077,
      "감염": 5078,
      "2017년": 5079,
      "전년": 5080,
      "논란": 5081,
      "오른": 5082,
      "부를": 5083,
      "일을": 5084,
      "자유한국당": 5085,
      "발언": 5086,
      "en": 5087,
      "우선": 5088,
      "베이": 5089,
      "관련해": 5090,
      "전환": 5091,
      "되어": 5092,
      "구매": 5093,
      "서를": 5094,
      "온라인": 5095,
      "마음": 5096,
      "7월": 5097,
      "밖에": 5098,
      "작업": 5099,
      "아직": 5100,
      "부동산": 5101,
      "문을": 5102,
      "지급": 5103,
      "김정": 5104,
      "돌아": 5105,
      "별로": 5106,
      "드는": 5107,
      "st": 5108,
      "제한": 5109,
      "매수": 5110,
      "12월": 5111,
      "10월": 5112,
      "감을": 5113,
      "물을": 5114,
      "주시": 5115,
      "교수": 5116,
      "1월": 5117,
      "지가": 5118,
      "대형": 5119,
      "진다": 5120,
      "창업": 5121,
      "일이": 5122,
      "정의": 5123,
      "어떻": 5124,
      "투표": 5125,
      "처리": 5126,
      "스포": 5127,
      "인도": 5128,
      "상당": 5129,
      "평화": 5130,
      "인의": 5131,
      "조직": 5132,
      "받을": 5133,
      "미사": 5134,
      "덧붙": 5135,
      "자금": 5136,
      "노력": 5137,
      "영국": 5138,
      "움을": 5139,
      "현지시간": 5140,
      "개정": 5141,
      "안에": 5142,
      "중이다": 5143,
      "전기": 5144,
      "과정에서": 5145,
      "박근": 5146,
      "넘어": 5147,
      "케이": 5148,
      "트를": 5149,
      "2016년": 5150,
      "인상": 5151,
      "있으며": 5152,
      "참가": 5153,
      "우수": 5154,
      "식품": 5155,
      "어린": 5156,
      "5일": 5157,
      "에너": 5158,
      "아시아": 5159,
      "위에": 5160,
      "박근혜": 5161,
      "신규": 5162,
      "시즌": 5163,
      "반면": 5164,
      "선택": 5165,
      "남북": 5166,
      "8월": 5167,
      "어떻게": 5168,
      "이하": 5169,
      "알려졌다": 5170,
      "측은": 5171,
      "변호": 5172,
      "협상": 5173,
      "전을": 5174,
      "감사": 5175,
      "림픽": 5176,
      "근로": 5177,
      "90": 5178,
      "방법": 5179,
      "총리": 5180,
      "하루": 5181,
      "서비스를": 5182,
      "제작": 5183,
      "필요한": 5184,
      "바른": 5185,
      "안보": 5186,
      "확산": 5187,
      "최초": 5188,
      "기록했다": 5189,
      "중소기업": 5190,
      "전달": 5191,
      "사업을": 5192,
      "시험": 5193,
      "국무": 5194,
      "하이": 5195,
      "2월": 5196,
      "여행": 5197,
      "방침": 5198,
      "것도": 5199,
      "만나": 5200,
      "at": 5201,
      "11월": 5202,
      "27": 5203,
      "요청": 5204,
      "인공": 5205,
      "대가": 5206,
      "전해": 5207,
      "규제": 5208,
      "도는": 5209,
      "위험": 5210,
      "3일": 5211,
      "보내": 5212,
      "장애": 5213,
      "검사": 5214,
      "21": 5215,
      "나가": 5216,
      "비율": 5217,
      "보수": 5218,
      "스를": 5219,
      "나오": 5220,
      "다가": 5221,
      "나타났다": 5222,
      "최종": 5223,
      "지에": 5224,
      "향후": 5225,
      "것이라고": 5226,
      "차지": 5227,
      "이해": 5228,
      "분의": 5229,
      "민국": 5230,
      "원에서": 5231,
      "올림픽": 5232,
      "들도": 5233,
      "있지만": 5234,
      "대변": 5235,
      "주식": 5236,
      "체험": 5237,
      "소속": 5238,
      "사례": 5239,
      "임금": 5240,
      "범죄": 5241,
      "사태": 5242,
      "금리": 5243,
      "차를": 5244,
      "사망": 5245,
      "가입": 5246,
      "경남": 5247,
      "대한민국": 5248,
      "이와": 5249,
      "전히": 5250,
      "이었": 5251,
      "모바": 5252,
      "장에서": 5253,
      "반대": 5254,
      "정상회담": 5255,
      "인터넷": 5256,
      "대화": 5257,
      "경험": 5258,
      "기본": 5259,
      "연합": 5260,
      "방향": 5261,
      "러시아": 5262,
      "비교": 5263,
      "kb": 5264,
      "호텔": 5265,
      "않을": 5266,
      "소비자": 5267,
      "체계": 5268,
      "혐의로": 5269,
      "35": 5270,
      "전날": 5271,
      "본격": 5272,
      "27일": 5273,
      "제조": 5274,
      "영향을": 5275,
      "국방": 5276,
      "보는": 5277,
      "2014년": 5278,
      "이사": 5279,
      "공연": 5280,
      "재단": 5281,
      "모바일": 5282,
      "치는": 5283,
      "덧붙였다": 5284,
      "로부터": 5285,
      "유통": 5286,
      "대부분": 5287,
      "결국": 5288,
      "협회": 5289,
      "경기도": 5290,
      "하는데": 5291,
      "쳤다": 5292,
      "에선": 5293,
      "re": 5294,
      "이제": 5295,
      "이란": 5296,
      "지정": 5297,
      "억원을": 5298,
      "문제가": 5299,
      "와의": 5300,
      "아니다": 5301,
      "하도록": 5302,
      "중단": 5303,
      "쇼핑": 5304,
      "활성": 5305,
      "20일": 5306,
      "되면서": 5307,
      "인데": 5308,
      "주목": 5309,
      "민간": 5310,
      "강원": 5311,
      "제출": 5312,
      "무리": 5313,
      "이렇게": 5314,
      "연결": 5315,
      "시가": 5316,
      "원으로": 5317,
      "나서": 5318,
      "르는": 5319,
      "주변": 5320,
      "점에서": 5321,
      "kt": 5322,
      "21일": 5323,
      "new": 5324,
      "과거": 5325,
      "체결": 5326,
      "있게": 5327,
      "인근": 5328,
      "대표가": 5329,
      "울산": 5330,
      "수수": 5331,
      "확진": 5332,
      "공격": 5333,
      "300": 5334,
      "에너지": 5335,
      "텐츠": 5336,
      "먼저": 5337,
      "진단": 5338,
      "10일": 5339,
      "점검": 5340,
      "전용": 5341,
      "마을": 5342,
      "위반": 5343,
      "중심으로": 5344,
      "2일": 5345,
      "진출": 5346,
      "담당": 5347,
      "보건": 5348,
      "미사일": 5349,
      "17일": 5350,
      "펀드": 5351,
      "경북": 5352,
      "연속": 5353,
      "실제": 5354,
      "점이": 5355,
      "장기": 5356,
      "올라": 5357,
      "최저": 5358,
      "금지": 5359,
      "하거나": 5360,
      "높아": 5361,
      "위는": 5362,
      "소를": 5363,
      "통한": 5364,
      "수입": 5365,
      "위기": 5366,
      "선언": 5367,
      "이름": 5368,
      "명으로": 5369,
      "al": 5370,
      "배우": 5371,
      "어렵": 5372,
      "2차": 5373,
      "역할을": 5374,
      "제재": 5375,
      "훈련": 5376,
      "가능한": 5377,
      "co": 5378,
      "삼성전자": 5379,
      "발견": 5380,
      "소년": 5381,
      "비중": 5382,
      "2017": 5383,
      "방안": 5384,
      "씨의": 5385,
      "소재": 5386,
      "제외": 5387,
      "채용": 5388,
      "그동안": 5389,
      "한미": 5390,
      "했으며": 5391,
      "전시": 5392,
      "국민의당": 5393,
      "사랑": 5394,
      "상대": 5395,
      "th": 5396,
      "공무": 5397,
      "콘텐츠": 5398,
      "섰다": 5399,
      "건축": 5400,
      "현실": 5401,
      "등록": 5402,
      "하자": 5403,
      "4일": 5404,
      "외국인": 5405,
      "불법": 5406,
      "9일": 5407,
      "이벤": 5408,
      "언급": 5409,
      "소개": 5410,
      "인지": 5411,
      "리스": 5412,
      "협약": 5413,
      "6일": 5414,
      "영업이익": 5415,
      "디어": 5416,
      "근무": 5417,
      "회장은": 5418,
      "부족": 5419,
      "출신": 5420,
      "상장": 5421,
      "버스": 5422,
      "량을": 5423,
      "내부": 5424,
      "공항": 5425,
      "지구": 5426,
      "설립": 5427,
      "대해서": 5428,
      "장의": 5429,
      "이기": 5430,
      "인해": 5431,
      "주로": 5432,
      "가능성": 5433,
      "2000": 5434,
      "인터뷰": 5435,
      "8일": 5436,
      "달라": 5437,
      "14일": 5438,
      "북한의": 5439,
      "15일": 5440,
      "미국의": 5441,
      "이자": 5442,
      "편의": 5443,
      "28일": 5444,
      "스포츠": 5445,
      "입장을": 5446,
      "문제를": 5447,
      "느냐": 5448,
      "매우": 5449,
      "ap": 5450,
      "대에": 5451,
      "12일": 5452,
      "리그": 5453,
      "하던": 5454,
      "업종": 5455,
      "이전": 5456,
      "내려": 5457,
      "주도": 5458,
      "는다": 5459,
      "갖고": 5460,
      "그렇": 5461,
      "개의": 5462,
      "13일": 5463,
      "19일": 5464,
      "대해서는": 5465,
      "활동을": 5466,
      "역사": 5467,
      "방안을": 5468,
      "그런데": 5469,
      "취업": 5470,
      "36": 5471,
      "가를": 5472,
      "11일": 5473,
      "통과": 5474,
      "지적했다": 5475,
      "이달": 5476,
      "1000": 5477,
      "일정": 5478,
      "플랫": 5479,
      "메이": 5480,
      "예방": 5481,
      "조사를": 5482,
      "있는데": 5483,
      "예술": 5484,
      "강남": 5485,
      "조합": 5486,
      "코리아": 5487,
      "ce": 5488,
      "마다": 5489,
      "보였다": 5490,
      "사항": 5491,
      "해도": 5492,
      "26일": 5493,
      "지하": 5494,
      "부모": 5495,
      "30일": 5496,
      "했는데": 5497,
      "비를": 5498,
      "관한": 5499,
      "하다는": 5500,
      "립니다": 5501,
      "23일": 5502,
      "주장했다": 5503,
      "공유": 5504,
      "홍보": 5505,
      "법인": 5506,
      "세종": 5507,
      "플랫폼": 5508,
      "18일": 5509,
      "질문": 5510,
      "구체": 5511,
      "16일": 5512,
      "앞두고": 5513,
      "희망": 5514,
      "25일": 5515,
      "누리": 5516,
      "is": 5517,
      "받았": 5518,
      "마이": 5519,
      "금액": 5520,
      "스로": 5521,
      "치고": 5522,
      "2018년": 5523,
      "22일": 5524,
      "지능": 5525,
      "놓고": 5526,
      "적이": 5527,
      "장에": 5528,
      "자연": 5529,
      "최소": 5530,
      "24일": 5531,
      "통화": 5532,
      "5000": 5533,
      "소방": 5534,
      "디자인": 5535,
      "홈페이": 5536,
      "않아": 5537,
      "20년": 5538,
      "해양": 5539,
      "올랐": 5540,
      "장관은": 5541,
      "각종": 5542,
      "작품": 5543,
      "조금": 5544,
      "기소": 5545,
      "하기도": 5546,
      "할인": 5547,
      "바이오": 5548,
      "가능하다": 5549,
      "내고": 5550,
      "우리나라": 5551,
      "장과": 5552,
      "마지": 5553,
      "목소": 5554,
      "파악": 5555,
      "전남": 5556,
      "스마트폰": 5557,
      "거쳐": 5558,
      "가까": 5559,
      "보이": 5560,
      "자들의": 5561,
      "의도": 5562,
      "토론": 5563,
      "위로": 5564,
      "간의": 5565,
      "주고": 5566,
      "바이러스": 5567,
      "촬영": 5568,
      "어느": 5569,
      "사회적": 5570,
      "작년": 5571,
      "대신": 5572,
      "34": 5573,
      "정권": 5574,
      "인증": 5575,
      "회복": 5576,
      "bc": 5577,
      "한반도": 5578,
      "프랑": 5579,
      "여론": 5580,
      "비서": 5581,
      "네이": 5582,
      "임대": 5583,
      "확정": 5584,
      "국토": 5585,
      "겠다는": 5586,
      "운용": 5587,
      "플레이": 5588,
      "독일": 5589,
      "선발": 5590,
      "비해": 5591,
      "기업의": 5592,
      "수상": 5593,
      "혜택": 5594,
      "비롯해": 5595,
      "어린이": 5596,
      "조건": 5597,
      "or": 5598,
      "선고": 5599,
      "워크": 5600,
      "디지": 5601,
      "동의": 5602,
      "의회": 5603,
      "사전": 5604,
      "의견을": 5605,
      "않는다": 5606,
      "재정": 5607,
      "특검": 5608,
      "심사": 5609,
      "상이": 5610,
      "군사": 5611,
      "29일": 5612,
      "서울시": 5613,
      "마지막": 5614,
      "199": 5615,
      "유치": 5616,
      "배치": 5617,
      "법원": 5618,
      "31일": 5619,
      "페이스": 5620,
      "하겠다는": 5621,
      "회견": 5622,
      "여야": 5623,
      "자와": 5624,
      "자기": 5625,
      "세가": 5626,
      "그러면서": 5627,
      "부의": 5628,
      "노조": 5629,
      "전망이다": 5630,
      "33": 5631,
      "의원이": 5632,
      "매도": 5633,
      "미세": 5634,
      "전쟁": 5635,
      "45": 5636,
      "2018": 5637,
      "인수": 5638,
      "중요한": 5639,
      "너무": 5640,
      "광고": 5641,
      "부에": 5642,
      "인식": 5643,
      "없어": 5644,
      "량이": 5645,
      "수행": 5646,
      "르게": 5647,
      "자원": 5648,
      "경찰은": 5649,
      "창출": 5650,
      "제안": 5651,
      "디지털": 5652,
      "2만": 5653,
      "브리": 5654,
      "공감": 5655,
      "공모": 5656,
      "일리": 5657,
      "끌어": 5658,
      "보장": 5659,
      "관은": 5660,
      "시장에서": 5661,
      "부정": 5662,
      "하다고": 5663,
      "갔다": 5664,
      "정보를": 5665,
      "스터": 5666,
      "보이고": 5667,
      "나온다": 5668,
      "신용": 5669,
      "추천": 5670,
      "인한": 5671,
      "내용을": 5672,
      "자치": 5673,
      "않다": 5674,
      "머니": 5675,
      "표현": 5676,
      "37": 5677,
      "이재": 5678,
      "움이": 5679,
      "상담": 5680,
      "보기": 5681,
      "제대로": 5682,
      "말을": 5683,
      "억원으로": 5684,
      "정신": 5685,
      "명은": 5686,
      "등은": 5687,
      "달리": 5688,
      "야당": 5689,
      "as": 5690,
      "지로": 5691,
      "아울": 5692,
      "법무": 5693,
      "테이": 5694,
      "강력": 5695,
      "38": 5696,
      "시장은": 5697,
      "위원장은": 5698,
      "어나": 5699,
      "열고": 5700,
      "체육": 5701,
      "설계": 5702,
      "회에서": 5703,
      "누구": 5704,
      "롭게": 5705,
      "인구": 5706,
      "작성": 5707,
      "학과": 5708,
      "하겠다고": 5709,
      "베트": 5710,
      "대학교": 5711,
      "더라도": 5712,
      "1조": 5713,
      "사와": 5714,
      "김정은": 5715,
      "수원": 5716,
      "들에": 5717,
      "프트": 5718,
      "규모의": 5719,
      "기준으로": 5720,
      "스코": 5721,
      "소송": 5722,
      "반도체": 5723,
      "스토": 5724,
      "ns": 5725,
      "것이라는": 5726,
      "1차": 5727,
      "했을": 5728,
      "사드": 5729,
      "모습을": 5730,
      "기술을": 5731,
      "사로": 5732,
      "매매": 5733,
      "촉구": 5734,
      "중한": 5735,
      "린다": 5736,
      "스가": 5737,
      "위가": 5738,
      "서로": 5739,
      "프라": 5740,
      "투입": 5741,
      "뿐만": 5742,
      "정확": 5743,
      "대의": 5744,
      "활성화": 5745,
      "이들은": 5746,
      "측면": 5747,
      "차이": 5748,
      "이러": 5749,
      "충분": 5750,
      "상황에서": 5751,
      "헌법": 5752,
      "행을": 5753,
      "동시에": 5754,
      "2013년": 5755,
      "북한이": 5756,
      "베트남": 5757,
      "건물": 5758,
      "마케": 5759,
      "어려운": 5760,
      "결과를": 5761,
      "총선": 5762,
      "인권": 5763,
      "연금": 5764,
      "없었다": 5765,
      "줄어": 5766,
      "무엇": 5767,
      "차별": 5768,
      "재산": 5769,
      "자들은": 5770,
      "당선": 5771,
      "교수는": 5772,
      "mo": 5773,
      "규정": 5774,
      "사람이": 5775,
      "스의": 5776,
      "news": 5777,
      "같다": 5778,
      "지나": 5779,
      "여러분의": 5780,
      "행동": 5781,
      "됐습니다": 5782,
      "정규": 5783,
      "효율": 5784,
      "나선": 5785,
      "되며": 5786,
      "그래서": 5787,
      "to": 5788,
      "화학": 5789,
      "영상을": 5790,
      "음을": 5791,
      "임을": 5792,
      "회가": 5793,
      "탄핵": 5794,
      "주를": 5795,
      "출마": 5796,
      "대북": 5797,
      "못한": 5798,
      "시각": 5799,
      "겠습니다": 5800,
      "됩니다": 5801,
      "청구": 5802,
      "프로젝": 5803,
      "움직": 5804,
      "전통": 5805,
      "대체": 5806,
      "뉴욕": 5807,
      "수익률": 5808,
      "긴급": 5809,
      "39": 5810,
      "지분": 5811,
      "형태": 5812,
      "후보는": 5813,
      "청소년": 5814,
      "기구": 5815,
      "청은": 5816,
      "말씀": 5817,
      "소통": 5818,
      "운드": 5819,
      "미세먼": 5820,
      "사실상": 5821,
      "제보를": 5822,
      "회의에서": 5823,
      "변경": 5824,
      "내는": 5825,
      "지면서": 5826,
      "공시": 5827,
      "이른": 5828,
      "지원을": 5829,
      "이상의": 5830,
      "간담": 5831,
      "카오": 5832,
      "북미": 5833,
      "아울러": 5834,
      "환자": 5835,
      "있기": 5836,
      "리지": 5837,
      "이들": 5838,
      "고속": 5839,
      "ad": 5840,
      "인공지능": 5841,
      "장비": 5842,
      "있던": 5843,
      "전북": 5844,
      "여전히": 5845,
      "장으로": 5846,
      "밝혔습니다": 5847,
      "마케팅": 5848,
      "반응": 5849,
      "바람": 5850,
      "이번에": 5851,
      "알고": 5852,
      "분위": 5853,
      "통상": 5854,
      "월드": 5855,
      "불과": 5856,
      "신뢰": 5857,
      "만든": 5858,
      "3000": 5859,
      "만원을": 5860,
      "길을": 5861,
      "나왔다": 5862,
      "제품을": 5863,
      "벤처": 5864,
      "화재": 5865,
      "얼마": 5866,
      "플러스": 5867,
      "리에": 5868,
      "신한": 5869,
      "르고": 5870,
      "회원": 5871,
      "전반": 5872,
      "남성": 5873,
      "내놓": 5874,
      "점은": 5875,
      "테크": 5876,
      "10년": 5877,
      "기사": 5878,
      "회의를": 5879,
      "되었다": 5880,
      "우리는": 5881,
      "씨를": 5882,
      "검찰은": 5883,
      "4차": 5884,
      "바탕": 5885,
      "기다립니다": 5886,
      "우리가": 5887,
      "절차": 5888,
      "65": 5889,
      "료를": 5890,
      "의무": 5891,
      "시간을": 5892,
      "율이": 5893,
      "연구원은": 5894,
      "부장": 5895,
      "등급": 5896,
      "상황을": 5897,
      "연구소": 5898,
      "중에": 5899,
      "인으로": 5900,
      "세월": 5901,
      "주거": 5902,
      "발표했다": 5903,
      "연계": 5904,
      "사실을": 5905,
      "시장의": 5906,
      "모집": 5907,
      "48": 5908,
      "청문": 5909,
      "네트": 5910,
      "집행": 5911,
      "평창": 5912,
      "쉽게": 5913,
      "사법": 5914,
      "수의": 5915,
      "인력": 5916,
      "독자": 5917,
      "관이": 5918,
      "이벤트": 5919,
      "국회에서": 5920,
      "방침이다": 5921,
      "관에서": 5922,
      "오픈": 5923,
      "무료": 5924,
      "개를": 5925,
      "5g": 5926,
      "고민": 5927,
      "상공": 5928,
      "이러한": 5929,
      "보안": 5930,
      "가고": 5931,
      "법률": 5932,
      "유엔": 5933,
      "안타": 5934,
      "가량": 5935,
      "ro": 5936,
      "49": 5937,
      "이같이": 5938,
      "집계": 5939,
      "계열": 5940,
      "55": 5941,
      "비롯한": 5942,
      "그의": 5943,
      "정기": 5944,
      "아동": 5945,
      "행복": 5946,
      "었던": 5947,
      "화장": 5948,
      "맞아": 5949,
      "명에": 5950,
      "부와": 5951,
      "기여": 5952,
      "관을": 5953,
      "양국": 5954,
      "시간이": 5955,
      "시도": 5956,
      "상위": 5957,
      "애플": 5958,
      "페이스북": 5959,
      "출연": 5960,
      "처벌": 5961,
      "이유로": 5962,
      "프리미": 5963,
      "등학교": 5964,
      "2012년": 5965,
      "정도로": 5966,
      "실을": 5967,
      "보다는": 5968,
      "화된": 5969,
      "국립": 5970,
      "매년": 5971,
      "발사": 5972,
      "지켜": 5973,
      "30분": 5974,
      "프랑스": 5975,
      "자율": 5976,
      "시티": 5977,
      "추정": 5978,
      "bs": 5979,
      "둘러": 5980,
      "예상된다": 5981,
      "하겠습니다": 5982,
      "당이": 5983,
      "예비": 5984,
      "선물": 5985,
      "사상": 5986,
      "이루": 5987,
      "왼쪽": 5988,
      "액은": 5989,
      "나갈": 5990,
      "널드": 5991,
      "공원": 5992,
      "대는": 5993,
      "율은": 5994,
      "가진": 5995,
      "약속": 5996,
      "가정": 5997,
      "한화": 5998,
      "점으로": 5999,
      "비가": 6000,
      "교체": 6001,
      "봤다": 6002,
      "동물": 6003,
      "됐다고": 6004,
      "친구": 6005,
      "카카오": 6006,
      "필요하다": 6007,
      "32": 6008,
      "위의": 6009,
      "공무원": 6010,
      "가지고": 6011,
      "데일리": 6012,
      "준다": 6013,
      "확실": 6014,
      "백화": 6015,
      "마무리": 6016,
      "홍콩": 6017,
      "못했다": 6018,
      "실시간": 6019,
      "대통령과": 6020,
      "지금까지": 6021,
      "대변인은": 6022,
      "메시": 6023,
      "채널": 6024,
      "3개": 6025,
      "보니": 6026,
      "비핵": 6027,
      "바란": 6028,
      "자에": 6029,
      "47": 6030,
      "단은": 6031,
      "중국의": 6032,
      "소식": 6033,
      "혐의를": 6034,
      "완화": 6035,
      "비상": 6036,
      "위협": 6037,
      "시장에": 6038,
      "군은": 6039,
      "살펴": 6040,
      "관심이": 6041,
      "사에서": 6042,
      "음식": 6043,
      "개편": 6044,
      "뛰어": 6045,
      "부품": 6046,
      "kr": 6047,
      "이트": 6048,
      "충남": 6049,
      "역을": 6050,
      "보이는": 6051,
      "취임": 6052,
      "59": 6053,
      "판결": 6054,
      "도널드": 6055,
      "발생한": 6056,
      "특정": 6057,
      "ent": 6058,
      "심의": 6059,
      "독립": 6060,
      "대중": 6061,
      "마스크": 6062,
      "시청": 6063,
      "여의도": 6064,
      "로는": 6065,
      "안이": 6066,
      "31": 6067,
      "ec": 6068,
      "연구원": 6069,
      "수밖에": 6070,
      "작용": 6071,
      "신종": 6072,
      "해석": 6073,
      "관심을": 6074,
      "기초": 6075,
      "내가": 6076,
      "응답": 6077,
      "단을": 6078,
      "음악": 6079,
      "량은": 6080,
      "주주": 6081,
      "동기": 6082,
      "지시": 6083,
      "으로는": 6084,
      "처음으로": 6085,
      "스스로": 6086,
      "파크": 6087,
      "공장": 6088,
      "특수": 6089,
      "보도했다": 6090,
      "니스": 6091,
      "채권": 6092,
      "구청": 6093,
      "겼다": 6094,
      "유명": 6095,
      "상대로": 6096,
      "히려": 6097,
      "수도권": 6098,
      "철수": 6099,
      "연장": 6100,
      "실에서": 6101,
      "건을": 6102,
      "시절": 6103,
      "결제": 6104,
      "전화": 6105,
      "스티": 6106,
      "심을": 6107,
      "바탕으로": 6108,
      "자에게": 6109,
      "실제로": 6110,
      "최순": 6111,
      "시켜": 6112,
      "당은": 6113,
      "46": 6114,
      "복합": 6115,
      "평양": 6116,
      "올랐다": 6117,
      "봉사": 6118,
      "처분": 6119,
      "그대로": 6120,
      "보증": 6121,
      "열리는": 6122,
      "측이": 6123,
      "감이": 6124,
      "ion": 6125,
      "아무": 6126,
      "실험": 6127,
      "하우": 6128,
      "것에": 6129,
      "부인": 6130,
      "면적": 6131,
      "대우": 6132,
      "압박": 6133,
      "달성": 6134,
      "생명": 6135,
      "스럽": 6136,
      "겠다고": 6137,
      "시장이": 6138,
      "원칙": 6139,
      "주년": 6140,
      "부진": 6141,
      "벌어": 6142,
      "에어": 6143,
      "권한": 6144,
      "총리는": 6145,
      "낮은": 6146,
      "출발": 6147,
      "축제": 6148,
      "정책을": 6149,
      "재무": 6150,
      "오히려": 6151,
      "남아": 6152,
      "대규모": 6153,
      "계를": 6154,
      "자본": 6155,
      "기업이": 6156,
      "비슷": 6157,
      "축구": 6158,
      "점에": 6159,
      "수록": 6160,
      "지수": 6161,
      "세월호": 6162,
      "제약": 6163,
      "디오": 6164,
      "심각": 6165,
      "당의": 6166,
      "3만": 6167,
      "공약": 6168,
      "업을": 6169,
      "힘을": 6170,
      "최초로": 6171,
      "접근": 6172,
      "블록": 6173,
      "법을": 6174,
      "존재": 6175,
      "나와": 6176,
      "기부": 6177,
      "여름": 6178,
      "격을": 6179,
      "었고": 6180,
      "그렇게": 6181,
      "으로부터": 6182,
      "일은": 6183,
      "cc": 6184,
      "진흥": 6185,
      "인재": 6186,
      "스러": 6187,
      "했으나": 6188,
      "최순실": 6189,
      "2020년": 6190,
      "저는": 6191,
      "도의": 6192,
      "운전": 6193,
      "해소": 6194,
      "상의": 6195,
      "sns": 6196,
      "코스닥": 6197,
      "발표한": 6198,
      "시장을": 6199,
      "원하는": 6200,
      "프로젝트": 6201,
      "52": 6202,
      "원내대표": 6203,
      "가가": 6204,
      "부과": 6205,
      "발굴": 6206,
      "넘는": 6207,
      "새누리": 6208,
      "사과": 6209,
      "자녀": 6210,
      "재난": 6211,
      "출범": 6212,
      "조치를": 6213,
      "44": 6214,
      "내에": 6215,
      "그림": 6216,
      "출석": 6217,
      "회는": 6218,
      "코스피": 6219,
      "eu": 6220,
      "없다는": 6221,
      "다운": 6222,
      "미디어": 6223,
      "전력": 6224,
      "꾸준": 6225,
      "부처": 6226,
      "소프트": 6227,
      "회장이": 6228,
      "도와": 6229,
      "디스": 6230,
      "바란다": 6231,
      "만의": 6232,
      "상황이": 6233,
      "증거": 6234,
      "거부": 6235,
      "포함한": 6236,
      "밝혀": 6237,
      "성에": 6238,
      "물질": 6239,
      "잘못": 6240,
      "ot": 6241,
      "김영": 6242,
      "맞춰": 6243,
      "충북": 6244,
      "이야기": 6245,
      "검증": 6246,
      "연간": 6247,
      "회에": 6248,
      "주행": 6249,
      "홈페이지": 6250,
      "프리미엄": 6251,
      "현대차": 6252,
      "인프라": 6253,
      "많다": 6254,
      "우승": 6255,
      "네이버": 6256,
      "요금": 6257,
      "조원": 6258,
      "드시": 6259,
      "분명": 6260,
      "계획을": 6261,
      "국회의원": 6262,
      "나섰다": 6263,
      "주차": 6264,
      "지진": 6265,
      "news1": 6266,
      "살아": 6267,
      "텔레": 6268,
      "갤럭": 6269,
      "ip": 6270,
      "자세": 6271,
      "장애인": 6272,
      "긍정": 6273,
      "접수": 6274,
      "트리": 6275,
      "돈을": 6276,
      "75": 6277,
      "1인": 6278,
      "2019년": 6279,
      "매각": 6280,
      "폭력": 6281,
      "실질": 6282,
      "흐름": 6283,
      "지속적으로": 6284,
      "거의": 6285,
      "1억": 6286,
      "cj": 6287,
      "작은": 6288,
      "고위": 6289,
      "어제": 6290,
      "상반기": 6291,
      "관광객": 6292,
      "다면": 6293,
      "웨이": 6294,
      "열어": 6295,
      "지사": 6296,
      "라우": 6297,
      "품질": 6298,
      "임시": 6299,
      "아주": 6300,
      "못하고": 6301,
      "것입니다": 6302,
      "pc": 6303,
      "외부": 6304,
      "un": 6305,
      "1천": 6306,
      "갤럭시": 6307,
      "위원장이": 6308,
      "네트워크": 6309,
      "션을": 6310,
      "제공한다": 6311,
      "4개": 6312,
      "5개": 6313,
      "이스": 6314,
      "임명": 6315,
      "었습니다": 6316,
      "리스트": 6317,
      "지역의": 6318,
      "어요": 6319,
      "곳에": 6320,
      "완료": 6321,
      "교류": 6322,
      "는지": 6323,
      "문제는": 6324,
      "였던": 6325,
      "결혼": 6326,
      "한국의": 6327,
      "반발": 6328,
      "반드시": 6329,
      "이탈": 6330,
      "면서도": 6331,
      "논란이": 6332,
      "정규직": 6333,
      "미세먼지": 6334,
      "생각한다": 6335,
      "당부": 6336,
      "가상": 6337,
      "가스": 6338,
      "없다고": 6339,
      "맞춤": 6340,
      "방식으로": 6341,
      "웨어": 6342,
      "필요가": 6343,
      "들여": 6344,
      "징역": 6345,
      "약품": 6346,
      "인가": 6347,
      "비핵화": 6348,
      "수산": 6349,
      "지표": 6350,
      "들었다": 6351,
      "하반기": 6352,
      "전면": 6353,
      "물이": 6354,
      "으로써": 6355,
      "의사": 6356,
      "연기": 6357,
      "것과": 6358,
      "밝히": 6359,
      "률이": 6360,
      "졌습니다": 6361,
      "질환": 6362,
      "들고": 6363,
      "장관이": 6364,
      "후보가": 6365,
      "만족": 6366,
      "형사": 6367,
      "여기에": 6368,
      "이틀": 6369,
      "행사를": 6370,
      "증가했다": 6371,
      "건의": 6372,
      "농업": 6373,
      "나무": 6374,
      "소중한": 6375,
      "풀이": 6376,
      "드를": 6377,
      "인하": 6378,
      "등장": 6379,
      "직후": 6380,
      "구역": 6381,
      "페인": 6382,
      "때는": 6383,
      "마감": 6384,
      "프레": 6385,
      "6개월": 6386,
      "9시": 6387,
      "시대": 6388,
      "대기업": 6389,
      "포트": 6390,
      "기회를": 6391,
      "강한": 6392,
      "근거": 6393,
      "56": 6394,
      "주문": 6395,
      "밝힌": 6396,
      "역대": 6397,
      "골프": 6398,
      "조작": 6399,
      "신속": 6400,
      "특징": 6401,
      "젊은": 6402,
      "공직": 6403,
      "도움이": 6404,
      "의해": 6405,
      "돌파": 6406,
      "보고서": 6407,
      "능력": 6408,
      "바다": 6409,
      "변동": 6410,
      "기온": 6411,
      "거주": 6412,
      "이지": 6413,
      "방지": 6414,
      "로서": 6415,
      "되기": 6416,
      "철도": 6417,
      "가동": 6418,
      "84": 6419,
      "고도": 6420,
      "공업": 6421,
      "블랙": 6422,
      "한다면": 6423,
      "진을": 6424,
      "통계": 6425,
      "집단": 6426,
      "좋아": 6427,
      "웠다": 6428,
      "면세": 6429,
      "조국": 6430,
      "부회장": 6431,
      "기상": 6432,
      "im": 6433,
      "수용": 6434,
      "율을": 6435,
      "우려가": 6436,
      "위치한": 6437,
      "분이": 6438,
      "전자는": 6439,
      "매체": 6440,
      "하였다": 6441,
      "재생": 6442,
      "화제": 6443,
      "신설": 6444,
      "관계를": 6445,
      "사람들이": 6446,
      "크로": 6447,
      "허용": 6448,
      "위해서": 6449,
      "바른정당": 6450,
      "거래소": 6451,
      "정비": 6452,
      "입주": 6453,
      "아버": 6454,
      "아니냐": 6455,
      "수술": 6456,
      "지자체": 6457,
      "방역": 6458,
      "학습": 6459,
      "브리핑": 6460,
      "생태": 6461,
      "198": 6462,
      "이로": 6463,
      "57": 6464,
      "전해졌다": 6465,
      "안내": 6466,
      "단순": 6467,
      "관계자": 6468,
      "회계": 6469,
      "취소": 6470,
      "gs": 6471,
      "비난": 6472,
      "육성": 6473,
      "등과": 6474,
      "전혀": 6475,
      "최저임금": 6476,
      "400": 6477,
      "진술": 6478,
      "기의": 6479,
      "위안": 6480,
      "여부를": 6481,
      "실패": 6482,
      "부채": 6483,
      "당한": 6484,
      "당을": 6485,
      "얘기": 6486,
      "10시": 6487,
      "정한": 6488,
      "받지": 6489,
      "특허": 6490,
      "스타트": 6491,
      "가져": 6492,
      "늘었다": 6493,
      "계약을": 6494,
      "투자증권": 6495,
      "유의": 6496,
      "입을": 6497,
      "커피": 6498,
      "화가": 6499,
      "시스템을": 6500,
      "목적": 6501,
      "사장은": 6502,
      "2011년": 6503,
      "이용해": 6504,
      "사이트": 6505,
      "일으": 6506,
      "su": 6507,
      "피해를": 6508,
      "단이": 6509,
      "대행": 6510,
      "the": 6511,
      "아침": 6512,
      "나고": 6513,
      "원내대표는": 6514,
      "아마": 6515,
      "불가": 6516,
      "대사": 6517,
      "김현": 6518,
      "이지만": 6519,
      "자료를": 6520,
      "불편": 6521,
      "58": 6522,
      "로봇": 6523,
      "임직원": 6524,
      "지키": 6525,
      "적절": 6526,
      "위해서는": 6527,
      "자격": 6528,
      "유가": 6529,
      "지의": 6530,
      "경고": 6531,
      "인기": 6532,
      "파이": 6533,
      "동원": 6534,
      "됐고": 6535,
      "os": 6536,
      "상에": 6537,
      "일단": 6538,
      "리기": 6539,
      "지검": 6540,
      "폭행": 6541,
      "혁명": 6542,
      "아래": 6543,
      "적극적으로": 6544,
      "화폐": 6545,
      "곳에서": 6546,
      "취재": 6547,
      "리즈": 6548,
      "a씨는": 6549,
      "포르": 6550,
      "99": 6551,
      "2019": 6552,
      "이행": 6553,
      "서울중앙": 6554,
      "추가로": 6555,
      "발행": 6556,
      "솔루": 6557,
      "트로": 6558,
      "정이": 6559,
      "외에도": 6560,
      "정치적": 6561,
      "bm": 6562,
      "하려는": 6563,
      "정말": 6564,
      "점수": 6565,
      "지수는": 6566,
      "과정을": 6567,
      "ed": 6568,
      "형을": 6569,
      "이슈": 6570,
      "앞에서": 6571,
      "등에서": 6572,
      "제공하는": 6573,
      "실현": 6574,
      "군의": 6575,
      "성과를": 6576,
      "함을": 6577,
      "상품을": 6578,
      "여기": 6579,
      "주제로": 6580,
      "es": 6581,
      "장소": 6582,
      "학년": 6583,
      "스와": 6584,
      "사에": 6585,
      "포항": 6586,
      "무기": 6587,
      "시작했다": 6588,
      "제2": 6589,
      "자리를": 6590,
      "률은": 6591,
      "el": 6592,
      "하라": 6593,
      "앞으로도": 6594,
      "상호": 6595,
      "평가를": 6596,
      "지역에": 6597,
      "증가한": 6598,
      "선임": 6599,
      "1위": 6600,
      "절반": 6601,
      "ac": 6602,
      "이데일리": 6603,
      "으로서": 6604,
      "구를": 6605,
      "돼야": 6606,
      "입국": 6607,
      "여자": 6608,
      "구하고": 6609,
      "사업에": 6610,
      "유일": 6611,
      "km": 6612,
      "전일": 6613,
      "일보": 6614,
      "실무": 6615,
      "청약": 6616,
      "대기": 6617,
      "브라": 6618,
      "과제": 6619,
      "노선": 6620,
      "카메": 6621,
      "bi": 6622,
      "창원": 6623,
      "백화점": 6624,
      "비즈": 6625,
      "진행한다": 6626,
      "고발": 6627,
      "완성": 6628,
      "단독": 6629,
      "도전": 6630,
      "et": 6631,
      "겨울": 6632,
      "불안": 6633,
      "이드": 6634,
      "손해": 6635,
      "피스": 6636,
      "철저": 6637,
      "혜택을": 6638,
      "효과를": 6639,
      "팀은": 6640,
      "구간": 6641,
      "%,": 6642,
      "행위": 6643,
      "조기": 6644,
      "기능을": 6645,
      "케어": 6646,
      "ing": 6647,
      "걸쳐": 6648,
      "2010": 6649,
      "만한": 6650,
      "두산": 6651,
      "포럼": 6652,
      "택시": 6653,
      "파트너": 6654,
      "대해서도": 6655,
      "가로": 6656,
      "해왔다": 6657,
      "지상": 6658,
      "포함해": 6659,
      "개발한": 6660,
      "주력": 6661,
      "추세": 6662,
      "높다": 6663,
      "내에서": 6664,
      "표준": 6665,
      "나오고": 6666,
      "개국": 6667,
      "가맹": 6668,
      "친환경": 6669,
      "위원회는": 6670,
      "취약": 6671,
      "이야기를": 6672,
      "아가": 6673,
      "은행은": 6674,
      "66": 6675,
      "수사를": 6676,
      "가능성을": 6677,
      "시키는": 6678,
      "참석한": 6679,
      "성능": 6680,
      "체인": 6681,
      "배경": 6682,
      "시작으로": 6683,
      "등도": 6684,
      "기기": 6685,
      "도착": 6686,
      "경찰에": 6687,
      "부상": 6688,
      "마크": 6689,
      "카페": 6690,
      "승리": 6691,
      "초청": 6692,
      "극복": 6693,
      "률을": 6694,
      "1분기": 6695,
      "주석": 6696,
      "am": 6697,
      "수립": 6698,
      "수급": 6699,
      "차가": 6700,
      "농협": 6701,
      "안철수": 6702,
      "기억": 6703,
      "답변": 6704,
      "로드": 6705,
      "늘어난": 6706,
      "총장": 6707,
      "책임을": 6708,
      "과학기술": 6709,
      "시켰": 6710,
      "품을": 6711,
      "졸업": 6712,
      "빠르게": 6713,
      "많아": 6714,
      "명령": 6715,
      "담은": 6716,
      "누적": 6717,
      "연설": 6718,
      "비행": 6719,
      "곳이": 6720,
      "내린": 6721,
      "개헌": 6722,
      "명예": 6723,
      "구는": 6724,
      "42": 6725,
      "의심": 6726,
      "접촉": 6727,
      "겁니다": 6728,
      "셈이다": 6729,
      "강제": 6730,
      "통일": 6731,
      "공천": 6732,
      "타임": 6733,
      "속에": 6734,
      "사실이": 6735,
      "노인": 6736,
      "맞는": 6737,
      "성적": 6738,
      "선박": 6739,
      "만을": 6740,
      "소유": 6741,
      "동반": 6742,
      "코로나바이러스": 6743,
      "신경": 6744,
      "도서": 6745,
      "미국이": 6746,
      "에게는": 6747,
      "법안": 6748,
      "활용해": 6749,
      "씨와": 6750,
      "우는": 6751,
      "동해": 6752,
      "대에서": 6753,
      "기금": 6754,
      "쏟아": 6755,
      "동일": 6756,
      "기계": 6757,
      "어디": 6758,
      "시리즈": 6759,
      "관련한": 6760,
      "oc": 6761,
      "68": 6762,
      "시기": 6763,
      "새로": 6764,
      "거듭": 6765,
      "요일": 6766,
      "구글": 6767,
      "자문": 6768,
      "으니": 6769,
      "오프": 6770,
      "언제": 6771,
      "지역에서": 6772,
      "말까지": 6773,
      "150": 6774,
      "고양": 6775,
      "나머": 6776,
      "43": 6777,
      "주기": 6778,
      "원전": 6779,
      "회견을": 6780,
      "효과가": 6781,
      "자신이": 6782,
      "인물": 6783,
      "일어": 6784,
      "고속도로": 6785,
      "면을": 6786,
      "가의": 6787,
      "직장": 6788,
      "김성": 6789,
      "정해": 6790,
      "예약": 6791,
      "텔레콤": 6792,
      "다음달": 6793,
      "성향": 6794,
      "당초": 6795,
      "다르": 6796,
      "확인할": 6797,
      "프로그램을": 6798,
      "뱅크": 6799,
      "순매수": 6800,
      "적이고": 6801,
      "법정": 6802,
      "확장": 6803,
      "해운": 6804,
      "교육을": 6805,
      "경찰청": 6806,
      "가격이": 6807,
      "만드는": 6808,
      "상임": 6809,
      "테러": 6810,
      "20대": 6811,
      "예측": 6812,
      "심리": 6813,
      "봐야": 6814,
      "ft": 6815,
      "카메라": 6816,
      "즐길": 6817,
      "거래일": 6818,
      "2016": 6819,
      "관련된": 6820,
      "사퇴": 6821,
      "투명": 6822,
      "67": 6823,
      "축소": 6824,
      "감안": 6825,
      "바른미래": 6826,
      "4000": 6827,
      "개입": 6828,
      "억원의": 6829,
      "na": 6830,
      "에이": 6831,
      "꾸준히": 6832,
      "강력한": 6833,
      "상황이다": 6834,
      "습니까": 6835,
      "으면서": 6836,
      "얼굴": 6837,
      "세로": 6838,
      "3개월": 6839,
      "패션": 6840,
      "소상공": 6841,
      "전주": 6842,
      "사라": 6843,
      "id": 6844,
      "고를": 6845,
      "제1": 6846,
      "2010년": 6847,
      "가치를": 6848,
      "식으로": 6849,
      "유리": 6850,
      "2개": 6851,
      "첨단": 6852,
      "종로": 6853,
      "의혹을": 6854,
      "배출": 6855,
      "인과": 6856,
      "말이": 6857,
      "경쟁력": 6858,
      "사람은": 6859,
      "에만": 6860,
      "초기": 6861,
      "연휴": 6862,
      "주시면": 6863,
      "형성": 6864,
      "방문해": 6865,
      "서초": 6866,
      "이른바": 6867,
      "캠프": 6868,
      "스타트업": 6869,
      "매장": 6870,
      "4만": 6871,
      "다소": 6872,
      "5만": 6873,
      "받습니다": 6874,
      "합병": 6875,
      "led": 6876,
      "지와": 6877,
      "매출액": 6878,
      "공화": 6879,
      "최고위원": 6880,
      "당국은": 6881,
      "차단": 6882,
      "진행된다": 6883,
      "리더": 6884,
      "아베": 6885,
      "77": 6886,
      "구입": 6887,
      "감염증": 6888,
      "공공기관": 6889,
      "영장": 6890,
      "진입": 6891,
      "펼쳐": 6892,
      "의결": 6893,
      "지주": 6894,
      "수준으로": 6895,
      "거론": 6896,
      "새롭게": 6897,
      "부여": 6898,
      "뜻을": 6899,
      "받는다": 6900,
      "어를": 6901,
      "ia": 6902,
      "db": 6903,
      "답했다": 6904,
      "기반으로": 6905,
      "총괄": 6906,
      "la": 6907,
      "경선": 6908,
      "성남": 6909,
      "굉장": 6910,
      "크다": 6911,
      "운영하는": 6912,
      "사진을": 6913,
      "체제": 6914,
      "스러운": 6915,
      "였습니다": 6916,
      "시킨": 6917,
      "후보자": 6918,
      "질문에": 6919,
      "불구하고": 6920,
      "구체적인": 6921,
      "지배": 6922,
      "라스": 6923,
      "조를": 6924,
      "nh": 6925,
      "동아": 6926,
      "도에": 6927,
      "미국과": 6928,
      "태양": 6929,
      "사인": 6930,
      "얼마나": 6931,
      "사업은": 6932,
      "가계": 6933,
      "별로는": 6934,
      "작업을": 6935,
      "나왔": 6936,
      "타고": 6937,
      "싱턴": 6938,
      "계층": 6939,
      "있어서": 6940,
      "어야": 6941,
      "호남": 6942,
      "알아": 6943,
      "선도": 6944,
      "터를": 6945,
      "캐릭": 6946,
      "실천": 6947,
      "41": 6948,
      "현황": 6949,
      "번호": 6950,
      "본다": 6951,
      "제일": 6952,
      "의를": 6953,
      "절차를": 6954,
      "없을": 6955,
      "야구": 6956,
      "보를": 6957,
      "마찬": 6958,
      "그린": 6959,
      "이끌": 6960,
      "관람": 6961,
      "교육청": 6962,
      "악화": 6963,
      "품목": 6964,
      "라면": 6965,
      "양성": 6966,
      "로를": 6967,
      "통제": 6968,
      "경우가": 6969,
      "판단되는": 6970,
      "계좌": 6971,
      "피해자": 6972,
      "자리에서": 6973,
      "주최": 6974,
      "됐던": 6975,
      "있지": 6976,
      "시범": 6977,
      "2천": 6978,
      "맞춤형": 6979,
      "드라": 6980,
      "군이": 6981,
      "sk텔레콤": 6982,
      "최선을": 6983,
      "한번": 6984,
      "동향": 6985,
      "방위": 6986,
      "빠른": 6987,
      "관세": 6988,
      "나이": 6989,
      "불러": 6990,
      "충분히": 6991,
      "검찰이": 6992,
      "금은": 6993,
      "합동": 6994,
      "미리": 6995,
      "허가": 6996,
      "ceo": 6997,
      "리오": 6998,
      "말했습니다": 6999,
      "감독은": 7000,
      "정치권": 7001,
      "중간": 7002,
      "pg": 7003,
      "공단": 7004,
      "된다고": 7005,
      "69": 7006,
      "새누리당": 7007,
      "노력을": 7008,
      "글을": 7009,
      "없고": 7010,
      "일본의": 7011,
      "잡고": 7012,
      "백악": 7013,
      "마찬가지": 7014,
      "속에서": 7015,
      "차원에서": 7016,
      "상생": 7017,
      "공감언론": 7018,
      "법무부": 7019,
      "ho": 7020,
      "탑재": 7021,
      "현장에서": 7022,
      "성은": 7023,
      "의한": 7024,
      "론을": 7025,
      "올리": 7026,
      "예고": 7027,
      "라우드": 7028,
      "니아": 7029,
      "투자를": 7030,
      "비판했다": 7031,
      "라운드": 7032,
      "트는": 7033,
      "기고": 7034,
      "오르": 7035,
      "굉장히": 7036,
      "선호": 7037,
      "세력": 7038,
      "기지": 7039,
      "제3": 7040,
      "영역": 7041,
      "정리": 7042,
      "활용한": 7043,
      "어려움을": 7044,
      "나오는": 7045,
      "사건을": 7046,
      "김종": 7047,
      "전이": 7048,
      "책을": 7049,
      "소환": 7050,
      "가치나": 7051,
      "실시간으로": 7052,
      "자이": 7053,
      "사진영상": 7054,
      "수로": 7055,
      "호소": 7056,
      "대책을": 7057,
      "눈에": 7058,
      "보내주시면": 7059,
      "길이": 7060,
      "워싱턴": 7061,
      "관측": 7062,
      "향해": 7063,
      "6000": 7064,
      "합리": 7065,
      "동맹": 7066,
      "화제성이": 7067,
      "정확한": 7068,
      "반영하겠습니다": 7069,
      "사진영상부": 7070,
      "제보받습니다": 7071,
      "53": 7072,
      "다이": 7073,
      "방어": 7074,
      "거든": 7075,
      "트위": 7076,
      "된다는": 7077,
      "올렸다": 7078,
      "가격은": 7079,
      "그가": 7080,
      "상은": 7081,
      "상태다": 7082,
      "수치": 7083,
      "있었던": 7084,
      "과도": 7085,
      "us": 7086,
      "중구": 7087,
      "결합": 7088,
      "최고의": 7089,
      "교사": 7090,
      "주말": 7091,
      "신임": 7092,
      "수요가": 7093,
      "보일": 7094,
      "변호사": 7095,
      "의약품": 7096,
      "사우": 7097,
      "국의": 7098,
      "이용할": 7099,
      "인간": 7100,
      "남부": 7101,
      "순간": 7102,
      "분석했다": 7103,
      "마켓": 7104,
      "커뮤": 7105,
      "만으로": 7106,
      "지식": 7107,
      "점유": 7108,
      "평소": 7109,
      "하고자": 7110,
      "600": 7111,
      "상대적으로": 7112,
      "신을": 7113,
      "지연": 7114,
      "폐쇄": 7115,
      "것처럼": 7116,
      "커뮤니": 7117,
      "정부와": 7118,
      "기아": 7119,
      "촛불": 7120,
      "54": 7121,
      "바뀌": 7122,
      "재개": 7123,
      "1명": 7124,
      "도움을": 7125,
      "상황에": 7126,
      "채택": 7127,
      "해상": 7128,
      "대폭": 7129,
      "직무": 7130,
      "였고": 7131,
      "클럽": 7132,
      "세포": 7133,
      "달라고": 7134,
      "티브": 7135,
      "안은": 7136,
      "어렵다": 7137,
      "급여": 7138,
      "내다": 7139,
      "올해는": 7140,
      "ma": 7141,
      "데이터를": 7142,
      "세워": 7143,
      "국토교통": 7144,
      "동계": 7145,
      "지법": 7146,
      "떨어진": 7147,
      "최신": 7148,
      "새벽": 7149,
      "유도": 7150,
      "3분기": 7151,
      "동을": 7152,
      "대리": 7153,
      "개별": 7154,
      "국내외": 7155,
      "체포": 7156,
      "슈퍼": 7157,
      "투자자": 7158,
      "화장품": 7159,
      "78": 7160,
      "검색": 7161,
      "수주": 7162,
      "현금": 7163,
      "적이다": 7164,
      "해온": 7165,
      "유출": 7166,
      "대법원": 7167,
      "거든요": 7168,
      "주재": 7169,
      "서울대": 7170,
      "대통령을": 7171,
      "운행": 7172,
      "결과가": 7173,
      "이명": 7174,
      "체를": 7175,
      "함으로써": 7176,
      "나누": 7177,
      "추경": 7178,
      "바꾸": 7179,
      "들어가": 7180,
      "이름을": 7181,
      "질병": 7182,
      "64": 7183,
      "세요": 7184,
      "않도록": 7185,
      "찾는": 7186,
      "오래": 7187,
      "발언을": 7188,
      "년대": 7189,
      "대법": 7190,
      "나머지": 7191,
      "증시": 7192,
      "해주": 7193,
      "출산": 7194,
      "모아": 7195,
      "바라": 7196,
      "비례": 7197,
      "관객": 7198,
      "려는": 7199,
      "비슷한": 7200,
      "급증": 7201,
      "51": 7202,
      "드리": 7203,
      "등이다": 7204,
      "손을": 7205,
      "스피": 7206,
      "원인": 7207,
      "오피스": 7208,
      "8000": 7209,
      "팀이": 7210,
      "분류": 7211,
      "성장을": 7212,
      "석유": 7213,
      "6개": 7214,
      "내용이": 7215,
      "우고": 7216,
      "곳은": 7217,
      "중공업": 7218,
      "싱가": 7219,
      "2008년": 7220,
      "터리": 7221,
      "목표로": 7222,
      "억달러": 7223,
      "종료": 7224,
      "분을": 7225,
      "사용할": 7226,
      "해를": 7227,
      "원과": 7228,
      "저희": 7229,
      "쉽지": 7230,
      "집을": 7231,
      "외에": 7232,
      "보통": 7233,
      "달하는": 7234,
      "모양": 7235,
      "장치": 7236,
      "초반": 7237,
      "빨리": 7238,
      "폭발": 7239,
      "따라서": 7240,
      "기와": 7241,
      "지출": 7242,
      "만이": 7243,
      "2시": 7244,
      "여명이": 7245,
      "앞에": 7246,
      "kbs": 7247,
      "진이": 7248,
      "레스": 7249,
      "협정": 7250,
      "고령": 7251,
      "주간": 7252,
      "포스코": 7253,
      "우리의": 7254,
      "시작한": 7255,
      "상무": 7256,
      "원장": 7257,
      "컴퓨": 7258,
      "이같은": 7259,
      "자주": 7260,
      "전기차": 7261,
      "주관": 7262,
      "다니": 7263,
      "정보통신": 7264,
      "에서의": 7265,
      "기울": 7266,
      "미술": 7267,
      "4분기": 7268,
      "유로": 7269,
      "이탈리아": 7270,
      "매일": 7271,
      "폐지": 7272,
      "노무": 7273,
      "개방": 7274,
      "않으면": 7275,
      "향상": 7276,
      "보복": 7277,
      "화에": 7278,
      "이어서": 7279,
      "비대": 7280,
      "한정": 7281,
      "질의": 7282,
      "남은": 7283,
      "세트": 7284,
      "전형": 7285,
      "전투": 7286,
      "도심": 7287,
      "물류": 7288,
      "투어": 7289,
      "도발": 7290,
      "지하철": 7291,
      "분쟁": 7292,
      "보상": 7293,
      "설정": 7294,
      "지원하는": 7295,
      "지면": 7296,
      "복귀": 7297,
      "단의": 7298,
      "므로": 7299,
      "외교부": 7300,
      "센터에서": 7301,
      "후원": 7302,
      "노트": 7303,
      "들로": 7304,
      "서류": 7305,
      "연대": 7306,
      "실장": 7307,
      "디스플레이": 7308,
      "구성된": 7309,
      "높이": 7310,
      "7000": 7311,
      "대표의": 7312,
      "컨설": 7313,
      "권력": 7314,
      "갖춘": 7315,
      "유니": 7316,
      "추석": 7317,
      "연방": 7318,
      "업무를": 7319,
      "mm": 7320,
      "초과": 7321,
      "인용": 7322,
      "까지는": 7323,
      "선이": 7324,
      "못하는": 7325,
      "보유한": 7326,
      "재건축": 7327,
      "시킬": 7328,
      "88": 7329,
      "피의": 7330,
      "나눔": 7331,
      "모니": 7332,
      "전한": 7333,
      "아름": 7334,
      "폐기": 7335,
      "보좌": 7336,
      "수준의": 7337,
      "려고": 7338,
      "지방선거": 7339,
      "충돌": 7340,
      "순환": 7341,
      "의지를": 7342,
      "분리": 7343,
      "좋다": 7344,
      "싶다": 7345,
      "금융투자": 7346,
      "만난": 7347,
      "이정": 7348,
      "간다": 7349,
      "명과": 7350,
      "당부했다": 7351,
      "청주": 7352,
      "순위": 7353,
      "개막": 7354,
      "아요": 7355,
      "배당": 7356,
      "협력을": 7357,
      "포기": 7358,
      "건이": 7359,
      "곳을": 7360,
      "이유는": 7361,
      "만원으로": 7362,
      "걱정": 7363,
      "ib": 7364,
      "신세계": 7365,
      "필수": 7366,
      "가까운": 7367,
      "반복": 7368,
      "융합": 7369,
      "리어": 7370,
      "대학생": 7371,
      "조달": 7372,
      "편리": 7373,
      "이루어": 7374,
      "민주주의": 7375,
      "조차": 7376,
      "완전히": 7377,
      "었지만": 7378,
      "2009년": 7379,
      "계산": 7380,
      "설비": 7381,
      "오른쪽": 7382,
      "진료": 7383,
      "비아": 7384,
      "음성": 7385,
      "단기": 7386,
      "고가": 7387,
      "점도": 7388,
      "트렌": 7389,
      "제외한": 7390,
      "5천": 7391,
      "결정을": 7392,
      "나올": 7393,
      "이사회": 7394,
      "연락": 7395,
      "결의": 7396,
      "줬다": 7397,
      "연령": 7398,
      "시설을": 7399,
      "측면에서": 7400,
      "강경": 7401,
      "내일": 7402,
      "싱가포르": 7403,
      "진행된": 7404,
      "단속": 7405,
      "79": 7406,
      "이들이": 7407,
      "만약": 7408,
      "집계됐다": 7409,
      "기관은": 7410,
      "종의": 7411,
      "신도시": 7412,
      "고려해": 7413,
      "현행": 7414,
      "어도": 7415,
      "소가": 7416,
      "업계에": 7417,
      "분께": 7418,
      "목소리를": 7419,
      "인들이": 7420,
      "문의": 7421,
      "여론조사": 7422,
      "솔루션": 7423,
      "손실": 7424,
      "한일": 7425,
      "과는": 7426,
      "협약을": 7427,
      "홍준": 7428,
      "도쿄": 7429,
      "2분기": 7430,
      "부터는": 7431,
      "매입": 7432,
      "식이": 7433,
      "기록하며": 7434,
      "경기를": 7435,
      "법에": 7436,
      "fa": 7437,
      "참석해": 7438,
      "표를": 7439,
      "판사": 7440,
      "의원의": 7441,
      "차는": 7442,
      "에스": 7443,
      "국회의": 7444,
      "격리": 7445,
      "전에서": 7446,
      "비중이": 7447,
      "인기를": 7448,
      "여부": 7449,
      "분야에서": 7450,
      "치지": 7451,
      "구현": 7452,
      "달아": 7453,
      "진행하고": 7454,
      "기회": 7455,
      "느끼": 7456,
      "사이에": 7457,
      "가까이": 7458,
      "단일": 7459,
      "메뉴": 7460,
      "di": 7461,
      "이상이": 7462,
      "훼손": 7463,
      "일에": 7464,
      "클래": 7465,
      "ch": 7466,
      "63": 7467,
      "비즈니스": 7468,
      "나눠": 7469,
      "비리": 7470,
      "간편": 7471,
      "경찰이": 7472,
      "중국이": 7473,
      "김동": 7474,
      "유사": 7475,
      "거운": 7476,
      "는데요": 7477,
      "진은": 7478,
      "올린": 7479,
      "뇌물": 7480,
      "계기로": 7481,
      "일각": 7482,
      "데다": 7483,
      "방해": 7484,
      "자랑": 7485,
      "오염": 7486,
      "점이다": 7487,
      "원자": 7488,
      "임상": 7489,
      "당장": 7490,
      "em": 7491,
      "강원도": 7492,
      "이게": 7493,
      "것이란": 7494,
      "됐다는": 7495,
      "제거": 7496,
      "마음을": 7497,
      "씨에게": 7498,
      "검찰에": 7499,
      "적은": 7500,
      "문제에": 7501,
      "11시": 7502,
      "유기": 7503,
      "피부": 7504,
      "85": 7505,
      "테마": 7506,
      "표시": 7507,
      "국방부": 7508,
      "10만": 7509,
      "비는": 7510,
      "점포": 7511,
      "클라우드": 7512,
      "증을": 7513,
      "적발": 7514,
      "말로": 7515,
      "물러": 7516,
      "스카": 7517,
      "법적": 7518,
      "축산": 7519,
      "가능성도": 7520,
      "승인": 7521,
      "사령": 7522,
      "배제": 7523,
      "파견": 7524,
      "했기": 7525,
      "초등학교": 7526,
      "영어": 7527,
      "홈런": 7528,
      "95": 7529,
      "수수료": 7530,
      "현재까지": 7531,
      "끝에": 7532,
      "목을": 7533,
      "저녁": 7534,
      "상승했다": 7535,
      "지휘": 7536,
      "취득": 7537,
      "중요하다": 7538,
      "캐릭터": 7539,
      "년간": 7540,
      "설명이다": 7541,
      "쪽으로": 7542,
      "홍준표": 7543,
      "총리가": 7544,
      "지인": 7545,
      "았던": 7546,
      "사고가": 7547,
      "회장의": 7548,
      "lo": 7549,
      "미국은": 7550,
      "검사를": 7551,
      "누구나": 7552,
      "이었던": 7553,
      "61": 7554,
      "부담을": 7555,
      "필리": 7556,
      "리의": 7557,
      "인터뷰에서": 7558,
      "환경을": 7559,
      "집회": 7560,
      "직을": 7561,
      "최대한": 7562,
      "희생": 7563,
      "정의당": 7564,
      "규모로": 7565,
      "지어": 7566,
      "판을": 7567,
      "질을": 7568,
      "제조업": 7569,
      "기대한다": 7570,
      "변화를": 7571,
      "2조": 7572,
      "지사는": 7573,
      "북한은": 7574,
      "가전": 7575,
      "감시": 7576,
      "지금은": 7577,
      "훨씬": 7578,
      "적극적인": 7579,
      "호선": 7580,
      "먼트": 7581,
      "있다며": 7582,
      "프리카": 7583,
      "베이징": 7584,
      "당연": 7585,
      "우주": 7586,
      "대표적인": 7587,
      "실업": 7588,
      "연출": 7589,
      "사회의": 7590,
      "게시": 7591,
      "수수색": 7592,
      "상업": 7593,
      "신호": 7594,
      "압수수색": 7595,
      "민정": 7596,
      "후반": 7597,
      "fc": 7598,
      "황교": 7599,
      "이처럼": 7600,
      "바른미래당": 7601,
      "수정": 7602,
      "빠져": 7603,
      "면접": 7604,
      "72": 7605,
      "본격적인": 7606,
      "낮아": 7607,
      "사업이": 7608,
      "아내": 7609,
      "이라도": 7610,
      "균형": 7611,
      "보가": 7612,
      "매력": 7613,
      "당일": 7614,
      "기사는": 7615,
      "시위": 7616,
      "평가했다": 7617,
      "공을": 7618,
      "전문가들은": 7619,
      "절대": 7620,
      "아야": 7621,
      "동부": 7622,
      "금이": 7623,
      "화성": 7624,
      "선진": 7625,
      "힘들": 7626,
      "상징": 7627,
      "여당": 7628,
      "내용의": 7629,
      "알려진": 7630,
      "yt": 7631,
      "6시": 7632,
      "제도를": 7633,
      "문이": 7634,
      "경쟁력을": 7635,
      "블루": 7636,
      "어머니": 7637,
      "기업에": 7638,
      "모르": 7639,
      "유해": 7640,
      "진영": 7641,
      "컨설팅": 7642,
      "문학": 7643,
      "최소화": 7644,
      "타워": 7645,
      "많았다": 7646,
      "아이디어": 7647,
      "타이": 7648,
      "3천": 7649,
      "타이어": 7650,
      "기획재": 7651,
      "화면": 7652,
      "계가": 7653,
      "상당히": 7654,
      "지니": 7655,
      "만달러": 7656,
      "싶은": 7657,
      "직전": 7658,
      "기록한": 7659,
      "키로": 7660,
      "내용은": 7661,
      "협업": 7662,
      "전세": 7663,
      "자금을": 7664,
      "이어질": 7665,
      "하더라도": 7666,
      "히는": 7667,
      "겠지만": 7668,
      "ict": 7669,
      "승객": 7670,
      "사업의": 7671,
      "지역을": 7672,
      "김태": 7673,
      "순이익": 7674,
      "앞둔": 7675,
      "mbc": 7676,
      "구가": 7677,
      "작가": 7678,
      "9000": 7679,
      "나의": 7680,
      "ms": 7681,
      "직업": 7682,
      "활약": 7683,
      "진보": 7684,
      "고급": 7685,
      "건으로": 7686,
      "서에": 7687,
      "이미지": 7688,
      "받게": 7689,
      "강릉": 7690,
      "찬성": 7691,
      "크리스": 7692,
      "활발": 7693,
      "리티": 7694,
      "때까지": 7695,
      "유입": 7696,
      "허위": 7697,
      "ps": 7698,
      "노출": 7699,
      "구에": 7700,
      "갖추": 7701,
      "명확": 7702,
      "패키": 7703,
      "재판부는": 7704,
      "기준을": 7705,
      "치열": 7706,
      "확인됐다": 7707,
      "다수": 7708,
      "하늘": 7709,
      "제는": 7710,
      "황교안": 7711,
      "돌려": 7712,
      "아이폰": 7713,
      "유동": 7714,
      "사기": 7715,
      "선의": 7716,
      "오랜": 7717,
      "유튜": 7718,
      "이끌어": 7719,
      "전략을": 7720,
      "공기": 7721,
      "김경": 7722,
      "62": 7723,
      "유예": 7724,
      "권고": 7725,
      "자체가": 7726,
      "한진": 7727,
      "놀이": 7728,
      "호주": 7729,
      "까요": 7730,
      "스럽게": 7731,
      "수소": 7732,
      "불확실": 7733,
      "분간": 7734,
      "중심의": 7735,
      "흔들": 7736,
      "자료사진": 7737,
      "vr": 7738,
      "건립": 7739,
      "기업을": 7740,
      "소에서": 7741,
      "산업혁명": 7742,
      "연구개발": 7743,
      "기대된다": 7744,
      "생각이": 7745,
      "소화": 7746,
      "콘서": 7747,
      "측의": 7748,
      "전망했다": 7749,
      "이던": 7750,
      "면세점": 7751,
      "치료를": 7752,
      "침해": 7753,
      "저축": 7754,
      "지에서": 7755,
      "cn": 7756,
      "사이버": 7757,
      "트랙": 7758,
      "풍부": 7759,
      "북핵": 7760,
      "관의": 7761,
      "혔다": 7762,
      "규모는": 7763,
      "경기에서": 7764,
      "학부모": 7765,
      "권에": 7766,
      "삼성전자는": 7767,
      "노후": 7768,
      "기재": 7769,
      "역량": 7770,
      "감정": 7771,
      "가을": 7772,
      "모니터": 7773,
      "1개": 7774,
      "만들기": 7775,
      "차지했다": 7776,
      "심각한": 7777,
      "방을": 7778,
      "종목의": 7779,
      "800": 7780,
      "넘게": 7781,
      "리스크": 7782,
      "남자": 7783,
      "대만": 7784,
      "열린다": 7785,
      "피해가": 7786,
      "이라면": 7787,
      "은행이": 7788,
      "나설": 7789,
      "저렴": 7790,
      "담보": 7791,
      "기타": 7792,
      "경험을": 7793,
      "역량을": 7794,
      "인민": 7795,
      "1심": 7796,
      "정지": 7797,
      "참석했다": 7798,
      "급등": 7799,
      "입찰": 7800,
      "자회사": 7801,
      "선출": 7802,
      "합격": 7803,
      "산업의": 7804,
      "드로": 7805,
      "순매도": 7806,
      "소리": 7807,
      "민족": 7808,
      "입법": 7809,
      "줄었다": 7810,
      "됐지만": 7811,
      "아니냐는": 7812,
      "유승": 7813,
      "상승한": 7814,
      "마친": 7815,
      "자세한": 7816,
      "스에서": 7817,
      "보완": 7818,
      "상환": 7819,
      "1위를": 7820,
      "네시아": 7821,
      "보입니다": 7822,
      "89": 7823,
      "fo": 7824,
      "생각을": 7825,
      "공개했다": 7826,
      "감소했다": 7827,
      "관계가": 7828,
      "iot": 7829,
      "차기": 7830,
      "2억": 7831,
      "적합": 7832,
      "벗어나": 7833,
      "197": 7834,
      "우수한": 7835,
      "비전": 7836,
      "유권": 7837,
      "나다": 7838,
      "참여한": 7839,
      "구의": 7840,
      "국민이": 7841,
      "상으로": 7842,
      "대화를": 7843,
      "시키고": 7844,
      "담배": 7845,
      "화물": 7846,
      "시켰다": 7847,
      "았고": 7848,
      "모임": 7849,
      "되자": 7850,
      "교환": 7851,
      "내렸다": 7852,
      "드라마": 7853,
      "탄도": 7854,
      "특별한": 7855,
      "블록체인": 7856,
      "일제": 7857,
      "스타일": 7858,
      "하락했다": 7859,
      "수준이다": 7860,
      "고등학교": 7861,
      "더해": 7862,
      "3차": 7863,
      "바닥": 7864,
      "위원회가": 7865,
      "부총리": 7866,
      "미니": 7867,
      "산림": 7868,
      "태풍": 7869,
      "소상공인": 7870,
      "트위터": 7871,
      "인도네시아": 7872,
      "규모가": 7873,
      "소형": 7874,
      "발전을": 7875,
      "화문": 7876,
      "이명박": 7877,
      "지속적인": 7878,
      "착수": 7879,
      "시트": 7880,
      "임원": 7881,
      "종사": 7882,
      "능력을": 7883,
      "란드": 7884,
      "개념": 7885,
      "위에서": 7886,
      "6만": 7887,
      "자율주행": 7888,
      "전담": 7889,
      "퇴직": 7890,
      "든지": 7891,
      "고소": 7892,
      "총재": 7893,
      "기관이": 7894,
      "인사를": 7895,
      "농가": 7896,
      "시코": 7897,
      "광역": 7898,
      "lg전자": 7899,
      "은행의": 7900,
      "안에서": 7901,
      "아르": 7902,
      "700": 7903,
      "af": 7904,
      "정체": 7905,
      "메시지를": 7906,
      "거래를": 7907,
      "그리": 7908,
      "and": 7909,
      "디아": 7910,
      "나타냈다": 7911,
      "배상": 7912,
      "이내": 7913,
      "데요": 7914,
      "비트": 7915,
      "안팎": 7916,
      "부분이": 7917,
      "호흡": 7918,
      "올려": 7919,
      "이사장": 7920,
      "시의": 7921,
      "지게": 7922,
      "근로자": 7923,
      "결과에": 7924,
      "한국은": 7925,
      "그룹은": 7926,
      "소에": 7927,
      "노래": 7928,
      "2007년": 7929,
      "관에": 7930,
      "식당": 7931,
      "중국은": 7932,
      "일대": 7933,
      "위원회를": 7934,
      "시사": 7935,
      "하나로": 7936,
      "박람": 7937,
      "느낌": 7938,
      "수준을": 7939,
      "테스트": 7940,
      "하면서도": 7941,
      "공헌": 7942,
      "처를": 7943,
      "아쉬": 7944,
      "기업으로": 7945,
      "2명": 7946,
      "열었다": 7947,
      "se": 7948,
      "대해선": 7949,
      "발생했다": 7950,
      "이승": 7951,
      "이마트": 7952,
      "단에": 7953,
      "이라면서": 7954,
      "발급": 7955,
      "자치단체": 7956,
      "청산": 7957,
      "유력": 7958,
      "이중": 7959,
      "실적을": 7960,
      "옮겨": 7961,
      "내외": 7962,
      "지적이": 7963,
      "비용을": 7964,
      "이벤트를": 7965,
      "부대": 7966,
      "대문": 7967,
      "협조": 7968,
      "조사됐다": 7969,
      "충전": 7970,
      "1회": 7971,
      "주일": 7972,
      "생을": 7973,
      "장학": 7974,
      "권이": 7975,
      "대표와": 7976,
      "의사를": 7977,
      "모색": 7978,
      "이들의": 7979,
      "7개": 7980,
      "리포트": 7981,
      "징계": 7982,
      "하라고": 7983,
      "강하게": 7984,
      "고요": 7985,
      "용산": 7986,
      "기조": 7987,
      "빅데이터": 7988,
      "전경": 7989,
      "넘겨": 7990,
      "불이": 7991,
      "컴퓨터": 7992,
      "sp": 7993,
      "개발을": 7994,
      "분에": 7995,
      "배달": 7996,
      "차이가": 7997,
      "120": 7998,
      "전자가": 7999,
      "미를": 8000,
      "토대로": 8001,
      "입학": 8002,
      "74": 8003,
      "월드컵": 8004,
      "1층": 8005,
      "불리는": 8006,
      "주체": 8007,
      "푸드": 8008,
      "증정": 8009,
      "라이온": 8010,
      "국민연금": 8011,
      "구로": 8012,
      "대한항공": 8013,
      "실행": 8014,
      "일상": 8015,
      "엄마": 8016,
      "최적": 8017,
      "아프리카": 8018,
      "ig": 8019,
      "헬스": 8020,
      "각을": 8021,
      "차로": 8022,
      "주에": 8023,
      "대표를": 8024,
      "춘천": 8025,
      "비밀": 8026,
      "승을": 8027,
      "배터리": 8028,
      "라이브": 8029,
      "진행했다": 8030,
      "박스": 8031,
      "박물": 8032,
      "위원장의": 8033,
      "한은": 8034,
      "서부": 8035,
      "광화문": 8036,
      "협상을": 8037,
      "개설": 8038,
      "됐으며": 8039,
      "이면": 8040,
      "생활을": 8041,
      "피언": 8042,
      "권의": 8043,
      "기업은": 8044,
      "남편": 8045,
      "오고": 8046,
      "폭이": 8047,
      "제공하고": 8048,
      "무엇보다": 8049,
      "ation": 8050,
      "정밀": 8051,
      "이웃": 8052,
      "용인": 8053,
      "움직임": 8054,
      "고통": 8055,
      "충격": 8056,
      "일정을": 8057,
      "판정을": 8058,
      "보급": 8059,
      "영입": 8060,
      "지원한다": 8061,
      "연맹": 8062,
      "재배": 8063,
      "불가피": 8064,
      "2배": 8065,
      "상용": 8066,
      "아들": 8067,
      "of": 8068,
      "커뮤니티": 8069,
      "눈길을": 8070,
      "그러니까": 8071,
      "장면": 8072,
      "문제로": 8073,
      "이르": 8074,
      "주가는": 8075,
      "만원의": 8076,
      "후속": 8077,
      "운영하고": 8078,
      "관과": 8079,
      "대표이사": 8080,
      "미래에": 8081,
      "무너": 8082,
      "원유": 8083,
      "생존": 8084,
      "회사의": 8085,
      "즉각": 8086,
      "동계올림픽": 8087,
      "커지고": 8088,
      "통보": 8089,
      "범행": 8090,
      "피고": 8091,
      "협의회": 8092,
      "마저": 8093,
      "머물": 8094,
      "수습": 8095,
      "반박": 8096,
      "차세대": 8097,
      "아웃": 8098,
      "기관의": 8099,
      "3시": 8100,
      "노무현": 8101,
      "수능": 8102,
      "점과": 8103,
      "파리": 8104,
      "금감": 8105,
      "내리": 8106,
      "매출이": 8107,
      "시내": 8108,
      "금속": 8109,
      "마리": 8110,
      "외무": 8111,
      "강의": 8112,
      "cm": 8113,
      "반려": 8114,
      "후보를": 8115,
      "풀이된다": 8116,
      "담긴": 8117,
      "하락한": 8118,
      "학생들이": 8119,
      "지기": 8120,
      "진행할": 8121,
      "ur": 8122,
      "북부": 8123,
      "보낸": 8124,
      "여객": 8125,
      "리트": 8126,
      "타운": 8127,
      "해주는": 8128,
      "억원에": 8129,
      "사람을": 8130,
      "총장은": 8131,
      "경우에는": 8132,
      "챔피언": 8133,
      "깊은": 8134,
      "그간": 8135,
      "듣고": 8136,
      "강연": 8137,
      "비정규직": 8138,
      "시상": 8139,
      "사용하는": 8140,
      "공정거래": 8141,
      "하려고": 8142,
      "친박": 8143,
      "져야": 8144,
      "편성": 8145,
      "플레": 8146,
      "시작된": 8147,
      "투쟁": 8148,
      "렀다": 8149,
      "둘러싼": 8150,
      "법이": 8151,
      "사업자": 8152,
      "케이션": 8153,
      "늘고": 8154,
      "레드": 8155,
      "제품은": 8156,
      "뮤지": 8157,
      "제공할": 8158,
      "댓글": 8159,
      "영장을": 8160,
      "금리를": 8161,
      "분야의": 8162,
      "모여": 8163,
      "말한다": 8164,
      "유튜브": 8165,
      "캐나다": 8166,
      "신분": 8167,
      "확충": 8168,
      "의견이": 8169,
      "있다면": 8170,
      "전개": 8171,
      "부부": 8172,
      "촉구했다": 8173,
      "해수": 8174,
      "드러났다": 8175,
      "수업": 8176,
      "동구": 8177,
      "사건이": 8178,
      "터키": 8179,
      "하나의": 8180,
      "그룹의": 8181,
      "세부": 8182,
      "아이템": 8183,
      "저지": 8184,
      "팀을": 8185,
      "사람의": 8186,
      "대결": 8187,
      "정부에": 8188,
      "te": 8189,
      "자리에": 8190,
      "정식": 8191,
      "통해서": 8192,
      "중도": 8193,
      "형태로": 8194,
      "8시": 8195,
      "선생": 8196,
      "헌법재판": 8197,
      "참여하는": 8198,
      "부담이": 8199,
      "금융감독": 8200,
      "고교": 8201,
      "있는지": 8202,
      "당신": 8203,
      "소프트웨어": 8204,
      "되도록": 8205,
      "이상을": 8206,
      "실장은": 8207,
      "재료": 8208,
      "살인": 8209,
      "급격": 8210,
      "기록하고": 8211,
      "일시": 8212,
      "못해": 8213,
      "기업인": 8214,
      "한달": 8215,
      "들어서": 8216,
      "치면": 8217,
      "철강": 8218,
      "토지": 8219,
      "겪고": 8220,
      "추진하고": 8221,
      "겨냥": 8222,
      "집권": 8223,
      "30년": 8224,
      "멕시코": 8225,
      "순으로": 8226,
      "망을": 8227,
      "브라질": 8228,
      "절감": 8229,
      "센터를": 8230,
      "착용": 8231,
      "비교해": 8232,
      "창의": 8233,
      "특징이다": 8234,
      "상향": 8235,
      "영향으로": 8236,
      "기회가": 8237,
      "북한에": 8238,
      "적으로는": 8239,
      "물량": 8240,
      "기업들이": 8241,
      "가야": 8242,
      "메달": 8243,
      "김진": 8244,
      "할지": 8245,
      "맞은": 8246,
      "심한": 8247,
      "발을": 8248,
      "쇼핑몰": 8249,
      "세미": 8250,
      "획득": 8251,
      "3대": 8252,
      "운항": 8253,
      "선제": 8254,
      "이익을": 8255,
      "이노": 8256,
      "단축": 8257,
      "산하": 8258,
      "메르": 8259,
      "관리를": 8260,
      "지역은": 8261,
      "7시": 8262,
      "필리핀": 8263,
      "동에": 8264,
      "전원": 8265,
      "자들을": 8266,
      "려면": 8267,
      "드론": 8268,
      "수십": 8269,
      "김기": 8270,
      "고기": 8271,
      "이용한": 8272,
      "입증": 8273,
      "박영": 8274,
      "식에서": 8275,
      "상가": 8276,
      "난다": 8277,
      "홈쇼핑": 8278,
      "iv": 8279,
      "적을": 8280,
      "76": 8281,
      "당사": 8282,
      "8개": 8283,
      "따뜻": 8284,
      "미만": 8285,
      "조언": 8286,
      "스키": 8287,
      "인에": 8288,
      "의뢰": 8289,
      "마쳤다": 8290,
      "물가": 8291,
      "때도": 8292,
      "지자": 8293,
      "실태": 8294,
      "스에": 8295,
      "세에": 8296,
      "교과": 8297,
      "요즘": 8298,
      "3명": 8299,
      "소는": 8300,
      "입은": 8301,
      "공간을": 8302,
      "와이": 8303,
      "해왔": 8304,
      "무게": 8305,
      "행사는": 8306,
      "속도를": 8307,
      "행위를": 8308,
      "신청을": 8309,
      "베스트": 8310,
      "놨다": 8311,
      "막기": 8312,
      "교섭": 8313,
      "환영": 8314,
      "하려면": 8315,
      "어서": 8316,
      "1호": 8317,
      "알려져": 8318,
      "실에": 8319,
      "돌입": 8320,
      "인사청문": 8321,
      "교회": 8322,
      "여개": 8323,
      "fta": 8324,
      "농단": 8325,
      "키워": 8326,
      "체계를": 8327,
      "막을": 8328,
      "반응을": 8329,
      "잡아": 8330,
      "혼란": 8331,
      "배송": 8332,
      "이민": 8333,
      "침체": 8334,
      "말고": 8335,
      "10개": 8336,
      "4대": 8337,
      "주가가": 8338,
      "내지": 8339,
      "동참": 8340,
      "정착": 8341,
      "7만": 8342,
      "측에": 8343,
      "의장": 8344,
      "오를": 8345,
      "운전자": 8346,
      "안정적인": 8347,
      "어려워": 8348,
      "사들이": 8349,
      "액을": 8350,
      "대처": 8351,
      "250": 8352,
      "만들고": 8353,
      "정책에": 8354,
      "선보인다": 8355,
      "발의": 8356,
      "연말": 8357,
      "유플러스": 8358,
      "오프라인": 8359,
      "어로": 8360,
      "영업이익은": 8361,
      "찾은": 8362,
      "종교": 8363,
      "벤처기업": 8364,
      "개선을": 8365,
      "내달": 8366,
      "힌다": 8367,
      "공략": 8368,
      "태국": 8369,
      "유승민": 8370,
      "상한": 8371,
      "박정": 8372,
      "산물": 8373,
      "운동을": 8374,
      "그럼": 8375,
      "헌재": 8376,
      "dp": 8377,
      "우한": 8378,
      "op": 8379,
      "주년을": 8380,
      "원장은": 8381,
      "개통": 8382,
      "98": 8383,
      "전부터": 8384,
      "종을": 8385,
      "암호": 8386,
      "혹은": 8387,
      "귀국": 8388,
      "현안": 8389,
      "세운": 8390,
      "2층": 8391,
      "주지": 8392,
      "본격적으로": 8393,
      "아는": 8394,
      "가슴": 8395,
      "아트": 8396,
      "조사에": 8397,
      "맞이": 8398,
      "불거": 8399,
      "소셜": 8400,
      "액이": 8401,
      "종로구": 8402,
      "센터는": 8403,
      "소장": 8404,
      "조절": 8405,
      "후보의": 8406,
      "명절": 8407,
      "민생": 8408,
      "내다봤다": 8409,
      "본인": 8410,
      "즉시": 8411,
      "천안": 8412,
      "금호": 8413,
      "당첨": 8414,
      "살펴보면": 8415,
      "자영업": 8416,
      "강도": 8417,
      "할머니": 8418,
      "함에": 8419,
      "세금": 8420,
      "엔진": 8421,
      "진행됐다": 8422,
      "심사를": 8423,
      "멤버": 8424,
      "권은": 8425,
      "서가": 8426,
      "때마다": 8427,
      "이어지고": 8428,
      "의미가": 8429,
      "스테이": 8430,
      "중견": 8431,
      "보험료": 8432,
      "간에": 8433,
      "높였다": 8434,
      "떠나": 8435,
      "ct": 8436,
      "명했다": 8437,
      "사항을": 8438,
      "모습이": 8439,
      "특성": 8440,
      "음에도": 8441,
      "73": 8442,
      "재판에": 8443,
      "한국과": 8444,
      "유산": 8445,
      "전당": 8446,
      "수색": 8447,
      "타격": 8448,
      "있어야": 8449,
      "양산": 8450,
      "얘기를": 8451,
      "가능해": 8452,
      "엔터": 8453,
      "특파": 8454,
      "기간을": 8455,
      "시리아": 8456,
      "구조조정": 8457,
      "호텔에서": 8458,
      "누가": 8459,
      "식에": 8460,
      "5시": 8461,
      "의혹이": 8462,
      "스위": 8463,
      "수단": 8464,
      "사유": 8465,
      "쓰고": 8466,
      "중개": 8467,
      "예산을": 8468,
      "이가": 8469,
      "해안": 8470,
      "시한": 8471,
      "라이프": 8472,
      "제주도": 8473,
      "정무": 8474,
      "전월": 8475,
      "로스": 8476,
      "이종": 8477,
      "무선": 8478,
      "김상": 8479,
      "이래": 8480,
      "실내": 8481,
      "근본": 8482,
      "정유": 8483,
      "주인공": 8484,
      "전무": 8485,
      "문화를": 8486,
      "일환": 8487,
      "수시": 8488,
      "본부장": 8489,
      "100만": 8490,
      "회의에": 8491,
      "참고": 8492,
      "졌고": 8493,
      "건조": 8494,
      "국정원": 8495,
      "발생하는": 8496,
      "수집": 8497,
      "진상": 8498,
      "비중은": 8499,
      "서구": 8500,
      "분명히": 8501,
      "cent": 8502,
      "보건복지": 8503,
      "위축": 8504,
      "거짓": 8505,
      "사례가": 8506,
      "gm": 8507,
      "세탁": 8508,
      "lg유플러스": 8509,
      "운송": 8510,
      "플래": 8511,
      "지며": 8512,
      "ke": 8513,
      "김포": 8514,
      "파업": 8515,
      "잠재": 8516,
      "경계": 8517,
      "보유하고": 8518,
      "대와": 8519,
      "매출은": 8520,
      "알파": 8521,
      "추구": 8522,
      "테인": 8523,
      "권리": 8524,
      "나선다": 8525,
      "개발에": 8526,
      "성의": 8527,
      "입사": 8528,
      "그레이": 8529,
      "측정": 8530,
      "산업통상": 8531,
      "청와대는": 8532,
      "결정했다": 8533,
      "포스트": 8534,
      "스페인": 8535,
      "선에": 8536,
      "방식을": 8537,
      "김해": 8538,
      "art": 8539,
      "촉진": 8540,
      "휴대": 8541,
      "동료": 8542,
      "4천": 8543,
      "방법을": 8544,
      "메리": 8545,
      "기존의": 8546,
      "호는": 8547,
      "외환": 8548,
      "위안부": 8549,
      "적지": 8550,
      "기록을": 8551,
      "리며": 8552,
      "나섰": 8553,
      "안심": 8554,
      "음료": 8555,
      "항의": 8556,
      "법상": 8557,
      "지역사회": 8558,
      "세는": 8559,
      "채무": 8560,
      "보관": 8561,
      "오리": 8562,
      "마치": 8563,
      "정은": 8564,
      "비율이": 8565,
      "해제": 8566,
      "탄생": 8567,
      "요구하는": 8568,
      "줄어든": 8569,
      "보조": 8570,
      "힘든": 8571,
      "바꿔": 8572,
      "혼자": 8573,
      "전세계": 8574,
      "저장": 8575,
      "미래를": 8576,
      "마치고": 8577,
      "훈련을": 8578,
      "중기": 8579,
      "점차": 8580,
      "노동자": 8581,
      "방향을": 8582,
      "건에": 8583,
      "처음이다": 8584,
      "회사는": 8585,
      "용의": 8586,
      "수익성": 8587,
      "제휴": 8588,
      "제시했다": 8589,
      "공사는": 8590,
      "3억": 8591,
      "방향으로": 8592,
      "살해": 8593,
      "강화를": 8594,
      "사회복지": 8595,
      "리조": 8596,
      "당국이": 8597,
      "가해": 8598,
      "영양": 8599,
      "국세": 8600,
      "4시": 8601,
      "적폐": 8602,
      "계열사": 8603,
      "전파": 8604,
      "국내에서": 8605,
      "지침": 8606,
      "고등": 8607,
      "목적으로": 8608,
      "산업통상자원": 8609,
      "유아": 8610,
      "심판": 8611,
      "국장": 8612,
      "함이": 8613,
      "증언": 8614,
      "원자력": 8615,
      "만들었다": 8616,
      "위생": 8617,
      "수익을": 8618,
      "미치는": 8619,
      "소송을": 8620,
      "리얼": 8621,
      "동영상": 8622,
      "적절한": 8623,
      "교수가": 8624,
      "화와": 8625,
      "활성화를": 8626,
      "말레이": 8627,
      "하이닉": 8628,
      "통합당": 8629,
      "출입": 8630,
      "시가총": 8631,
      "il": 8632,
      "분위기": 8633,
      "분쯤": 8634,
      "입어": 8635,
      "런던": 8636,
      "da": 8637,
      "부실": 8638,
      "승용": 8639,
      "서민": 8640,
      "해당하는": 8641,
      "박사": 8642,
      "오피스텔": 8643,
      "긴장": 8644,
      "쓰는": 8645,
      "대외": 8646,
      "발생할": 8647,
      "항목": 8648,
      "번째로": 8649,
      "ss": 8650,
      "췄다": 8651,
      "연수": 8652,
      "랐다": 8653,
      "리즘": 8654,
      "화로": 8655,
      "범위": 8656,
      "확대해": 8657,
      "노사": 8658,
      "예를": 8659,
      "공인": 8660,
      "부당": 8661,
      "추진할": 8662,
      "늦게": 8663,
      "자사": 8664,
      "갑자기": 8665,
      "달한다": 8666,
      "메이저": 8667,
      "음주": 8668,
      "관여": 8669,
      "메모": 8670,
      "여파": 8671,
      "른다": 8672,
      "마련했다": 8673,
      "시와": 8674,
      "상정": 8675,
      "방문한": 8676,
      "청탁": 8677,
      "단위": 8678,
      "방한": 8679,
      "이제는": 8680,
      "kg": 8681,
      "전망된다": 8682,
      "벌금": 8683,
      "무려": 8684,
      "의미를": 8685,
      "86": 8686,
      "일로": 8687,
      "위원장을": 8688,
      "잇따라": 8689,
      "의식": 8690,
      "태양광": 8691,
      "라이온봇": 8692,
      "참여해": 8693,
      "검찰의": 8694,
      "충청": 8695,
      "대거": 8696,
      "자산운용": 8697,
      "어가": 8698,
      "환자가": 8699,
      "로이": 8700,
      "축하": 8701,
      "나아가": 8702,
      "부탁": 8703,
      "cl": 8704,
      "터미": 8705,
      "본부는": 8706,
      "제고": 8707,
      "기후": 8708,
      "하다가": 8709,
      "조명": 8710,
      "부분에": 8711,
      "돼지": 8712,
      "어린이집": 8713,
      "요구했다": 8714,
      "업체가": 8715,
      "머리": 8716,
      "만남": 8717,
      "선두": 8718,
      "실종": 8719,
      "분위기를": 8720,
      "더니": 8721,
      "연료": 8722,
      "군에": 8723,
      "질이": 8724,
      "일자리를": 8725,
      "권한대행": 8726,
      "본부장은": 8727,
      "기획재정부": 8728,
      "내야": 8729,
      "무슨": 8730,
      "담아": 8731,
      "부지": 8732,
      "진행한": 8733,
      "71": 8734,
      "사업으로": 8735,
      "브렉": 8736,
      "간담회를": 8737,
      "가득": 8738,
      "콘텐츠를": 8739,
      "고객이": 8740,
      "2위": 8741,
      "부분을": 8742,
      "물리": 8743,
      "주어": 8744,
      "핵실험": 8745,
      "삶의": 8746,
      "tf": 8747,
      "콘서트": 8748,
      "판문": 8749,
      "이닝": 8750,
      "진의": 8751,
      "문화예술": 8752,
      "bo": 8753,
      "mc": 8754,
      "현장에": 8755,
      "끌고": 8756,
      "진행되는": 8757,
      "종이": 8758,
      "팀의": 8759,
      "모습이다": 8760,
      "앞장": 8761,
      "확진자": 8762,
      "노총": 8763,
      "주한": 8764,
      "196": 8765,
      "국제공": 8766,
      "남녀": 8767,
      "30대": 8768,
      "제의": 8769,
      "송파": 8770,
      "백악관": 8771,
      "목포": 8772,
      "시급": 8773,
      "자들에게": 8774,
      "목소리가": 8775,
      "수리": 8776,
      "확진자가": 8777,
      "숙박": 8778,
      "기업과": 8779,
      "목소리": 8780,
      "소녀": 8781,
      "리우": 8782,
      "ul": 8783,
      "변화가": 8784,
      "경비": 8785,
      "진정": 8786,
      "2020": 8787,
      "정상회담을": 8788,
      "지원할": 8789,
      "김용": 8790,
      "기각": 8791,
      "면담": 8792,
      "선에서": 8793,
      "활용할": 8794,
      "차관": 8795,
      "아닌가": 8796,
      "현장을": 8797,
      "기소된": 8798,
      "산업단지": 8799,
      "시진": 8800,
      "서울중앙지검": 8801,
      "응급": 8802,
      "대상이": 8803,
      "중동": 8804,
      "정황": 8805,
      "감한": 8806,
      "평을": 8807,
      "있으면": 8808,
      "아세": 8809,
      "뒀다": 8810,
      "폭을": 8811,
      "무죄": 8812,
      "선보인": 8813,
      "22년": 8814,
      "편집": 8815,
      "sk하이닉": 8816,
      "석을": 8817,
      "전공": 8818,
      "거래되고": 8819,
      "확대를": 8820,
      "경주": 8821,
      "휴대전": 8822,
      "87": 8823,
      "시정": 8824,
      "시를": 8825,
      "ds": 8826,
      "잡았다": 8827,
      "center": 8828,
      "이뤄진": 8829,
      "유치원": 8830,
      "입원": 8831,
      "ag": 8832,
      "이영": 8833,
      "mobi": 8834,
      "부르": 8835,
      "소로": 8836,
      "물에": 8837,
      "공판": 8838,
      "가이드": 8839,
      "께서": 8840,
      "터미널": 8841,
      "드린다": 8842,
      "시민들이": 8843,
      "출전": 8844,
      "났습니다": 8845,
      "자전": 8846,
      "ir": 8847,
      "거죠": 8848,
      "포털": 8849,
      "전망이": 8850,
      "곳으로": 8851,
      "가게": 8852,
      "것이고": 8853,
      "환율": 8854,
      "문화재": 8855,
      "스튜": 8856,
      "자신을": 8857,
      "기간에": 8858,
      "방사": 8859,
      "국이": 8860,
      "94": 8861,
      "한국인": 8862,
      "설득": 8863,
      "장관의": 8864,
      "부서": 8865,
      "지역으로": 8866,
      "한국을": 8867,
      "한강": 8868,
      "도약": 8869,
      "도내": 8870,
      "비율은": 8871,
      "민주당은": 8872,
      "분할": 8873,
      "존중": 8874,
      "숨을": 8875,
      "해보": 8876,
      "대통령에게": 8877,
      "골을": 8878,
      "캠페인": 8879,
      "촬영을": 8880,
      "탄도미사일": 8881,
      "종류": 8882,
      "삶을": 8883,
      "한국에": 8884,
      "특화": 8885,
      "경을": 8886,
      "되었": 8887,
      "수여": 8888,
      "사회공헌": 8889,
      "진화": 8890,
      "가치가": 8891,
      "상승세를": 8892,
      "세다": 8893,
      "회사가": 8894,
      "1인당": 8895,
      "10여": 8896,
      "선정된": 8897,
      "배를": 8898,
      "모니터링": 8899,
      "사진제공": 8900,
      "차지하는": 8901,
      "학술": 8902,
      "캠퍼": 8903,
      "나지": 8904,
      "남용": 8905,
      "적용해": 8906,
      "심히": 8907,
      "재해": 8908,
      "신약": 8909,
      "센트": 8910,
      "부족한": 8911,
      "lead": 8912,
      "시진핑": 8913,
      "억원이": 8914,
      "만화": 8915,
      "입장이다": 8916,
      "이주": 8917,
      "가격을": 8918,
      "지지를": 8919,
      "제목": 8920,
      "여러분": 8921,
      "농촌": 8922,
      "추행": 8923,
      "계의": 8924,
      "내기": 8925,
      "량의": 8926,
      "말레이시아": 8927,
      "높게": 8928,
      "이뤄질": 8929,
      "gb": 8930,
      "사고를": 8931,
      "수사에": 8932,
      "특파원": 8933,
      "수학": 8934,
      "기간이": 8935,
      "1시": 8936,
      "수렴": 8937,
      "높이고": 8938,
      "연습": 8939,
      "감독이": 8940,
      "뒤를": 8941,
      "참여할": 8942,
      "강남구": 8943,
      "하자는": 8944,
      "나를": 8945,
      "속도": 8946,
      "대장": 8947,
      "호를": 8948,
      "노하우": 8949,
      "조례": 8950,
      "치킨": 8951,
      "치러": 8952,
      "공동체": 8953,
      "페스티": 8954,
      "지난주": 8955,
      "기술이": 8956,
      "ass": 8957,
      "가맹점": 8958,
      "2006년": 8959,
      "8만": 8960,
      "군을": 8961,
      "포구": 8962,
      "맥주": 8963,
      "력과": 8964,
      "클린": 8965,
      "가졌다": 8966,
      "그녀": 8967,
      "이기도": 8968,
      "윤리": 8969,
      "지명": 8970,
      "납부": 8971,
      "투수": 8972,
      "프랜": 8973,
      "항소": 8974,
      "완벽": 8975,
      "유형": 8976,
      "기대하고": 8977,
      "특혜": 8978,
      "거리를": 8979,
      "세상": 8980,
      "위기를": 8981,
      "빌딩": 8982,
      "없습니다": 8983,
      "사고로": 8984,
      "민정수석": 8985,
      "번에": 8986,
      "위원은": 8987,
      "hd": 8988,
      "감찰": 8989,
      "위원회의": 8990,
      "뷰티": 8991,
      "1일부터": 8992,
      "소설": 8993,
      "하였": 8994,
      "pl": 8995,
      "한층": 8996,
      "작전": 8997,
      "보이지": 8998,
      "짜리": 8999,
      "신천": 9000,
      "탑승": 9001,
      "대상은": 9002,
      "br": 9003,
      "흐름을": 9004,
      "감소한": 9005,
      "공포": 9006,
      "안전한": 9007,
      "고용노동": 9008,
      "활동에": 9009,
      "설문": 9010,
      "법은": 9011,
      "철회": 9012,
      "분노": 9013,
      "nc": 9014,
      "5년간": 9015,
      "캡처": 9016,
      "하시": 9017,
      "아우": 9018,
      "청소": 9019,
      "go": 9020,
      "결론": 9021,
      "중국과": 9022,
      "태평양": 9023,
      "김재": 9024,
      "인들의": 9025,
      "기온은": 9026,
      "개봉": 9027,
      "세무": 9028,
      "복잡": 9029,
      "역에서": 9030,
      "의원을": 9031,
      "페스티벌": 9032,
      "드가": 9033,
      "그를": 9034,
      "높이는": 9035,
      "숨진": 9036,
      "de": 9037,
      "파워": 9038,
      "하셨": 9039,
      "자극": 9040,
      "노동당": 9041,
      "해군": 9042,
      "사진은": 9043,
      "소요": 9044,
      "202": 9045,
      "당기": 9046,
      "악의": 9047,
      "차이즈": 9048,
      "실적이": 9049,
      "육아": 9050,
      "항을": 9051,
      "기간은": 9052,
      "편의점": 9053,
      "부패": 9054,
      "먹는": 9055,
      "심이": 9056,
      "증명": 9057,
      "판단했다": 9058,
      "출근": 9059,
      "유망": 9060,
      "집에서": 9061,
      "청사": 9062,
      "고의": 9063,
      "현직": 9064,
      "국을": 9065,
      "손님": 9066,
      "플랜": 9067,
      "분석한": 9068,
      "미칠": 9069,
      "모두가": 9070,
      "본격화": 9071,
      "유발": 9072,
      "업계의": 9073,
      "비로": 9074,
      "3조": 9075,
      "신제품": 9076,
      "조리": 9077,
      "if": 9078,
      "입고": 9079,
      "그러면": 9080,
      "이유를": 9081,
      "난민": 9082,
      "협의를": 9083,
      "경찰서": 9084,
      "과정에": 9085,
      "작성한": 9086,
      "투기": 9087,
      "가수": 9088,
      "조사에서": 9089,
      "82": 9090,
      "그때": 9091,
      "ytn": 9092,
      "패스트": 9093,
      "치매": 9094,
      "실시한": 9095,
      "그만큼": 9096,
      "후보로": 9097,
      "저소득": 9098,
      "물산": 9099,
      "중부": 9100,
      "늘어나": 9101,
      "과세": 9102,
      "미터": 9103,
      "수많은": 9104,
      "부분은": 9105,
      "치가": 9106,
      "시간에": 9107,
      "있으나": 9108,
      "접속": 9109,
      "끄는": 9110,
      "호가": 9111,
      "않습니다": 9112,
      "강화하고": 9113,
      "무장": 9114,
      "프라이": 9115,
      "문자": 9116,
      "이번이": 9117,
      "끝난": 9118,
      "교육부": 9119,
      "성인": 9120,
      "쓰레": 9121,
      "곧바로": 9122,
      "미래에셋": 9123,
      "소폭": 9124,
      "위탁": 9125,
      "신라": 9126,
      "집에": 9127,
      "발휘": 9128,
      "이재용": 9129,
      "자들": 9130,
      "마감했다": 9131,
      "뛰어난": 9132,
      "스탠": 9133,
      "대우조선": 9134,
      "폭염": 9135,
      "의존": 9136,
      "체크": 9137,
      "점수는": 9138,
      "개로": 9139,
      "추락": 9140,
      "구분": 9141,
      "데뷔": 9142,
      "동력": 9143,
      "대학원": 9144,
      "선보였다": 9145,
      "화해": 9146,
      "당분간": 9147,
      "캠페": 9148,
      "평생": 9149,
      "사건의": 9150,
      "개장": 9151,
      "단과": 9152,
      "지목": 9153,
      "격려": 9154,
      "프랜차이즈": 9155,
      "술을": 9156,
      "문화체육": 9157,
      "엄청": 9158,
      "된다면": 9159,
      "mb": 9160,
      "이어졌다": 9161,
      "맡은": 9162,
      "다리": 9163,
      "재미": 9164,
      "프로모": 9165,
      "평택": 9166,
      "논의를": 9167,
      "못할": 9168,
      "더블": 9169,
      "진로": 9170,
      "전용면적": 9171,
      "분석이": 9172,
      "신체": 9173,
      "비서관": 9174,
      "달려": 9175,
      "라디오": 9176,
      "천연": 9177,
      "따로": 9178,
      "공동으로": 9179,
      "결승": 9180,
      "무료로": 9181,
      "tr": 9182,
      "일어나": 9183,
      "97": 9184,
      "군산": 9185,
      "분야에": 9186,
      "항상": 9187,
      "추적": 9188,
      "명에게": 9189,
      "주류": 9190,
      "국가안보": 9191,
      "크루": 9192,
      "결과는": 9193,
      "상태에서": 9194,
      "자살": 9195,
      "수영": 9196,
      "afp": 9197,
      "원래": 9198,
      "세이": 9199,
      "줄이": 9200,
      "연봉": 9201,
      "좋지": 9202,
      "구체적으로": 9203,
      "당내": 9204,
      "보이며": 9205,
      "적립": 9206,
      "뮤지컬": 9207,
      "일방": 9208,
      "yna": 9209,
      "예정인": 9210,
      "후보자는": 9211,
      "카드를": 9212,
      "세계적인": 9213,
      "05": 9214,
      "비례대표": 9215,
      "국산": 9216,
      "생긴": 9217,
      "개정안": 9218,
      "지대": 9219,
      "차량을": 9220,
      "제정": 9221,
      "갈등": 9222,
      "적정": 9223,
      "공수": 9224,
      "규제를": 9225,
      "졌다고": 9226,
      "씨에": 9227,
      "대회를": 9228,
      "계기가": 9229,
      "전까지": 9230,
      "분들이": 9231,
      "그냥": 9232,
      "발표된": 9233,
      "여성이": 9234,
      "풀어": 9235,
      "코인": 9236,
      "어르": 9237,
      "오바": 9238,
      "시민단체": 9239,
      "피아": 9240,
      "연준": 9241,
      "생물": 9242,
      "패널": 9243,
      "용품": 9244,
      "동시": 9245,
      "행사에": 9246,
      "제시한": 9247,
      "포장": 9248,
      "란히": 9249,
      "1시간": 9250,
      "원활": 9251,
      "동생": 9252,
      "승리를": 9253,
      "공제": 9254,
      "신이": 9255,
      "전지": 9256,
      "자전거": 9257,
      "선은": 9258,
      "떨어졌다": 9259,
      "가속": 9260,
      "제품의": 9261,
      "갖춰": 9262,
      "상당한": 9263,
      "대안": 9264,
      "긴밀": 9265,
      "집값": 9266,
      "연동": 9267,
      "가중": 9268,
      "자택": 9269,
      "공개한": 9270,
      "해진": 9271,
      "상태로": 9272,
      "연을": 9273,
      "렸습니다": 9274,
      "참모": 9275,
      "학원": 9276,
      "과연": 9277,
      "되는데": 9278,
      "96": 9279,
      "병원으로": 9280,
      "합류": 9281,
      "았습니다": 9282,
      "부회장은": 9283,
      "그쳤다": 9284,
      "그에": 9285,
      "완전": 9286,
      "83": 9287,
      "거래가": 9288,
      "같습니다": 9289,
      "승진": 9290,
      "mobilead": 9291,
      "mobileadnew": 9292,
      "느껴": 9293,
      "한국이": 9294,
      "창조": 9295,
      "공시했다": 9296,
      "이은": 9297,
      "변호사는": 9298,
      "철저히": 9299,
      "않게": 9300,
      "20여": 9301,
      "공익": 9302,
      "음이": 9303,
      "성폭력": 9304,
      "퇴근": 9305,
      "간호": 9306,
      "요청했다": 9307,
      "건강보험": 9308,
      "느낄": 9309,
      "아름다운": 9310,
      "만명": 9311,
      "곳의": 9312,
      "임기": 9313,
      "정책이": 9314,
      "per": 9315,
      "공학": 9316,
      "모으": 9317,
      "경력": 9318,
      "이유가": 9319,
      "계에": 9320,
      "민주화": 9321,
      "필요하다는": 9322,
      "일간": 9323,
      "긍정적인": 9324,
      "나가는": 9325,
      "상당의": 9326,
      "구제": 9327,
      "필요하다고": 9328,
      "추모": 9329,
      "시나": 9330,
      "사안": 9331,
      "줄어들": 9332,
      "기업들의": 9333,
      "주장을": 9334,
      "지원하고": 9335,
      "전인": 9336,
      "추진하는": 9337,
      "합의를": 9338,
      "경상": 9339,
      "휴가": 9340,
      "잖아요": 9341,
      "사장이": 9342,
      "향한": 9343,
      "경기에": 9344,
      "개가": 9345,
      "광역시": 9346,
      "의류": 9347,
      "안산": 9348,
      "게이트": 9349,
      "2022년": 9350,
      "소개했다": 9351,
      "청사에서": 9352,
      "3d": 9353,
      "사례를": 9354,
      "이슬": 9355,
      "언급했다": 9356,
      "꼽힌다": 9357,
      "아시아나": 9358,
      "브렉시트": 9359,
      "6천": 9360,
      "쿠폰": 9361,
      "포토": 9362,
      "한테": 9363,
      "사람들은": 9364,
      "확인했다": 9365,
      "2회": 9366,
      "lh": 9367,
      "시중": 9368,
      "충족": 9369,
      "어는": 9370,
      "시대를": 9371,
      "측근": 9372,
      "서울시는": 9373,
      "늘어날": 9374,
      "해경": 9375,
      "게이": 9376,
      "증권사": 9377,
      "신선": 9378,
      "국면": 9379,
      "파괴": 9380,
      "용역": 9381,
      "유족": 9382,
      "했다가": 9383,
      "면역": 9384,
      "면제": 9385,
      "수비": 9386,
      "분담": 9387,
      "은퇴": 9388,
      "사전에": 9389,
      "인데요": 9390,
      "보육": 9391,
      "내수": 9392,
      "조치가": 9393,
      "목표를": 9394,
      "컬러": 9395,
      "보고서를": 9396,
      "아마존": 9397,
      "추첨": 9398,
      "분석이다": 9399,
      "와는": 9400,
      "2005년": 9401,
      "간접": 9402,
      "회동": 9403,
      "선착": 9404,
      "알리": 9405,
      "교육감": 9406,
      "너스": 9407,
      "전은": 9408,
      "조속": 9409,
      "회장을": 9410,
      "3년간": 9411,
      "바르": 9412,
      "조사한": 9413,
      "경기가": 9414,
      "당에서": 9415,
      "힘입어": 9416,
      "실이": 9417,
      "오토": 9418,
      "운영을": 9419,
      "센서": 9420,
      "가리": 9421,
      "노력하겠다": 9422,
      "적자": 9423,
      "높았다": 9424,
      "받기": 9425,
      "드림": 9426,
      "높여": 9427,
      "조만": 9428,
      "인다": 9429,
      "중학교": 9430,
      "고객의": 9431,
      "가시": 9432,
      "국무총리": 9433,
      "일까": 9434,
      "진행하는": 9435,
      "퍼런": 9436,
      "미군": 9437,
      "대출을": 9438,
      "서초구": 9439,
      "하니": 9440,
      "상관": 9441,
      "성격": 9442,
      "들어간": 9443,
      "모델을": 9444,
      "실로": 9445,
      "이동통신": 9446,
      "고정": 9447,
      "스탄": 9448,
      "재벌": 9449,
      "간부": 9450,
      "청에": 9451,
      "소시": 9452,
      "정도의": 9453,
      "장관과": 9454,
      "차원의": 9455,
      "위성": 9456,
      "01": 9457,
      "맞게": 9458,
      "공부": 9459,
      "었는데": 9460,
      "맛을": 9461,
      "도민": 9462,
      "sbs": 9463,
      "정에": 9464,
      "영등": 9465,
      "궁금": 9466,
      "안전을": 9467,
      "’,": 9468,
      "최근에는": 9469,
      "북구": 9470,
      "아예": 9471,
      "무단": 9472,
      "친다": 9473,
      "경우도": 9474,
      "보여주는": 9475,
      "소의": 9476,
      "이건": 9477,
      "업체인": 9478,
      "점점": 9479,
      "다녀": 9480,
      "소식을": 9481,
      "119": 9482,
      "압도": 9483,
      "간담회": 9484,
      "벌이고": 9485,
      "열렸다": 9486,
      "여성의": 9487,
      "선정됐다": 9488,
      "실은": 9489,
      "명품": 9490,
      "열심히": 9491,
      "아니면": 9492,
      "작동": 9493,
      "하우스": 9494,
      "폼페이": 9495,
      "대량": 9496,
      "이어지는": 9497,
      "맞추": 9498,
      "별도": 9499,
      "응원": 9500,
      "수에": 9501,
      "사태가": 9502,
      "대변인": 9503,
      "공산": 9504,
      "가서": 9505,
      "대부분의": 9506,
      "좋겠다": 9507,
      "의원과": 9508,
      "폭탄": 9509,
      "관리에": 9510,
      "리포": 9511,
      "cctv": 9512,
      "청와대가": 9513,
      "말한": 9514,
      "포착": 9515,
      "참여를": 9516,
      "맡고": 9517,
      "건강한": 9518,
      "준비를": 9519,
      "탈퇴": 9520,
      "신고를": 9521,
      "우려를": 9522,
      "청이": 9523,
      "금액은": 9524,
      "소독": 9525,
      "순천": 9526,
      "도서관": 9527,
      "후에": 9528,
      "매출액은": 9529,
      "국정농단": 9530,
      "병원에서": 9531,
      "타를": 9532,
      "잘못된": 9533,
      "경찰서는": 9534,
      "미국에서": 9535,
      "대통령에": 9536,
      "조만간": 9537,
      "사실은": 9538,
      "만원에": 9539,
      "기한": 9540,
      "즈를": 9541,
      "납품": 9542,
      "pa": 9543,
      "모를": 9544,
      "레인": 9545,
      "준공": 9546,
      "통신은": 9547,
      "180": 9548,
      "pe": 9549,
      "모터": 9550,
      "신흥": 9551,
      "미국에": 9552,
      "예금": 9553,
      "발효": 9554,
      "다하겠다": 9555,
      "초등": 9556,
      "했다며": 9557,
      "치의": 9558,
      "핀테크": 9559,
      "전략적": 9560,
      "포함된": 9561,
      "이낙": 9562,
      "놓은": 9563,
      "공연을": 9564,
      "잠시": 9565,
      "경우는": 9566,
      "구조를": 9567,
      "가능성은": 9568,
      "마련됐다": 9569,
      "검토하고": 9570,
      "지방자치단체": 9571,
      "판매를": 9572,
      "대피": 9573,
      "도출": 9574,
      "수백": 9575,
      "폼페이오": 9576,
      "비중을": 9577,
      "급락": 9578,
      "출동": 9579,
      "라엘": 9580,
      "잠정": 9581,
      "트레이": 9582,
      "총회": 9583,
      "당원": 9584,
      "위기에": 9585,
      "감축": 9586,
      "늘려": 9587,
      "이낙연": 9588,
      "비교적": 9589,
      "치게": 9590,
      "박원": 9591,
      "이르는": 9592,
      "서명": 9593,
      "원이다": 9594,
      "08": 9595,
      "여건": 9596,
      "시너": 9597,
      "요리": 9598,
      "원내대표가": 9599,
      "날인": 9600,
      "인명": 9601,
      "정상화": 9602,
      "서울중앙지법": 9603,
      "선사": 9604,
      "되기도": 9605,
      "4명": 9606,
      "엔터테인": 9607,
      "인적": 9608,
      "여명의": 9609,
      "갤럭시s": 9610,
      "프린": 9611,
      "낮추": 9612,
      "공개된": 9613,
      "만기": 9614,
      "성도": 9615,
      "세웠다": 9616,
      "학을": 9617,
      "중계": 9618,
      "아카": 9619,
      "900": 9620,
      "청원": 9621,
      "gdp": 9622,
      "그게": 9623,
      "어려울": 9624,
      "플라": 9625,
      "전과": 9626,
      "식의": 9627,
      "국회에": 9628,
      "공고": 9629,
      "정세": 9630,
      "중국인": 9631,
      "사물": 9632,
      "받아야": 9633,
      "줘야": 9634,
      "성공했다": 9635,
      "리더십": 9636,
      "고객에게": 9637,
      "혁신을": 9638,
      "민원": 9639,
      "이스라엘": 9640,
      "한해": 9641,
      "sw": 9642,
      "진행될": 9643,
      "가상화폐": 9644,
      "받아들이": 9645,
      "mou": 9646,
      "cbs": 9647,
      "대회에서": 9648,
      "no": 9649,
      "헬스케어": 9650,
      "09": 9651,
      "추산": 9652,
      "떨어져": 9653,
      "문화체육관광": 9654,
      "수와": 9655,
      "마르": 9656,
      "달라는": 9657,
      "냉장": 9658,
      "정책의": 9659,
      "조사가": 9660,
      "극대화": 9661,
      "즈는": 9662,
      "규칙": 9663,
      "이용하는": 9664,
      "건설은": 9665,
      "별도로": 9666,
      "서버": 9667,
      "한국시간": 9668,
      "규모를": 9669,
      "검출": 9670,
      "9개": 9671,
      "양호": 9672,
      "무상": 9673,
      "국가의": 9674,
      "아세안": 9675,
      "블로": 9676,
      "게재": 9677,
      "성장률": 9678,
      "선거법": 9679,
      "7천": 9680,
      "회사를": 9681,
      "낸다": 9682,
      "03": 9683,
      "수익률은": 9684,
      "사용자": 9685,
      "for": 9686,
      "서울의": 9687,
      "가깝": 9688,
      "경로": 9689,
      "투자가": 9690,
      "신동": 9691,
      "임대주택": 9692,
      "하라는": 9693,
      "대비해": 9694,
      "양을": 9695,
      "92": 9696,
      "직한": 9697,
      "국적": 9698,
      "한다며": 9699,
      "어르신": 9700,
      "후회": 9701,
      "아니고": 9702,
      "평등": 9703,
      "경험이": 9704,
      "둔화": 9705,
      "캐피": 9706,
      "개인의": 9707,
      "부작용": 9708,
      "최초의": 9709,
      "불구속": 9710,
      "피의자": 9711,
      "중국에서": 9712,
      "일이다": 9713,
      "81": 9714,
      "보도에": 9715,
      "do": 9716,
      "국장은": 9717,
      "시공": 9718,
      "달했다": 9719,
      "무산": 9720,
      "한때": 9721,
      "내정": 9722,
      "시설이": 9723,
      "스턴": 9724,
      "별도의": 9725,
      "중국에": 9726,
      "한국당은": 9727,
      "모멘": 9728,
      "ut": 9729,
      "세기": 9730,
      "가에": 9731,
      "곳이다": 9732,
      "부각": 9733,
      "상인": 9734,
      "sm": 9735,
      "고향": 9736,
      "사건에": 9737,
      "않을까": 9738,
      "저작": 9739,
      "이용자": 9740,
      "가공": 9741,
      "소외": 9742,
      "어링": 9743,
      "식은": 9744,
      "부산시": 9745,
      "아버지": 9746,
      "스토어": 9747,
      "잡은": 9748,
      "섭취": 9749,
      "con": 9750,
      "돈이": 9751,
      "외국인이": 9752,
      "삼성물산": 9753,
      "나라는": 9754,
      "심화": 9755,
      "농림": 9756,
      "다행": 9757,
      "다르다": 9758,
      "화이트": 9759,
      "장병": 9760,
      "마약": 9761,
      "유지하고": 9762,
      "개척": 9763,
      "성명": 9764,
      "내놓은": 9765,
      "마찬가지로": 9766,
      "사람들": 9767,
      "제어": 9768,
      "간담회에서": 9769,
      "있었지만": 9770,
      "본사": 9771,
      "04": 9772,
      "시점": 9773,
      "보지": 9774,
      "만날": 9775,
      "공조": 9776,
      "장착": 9777,
      "제출한": 9778,
      "전의": 9779,
      "받아들": 9780,
      "예상했다": 9781,
      "논의가": 9782,
      "이수": 9783,
      "재를": 9784,
      "5명": 9785,
      "cg": 9786,
      "마련해": 9787,
      "맡아": 9788,
      "중에서": 9789,
      "나면": 9790,
      "간단": 9791,
      "라운": 9792,
      "생각하는": 9793,
      "명시": 9794,
      "이재명": 9795,
      "남성이": 9796,
      "현상이": 9797,
      "가르": 9798,
      "해양수산": 9799,
      "남기": 9800,
      "주식을": 9801,
      "ng": 9802,
      "93": 9803,
      "suv": 9804,
      "고객을": 9805,
      "코드": 9806,
      "철거": 9807,
      "사용한": 9808,
      "운세": 9809,
      "횡령": 9810,
      "일관": 9811,
      "조사하고": 9812,
      "대표하는": 9813,
      "하신": 9814,
      "층의": 9815,
      "따뜻한": 9816,
      "함께하는": 9817,
      "창립": 9818,
      "5억": 9819,
      "전직": 9820,
      "불리": 9821,
      "하느냐": 9822,
      "탈당": 9823,
      "열차": 9824,
      "사내": 9825,
      "강행": 9826,
      "예정된": 9827,
      "나가겠다": 9828,
      "주민들이": 9829,
      "신중": 9830,
      "주장이": 9831,
      "진짜": 9832,
      "실질적인": 9833,
      "그룹이": 9834,
      "지역구": 9835,
      "9만": 9836,
      "마음이": 9837,
      "oled": 9838,
      "라이트": 9839,
      "아산": 9840,
      "버그": 9841,
      "모멘텀": 9842,
      "물로": 9843,
      "중순": 9844,
      "선포": 9845,
      "이의": 9846,
      "정원": 9847,
      "업계는": 9848,
      "차별화된": 9849,
      "8천": 9850,
      "통일부": 9851,
      "수준에": 9852,
      "변화에": 9853,
      "통화에서": 9854,
      "취급": 9855,
      "스웨": 9856,
      "들어갔다": 9857,
      "구상": 9858,
      "먹고": 9859,
      "10명": 9860,
      "김모": 9861,
      "달러를": 9862,
      "40대": 9863,
      "넓은": 9864,
      "마블": 9865,
      "소수": 9866,
      "충분한": 9867,
      "2021년": 9868,
      "30여": 9869,
      "연예": 9870,
      "국에": 9871,
      "10대": 9872,
      "가기": 9873,
      "김씨는": 9874,
      "정례": 9875,
      "국민들이": 9876,
      "계란": 9877,
      "정책과": 9878,
      "풍부한": 9879,
      "이어가고": 9880,
      "타임스": 9881,
      "선전": 9882,
      "보냈다": 9883,
      "유연": 9884,
      "진행되고": 9885,
      "인생": 9886,
      "구미": 9887,
      "위원회에": 9888,
      "교도": 9889,
      "물의": 9890,
      "직원들이": 9891,
      "현상": 9892,
      "호응": 9893,
      "션은": 9894,
      "개인정보": 9895,
      "지점": 9896,
      "상태를": 9897,
      "미르": 9898,
      "국회가": 9899,
      "받침": 9900,
      "대표팀": 9901,
      "비공개": 9902,
      "50대": 9903,
      "신년": 9904,
      "브리핑에서": 9905,
      "체감": 9906,
      "판문점": 9907,
      "외국인은": 9908,
      "제품에": 9909,
      "대응을": 9910,
      "육군": 9911,
      "요양": 9912,
      "가락": 9913,
      "설명했습니다": 9914,
      "탓에": 9915,
      "자발": 9916,
      "의원들이": 9917,
      "직원이": 9918,
      "사이에서": 9919,
      "시간은": 9920,
      "1500": 9921,
      "몰려": 9922,
      "들과의": 9923,
      "고는": 9924,
      "전수": 9925,
      "것이라며": 9926,
      "스크린": 9927,
      "여수": 9928,
      "사모": 9929,
      "상원": 9930,
      "형이": 9931,
      "불을": 9932,
      "총장이": 9933,
      "문서": 9934,
      "지원금": 9935,
      "도시재생": 9936,
      "전후": 9937,
      "강요": 9938,
      "시장과": 9939,
      "성명을": 9940,
      "본회의": 9941,
      "부사장": 9942,
      "무시": 9943,
      "억제": 9944,
      "엘리": 9945,
      "',": 9946,
      "자도": 9947,
      "조심": 9948,
      "석탄": 9949,
      "금강": 9950,
      "목표주가": 9951,
      "블랙리스트": 9952,
      "2004년": 9953,
      "높아지고": 9954,
      "일환으로": 9955,
      "나아": 9956,
      "힘이": 9957,
      "비용이": 9958,
      "대한민국의": 9959,
      "보며": 9960,
      "박람회": 9961,
      "예정입니다": 9962,
      "됨에": 9963,
      "서해": 9964,
      "수사가": 9965,
      "항공기": 9966,
      "광장": 9967,
      "공군": 9968,
      "내비": 9969,
      "치며": 9970,
      "새해": 9971,
      "기반을": 9972,
      "공사가": 9973,
      "증상이": 9974,
      "출마를": 9975,
      "1개월": 9976,
      "됐을": 9977,
      "중국을": 9978,
      "어진": 9979,
      "단순히": 9980,
      "시작해": 9981,
      "마이크": 9982,
      "수험": 9983,
      "권역": 9984,
      "a씨": 9985,
      "대륙": 9986,
      "계절": 9987,
      "오바마": 9988,
      "진출을": 9989,
      "저가": 9990,
      "양의": 9991,
      "푸르": 9992,
      "것인지": 9993,
      "박한": 9994,
      "트럭": 9995,
      "권과": 9996,
      "현역": 9997,
      "자제": 9998,
      "잠실": 9999,
      "현대자동차": 10000,
      "점수를": 10001,
      "주민들의": 10002,
      "06": 10003,
      "법조": 10004,
      "po": 10005,
      "면허": 10006,
      "하향": 10007,
      "부장판사": 10008,
      "세제": 10009,
      "1억원": 10010,
      "있음을": 10011,
      "경영자": 10012,
      "평가가": 10013,
      "취약계층": 10014,
      "홀딩": 10015,
      "이르면": 10016,
      "국민을": 10017,
      "중고": 10018,
      "일치": 10019,
      "물은": 10020,
      "세우": 10021,
      "이모": 10022,
      "트리온": 10023,
      "와서": 10024,
      "시민들의": 10025,
      "찾기": 10026,
      "업체의": 10027,
      "거래량은": 10028,
      "개혁을": 10029,
      "성수": 10030,
      "기관과": 10031,
      "이들을": 10032,
      "그럼에도": 10033,
      "현대중공업": 10034,
      "사용해": 10035,
      "학생들의": 10036,
      "공통": 10037,
      "확인하고": 10038,
      "단행": 10039,
      "이송": 10040,
      "맞서": 10041,
      "얻고": 10042,
      "추진한다": 10043,
      "마스크를": 10044,
      "구청장": 10045,
      "영향이": 10046,
      "지지율": 10047,
      "역사를": 10048,
      "02": 10049,
      "셀트리온": 10050,
      "었다고": 10051,
      "뜨거운": 10052,
      "삼성전자가": 10053,
      "지향": 10054,
      "무를": 10055,
      "규명": 10056,
      "마라": 10057,
      "편안": 10058,
      "준수": 10059,
      "묻는": 10060,
      "제재를": 10061,
      "일하는": 10062,
      "연구를": 10063,
      "경호": 10064,
      "감독의": 10065,
      "ko": 10066,
      "부천": 10067,
      "이뤄졌다": 10068,
      "논란을": 10069,
      "홀로": 10070,
      "뚜렷": 10071,
      "졌다는": 10072,
      "김병": 10073,
      "접한": 10074,
      "소매": 10075,
      "2000년": 10076,
      "이로써": 10077,
      "수면": 10078,
      "신형": 10079,
      "빠진": 10080,
      "듯한": 10081,
      "증가하고": 10082,
      "참사": 10083,
      "a씨가": 10084,
      "패키지": 10085,
      "위원장과": 10086,
      "가격에": 10087,
      "양도": 10088,
      "치료제": 10089,
      "건은": 10090,
      "연관": 10091,
      "의혹에": 10092,
      "원인을": 10093,
      "아니라고": 10094,
      "인테": 10095,
      "ts": 10096,
      "의장은": 10097,
      "시마": 10098,
      "장중": 10099,
      "없애": 10100,
      "정우": 10101,
      "lg전자는": 10102,
      "195": 10103,
      "형태의": 10104,
      "회견에서": 10105,
      "매주": 10106,
      "증진": 10107,
      "정통": 10108,
      "없지만": 10109,
      "2주": 10110,
      "so": 10111,
      "4억": 10112,
      "확대하고": 10113,
      "기아차": 10114,
      "성폭행": 10115,
      "물품": 10116,
      "연내": 10117,
      "앉아": 10118,
      "김민": 10119,
      "행사가": 10120,
      "깨끗": 10121,
      "이외에도": 10122,
      "있는데요": 10123,
      "갈수록": 10124,
      "판매한다": 10125,
      "의견은": 10126,
      "있으": 10127,
      "화려": 10128,
      "연극": 10129,
      "스페": 10130,
      "태극": 10131,
      "처는": 10132,
      "cnn": 10133,
      "나노": 10134,
      "sh": 10135,
      "마이크로": 10136,
      "하지는": 10137,
      "들로부터": 10138,
      "조세": 10139,
      "대체로": 10140,
      "양대": 10141,
      "우위를": 10142,
      "거리가": 10143,
      "구속영장을": 10144,
      "설치된": 10145,
      "물어": 10146,
      "이하의": 10147,
      "공화당": 10148,
      "개최했다": 10149,
      "플로": 10150,
      "신천지": 10151,
      "생태계": 10152,
      "병행": 10153,
      "금리가": 10154,
      "주제": 10155,
      "한중": 10156,
      "시세": 10157,
      "해질": 10158,
      "종목에": 10159,
      "bl": 10160,
      "방이": 10161,
      "재직": 10162,
      "고문": 10163,
      "입장이": 10164,
      "리조트": 10165,
      "해결을": 10166,
      "과장": 10167,
      "아무런": 10168,
      "신탁": 10169,
      "발령": 10170,
      "역임": 10171,
      "선별": 10172,
      "하위": 10173,
      "박물관": 10174,
      "산을": 10175,
      "인력을": 10176,
      "방에": 10177,
      "대목": 10178,
      "드러냈다": 10179,
      "보였": 10180,
      "점유율": 10181,
      "잠수": 10182,
      "상하이": 10183,
      "화는": 10184,
      "병원에": 10185,
      "종목은": 10186,
      "연합회": 10187,
      "일각에서는": 10188,
      "상시": 10189,
      "인천공항": 10190,
      "조회": 10191,
      "법과": 10192,
      "예요": 10193,
      "무대": 10194,
      "ist": 10195,
      "보존": 10196,
      "선대": 10197,
      "입건": 10198,
      "홀에서": 10199,
      "붕괴": 10200,
      "주한미": 10201,
      "검은": 10202,
      "관측이": 10203,
      "부로": 10204,
      "미중": 10205,
      "인스타": 10206,
      "호의": 10207,
      "최우수": 10208,
      "상상": 10209,
      "유일한": 10210,
      "체가": 10211,
      "현재는": 10212,
      "케이블": 10213,
      "메디": 10214,
      "전체의": 10215,
      "ws": 10216,
      "대상을": 10217,
      "암호화폐": 10218,
      "다수의": 10219,
      "북한을": 10220,
      "산업혁": 10221,
      "이번에는": 10222,
      "어떠": 10223,
      "국정감사": 10224,
      "마련된": 10225,
      "창작": 10226,
      "출판": 10227,
      "동일한": 10228,
      "매니": 10229,
      "07": 10230,
      "여행을": 10231,
      "일으키": 10232,
      "중소벤처기업": 10233,
      "항만": 10234,
      "선보일": 10235,
      "듯이": 10236,
      "확대할": 10237,
      "투표를": 10238,
      "발달": 10239,
      "원료": 10240,
      "휴대폰": 10241,
      "증이": 10242,
      "흘러": 10243,
      "법으로": 10244,
      "폭으로": 10245,
      "동이": 10246,
      "한의": 10247,
      "자이너": 10248,
      "당국의": 10249,
      "재판을": 10250,
      "특례": 10251,
      "단지는": 10252,
      "bmw": 10253,
      "일본이": 10254,
      "4조": 10255,
      "위원회에서": 10256,
      "한데": 10257,
      "국은": 10258,
      "지사가": 10259,
      "3층": 10260,
      "작품을": 10261,
      "얻을": 10262,
      "정부에서": 10263,
      "논문": 10264,
      "공론": 10265,
      "종전": 10266,
      "시원": 10267,
      "전문기업": 10268,
      "단말": 10269,
      "사건은": 10270,
      "성분": 10271,
      "전역": 10272,
      "동네": 10273,
      "나타나": 10274,
      "지원이": 10275,
      "않는다는": 10276,
      "영남": 10277,
      "네요": 10278,
      "접목": 10279,
      "일주일": 10280,
      "직권": 10281,
      "고리": 10282,
      "나서고": 10283,
      "일본은": 10284,
      "전부": 10285,
      "사태를": 10286,
      "않았지만": 10287,
      "내놨다": 10288,
      "유전자": 10289,
      "세상을": 10290,
      "방법으로": 10291,
      "슬로": 10292,
      "2루": 10293,
      "저렴한": 10294,
      "내내": 10295,
      "도에서": 10296,
      "화한": 10297,
      "걸어": 10298,
      "사람들의": 10299,
      "어울": 10300,
      "관람객": 10301,
      "적한": 10302,
      "라면서": 10303,
      "주인": 10304,
      "출자": 10305,
      "하기는": 10306,
      "디자이너": 10307,
      "24시간": 10308,
      "골드": 10309,
      "dc": 10310,
      "입점": 10311,
      "감염병": 10312,
      "당연히": 10313,
      "높일": 10314,
      "않다는": 10315,
      "출처": 10316,
      "이미지를": 10317,
      "러리": 10318,
      "포스": 10319,
      "명이다": 10320,
      "게임을": 10321,
      "분위기가": 10322,
      "동작": 10323,
      "인상을": 10324,
      "미국을": 10325,
      "로이터": 10326,
      "극단": 10327,
      "했는지": 10328,
      "찾을": 10329,
      "기사입니다": 10330,
      "갈등이": 10331,
      "패턴": 10332,
      "발전소": 10333,
      "업데이": 10334,
      "화하는": 10335,
      "본인이": 10336,
      "영하": 10337,
      "패를": 10338,
      "판결을": 10339,
      "생각해": 10340,
      "백신": 10341,
      "무관": 10342,
      "협동": 10343,
      "전달했다": 10344,
      "수령": 10345,
      "실시한다": 10346,
      "5대": 10347,
      "경원": 10348,
      "갖추고": 10349,
      "엄격": 10350,
      "단장": 10351,
      "태어": 10352,
      "요소": 10353,
      "발전에": 10354,
      "회의실에서": 10355,
      "공장을": 10356,
      "요구를": 10357,
      "이끄는": 10358,
      "성실": 10359,
      "운영한다": 10360,
      "동북": 10361,
      "었을": 10362,
      "참여했다": 10363,
      "다짐": 10364,
      "인원": 10365,
      "체결했다": 10366,
      "유럽연합": 10367,
      "2명이": 10368,
      "리서": 10369,
      "수당": 10370,
      "이상으로": 10371,
      "생산하는": 10372,
      "높이기": 10373,
      "짧은": 10374,
      "정부를": 10375,
      "철저한": 10376,
      "누군": 10377,
      "꼽았다": 10378,
      "마스": 10379,
      "이었습니다": 10380,
      "한국에서": 10381,
      "서면": 10382,
      "방안도": 10383,
      "산불": 10384,
      "외식": 10385,
      "주목된다": 10386,
      "그것이": 10387,
      "멀티": 10388,
      "시민의": 10389,
      "이전에": 10390,
      "유관": 10391,
      "밴드": 10392,
      "닷컴": 10393,
      "주자": 10394,
      "시대에": 10395,
      "이어진": 10396,
      "희정": 10397,
      "성공적으로": 10398,
      "사회에": 10399,
      "노동조합": 10400,
      "말라": 10401,
      "뒤에": 10402,
      "끝까지": 10403,
      "위와": 10404,
      "농산물": 10405,
      "항공사": 10406,
      "시기에": 10407,
      "스튜디오": 10408,
      "신뢰를": 10409,
      "기온이": 10410,
      "식사": 10411,
      "데미": 10412,
      "장관을": 10413,
      "안정성": 10414,
      "없도록": 10415,
      "수혜": 10416,
      "배가": 10417,
      "터널": 10418,
      "분당": 10419,
      "판에": 10420,
      "애니": 10421,
      "출국": 10422,
      "바지": 10423,
      "과도한": 10424,
      "흥행": 10425,
      "행정안전": 10426,
      "왜곡": 10427,
      "판매하는": 10428,
      "20만": 10429,
      "섬유": 10430,
      "나마": 10431,
      "앞선": 10432,
      "국민들의": 10433,
      "경매": 10434,
      "사흘": 10435,
      "이례": 10436,
      "비서실": 10437,
      "남양": 10438,
      "집회를": 10439,
      "19대": 10440,
      "반등": 10441,
      "매출을": 10442,
      "만찬": 10443,
      "조용": 10444,
      "다섯": 10445,
      "주와": 10446,
      "카운": 10447,
      "공사를": 10448,
      "기반의": 10449,
      "인건": 10450,
      "ls": 10451,
      "군수": 10452,
      "몰아": 10453,
      "언론에": 10454,
      "ecd": 10455,
      "jt": 10456,
      "체류": 10457,
      "나오지": 10458,
      "판사는": 10459,
      "194": 10460,
      "홈페이지를": 10461,
      "인근에": 10462,
      "kia": 10463,
      "프로세": 10464,
      "분석을": 10465,
      "자국": 10466,
      "그래도": 10467,
      "여대": 10468,
      "가능할": 10469,
      "박성": 10470,
      "양자": 10471,
      "몸을": 10472,
      "레일": 10473,
      "당기순이익": 10474,
      "기술과": 10475,
      "사회를": 10476,
      "oecd": 10477,
      "김지": 10478,
      "엔지니": 10479,
      "해달라": 10480,
      "저널": 10481,
      "말씀을": 10482,
      "둘째": 10483,
      "최다": 10484,
      "기대를": 10485,
      "뒷받침": 10486,
      "트의": 10487,
      "협상이": 10488,
      "결코": 10489,
      "타당": 10490,
      "국채": 10491,
      "마시": 10492,
      "요인": 10493,
      "kb국민": 10494,
      "명한": 10495,
      "반대로": 10496,
      "정동": 10497,
      "수석은": 10498,
      "감지": 10499,
      "올리는": 10500,
      "자고": 10501,
      "엔터테인먼트": 10502,
      "졌지만": 10503,
      "화하고": 10504,
      "모금": 10505,
      "회담을": 10506,
      "플루": 10507,
      "지분을": 10508,
      "지원에": 10509,
      "전시회": 10510,
      "여겨": 10511,
      "되길": 10512,
      "배려": 10513,
      "것인가": 10514,
      "이슬람": 10515,
      "토로": 10516,
      "열릴": 10517,
      "마디": 10518,
      "사랑을": 10519,
      "트가": 10520,
      "여기서": 10521,
      "뿐이다": 10522,
      "차례에": 10523,
      "있었고": 10524,
      "연세대": 10525,
      "밀어": 10526,
      "오르고": 10527,
      "줄여": 10528,
      "배정": 10529,
      "오지": 10530,
      "재개발": 10531,
      "치열한": 10532,
      "예상되는": 10533,
      "또다시": 10534,
      "임대료": 10535,
      "하에": 10536,
      "덕분에": 10537,
      "가며": 10538,
      "현재의": 10539,
      "무력": 10540,
      "두는": 10541,
      "골든": 10542,
      "오르는": 10543,
      "담겨": 10544,
      "사우디": 10545,
      "위험이": 10546,
      "지다": 10547,
      "상영": 10548,
      "91": 10549,
      "담고": 10550,
      "상황은": 10551,
      "사회가": 10552,
      "명칭": 10553,
      "영동": 10554,
      "공수처": 10555,
      "가면": 10556,
      "결정할": 10557,
      "소규모": 10558,
      "레이션": 10559,
      "법원은": 10560,
      "공격을": 10561,
      "문제와": 10562,
      "방침을": 10563,
      "재가": 10564,
      "기관에": 10565,
      "겪는": 10566,
      "ex": 10567,
      "트렌드": 10568,
      "객관": 10569,
      "전화를": 10570,
      "경유": 10571,
      "분열": 10572,
      "30만": 10573,
      "행복한": 10574,
      "차에": 10575,
      "이사는": 10576,
      "얻어": 10577,
      "고조": 10578,
      "답을": 10579,
      "출시한": 10580,
      "북한과": 10581,
      "회전": 10582,
      "썼다": 10583,
      "능력이": 10584,
      "이노베이": 10585,
      "비상대책": 10586,
      "비타": 10587,
      "사무소": 10588,
      "상속": 10589,
      "기여할": 10590,
      "머스": 10591,
      "감면": 10592,
      "동남아": 10593,
      "과천": 10594,
      "아닙": 10595,
      "산업을": 10596,
      "잡을": 10597,
      "시험을": 10598,
      "증가율": 10599,
      "받았다고": 10600,
      "예산안": 10601,
      "성사": 10602,
      "작업이": 10603,
      "경찰의": 10604,
      "계속해서": 10605,
      "모레": 10606,
      "최악의": 10607,
      "강조했습니다": 10608,
      "서비스는": 10609,
      "정치를": 10610,
      "노이": 10611,
      "분기에": 10612,
      "애플리": 10613,
      "갈등을": 10614,
      "제품으로": 10615,
      "티켓": 10616,
      "애초": 10617,
      "테일": 10618,
      "외신": 10619,
      "이성": 10620,
      "쪽에": 10621,
      "조합원": 10622,
      "선관": 10623,
      "야외": 10624,
      "반대하는": 10625,
      "영국의": 10626,
      "설을": 10627,
      "서비스가": 10628,
      "개인이": 10629,
      "생성": 10630,
      "이밖에": 10631,
      "이인": 10632,
      "처분을": 10633,
      "가구가": 10634,
      "보조금": 10635,
      "규모다": 10636,
      "투입해": 10637,
      "대대": 10638,
      "중장기": 10639,
      "초래": 10640,
      "개최한다": 10641,
      "시행령": 10642,
      "라인을": 10643,
      "꼽히는": 10644,
      "크림": 10645,
      "가능하며": 10646,
      "때부터": 10647,
      "추진해": 10648,
      "세계에서": 10649,
      "꿈을": 10650,
      "살고": 10651,
      "그만": 10652,
      "관절": 10653,
      "경쟁이": 10654,
      "윤석": 10655,
      "있겠": 10656,
      "구나": 10657,
      "삭제": 10658,
      "과열": 10659,
      "증상": 10660,
      "전라": 10661,
      "업체에": 10662,
      "배포": 10663,
      "마지막으로": 10664,
      "환자의": 10665,
      "당에": 10666,
      "2시간": 10667,
      "2003년": 10668,
      "급식": 10669,
      "관해": 10670,
      "탄소": 10671,
      "수익률을": 10672,
      "10분": 10673,
      "길에": 10674,
      "말하는": 10675,
      "최우선": 10676,
      "국으로": 10677,
      "분들": 10678,
      "드루": 10679,
      "교육청은": 10680,
      "ti": 10681,
      "부총리는": 10682,
      "be": 10683,
      "겨레": 10684,
      "지원센터": 10685,
      "안양": 10686,
      "9천": 10687,
      "청문회": 10688,
      "유명한": 10689,
      "유행": 10690,
      "스웨덴": 10691,
      "팀장은": 10692,
      "인스타그램": 10693,
      "박원순": 10694,
      "준비하고": 10695,
      "초대": 10696,
      "당했다": 10697,
      "지낸": 10698,
      "조항": 10699,
      "발표를": 10700,
      "아닐": 10701,
      "제철": 10702,
      "pd": 10703,
      "표결": 10704,
      "경과": 10705,
      "허가를": 10706,
      "무사": 10707,
      "복원": 10708,
      "심지어": 10709,
      "효성": 10710,
      "유지했다": 10711,
      "분산": 10712,
      "감도": 10713,
      "깊이": 10714,
      "유죄": 10715,
      "면에서": 10716,
      "방치": 10717,
      "업체는": 10718,
      "50만": 10719,
      "고시": 10720,
      "통을": 10721,
      "리다": 10722,
      "사립": 10723,
      "동남": 10724,
      "착공": 10725,
      "3배": 10726,
      "싸움": 10727,
      "구성해": 10728,
      "공정한": 10729,
      "강화해": 10730,
      "업그레이": 10731,
      "제품이": 10732,
      "달러로": 10733,
      "인기가": 10734,
      "확보한": 10735,
      "서의": 10736,
      "국제공항": 10737,
      "베르": 10738,
      "대교": 10739,
      "내각": 10740,
      "국토교통부": 10741,
      "중립": 10742,
      "왼쪽부터": 10743,
      "이유다": 10744,
      "라이언": 10745,
      "그렇지": 10746,
      "지수가": 10747,
      "시안": 10748,
      "선수들이": 10749,
      "동결": 10750,
      "경향": 10751,
      "광장에서": 10752,
      "매달": 10753,
      "연루": 10754,
      "해지고": 10755,
      "기능이": 10756,
      "박지원": 10757,
      "반영해": 10758,
      "ue": 10759,
      "경쟁을": 10760,
      "중점": 10761,
      "밖에도": 10762,
      "씽크": 10763,
      "있으니": 10764,
      "로도": 10765,
      "돌봄": 10766,
      "수치다": 10767,
      "페이스북에": 10768,
      "농민": 10769,
      "매장을": 10770,
      "분석해": 10771,
      "엄청난": 10772,
      "회수": 10773,
      "감안하면": 10774,
      "중대": 10775,
      "체제를": 10776,
      "관찰": 10777,
      "앱을": 10778,
      "합리적인": 10779,
      "중이며": 10780,
      "득점": 10781,
      "애널": 10782,
      "이것이": 10783,
      "인증을": 10784,
      "연다": 10785,
      "행진": 10786,
      "비와": 10787,
      "유공": 10788,
      "가족이": 10789,
      "나도": 10790,
      "시의회": 10791,
      "부회장이": 10792,
      "후보자가": 10793,
      "조율": 10794,
      "kt는": 10795,
      "두려": 10796,
      "결정에": 10797,
      "그래픽": 10798,
      "31일까지": 10799,
      "문제의": 10800,
      "녹색": 10801,
      "골목": 10802,
      "전반에": 10803,
      "뒤집": 10804,
      "스토리": 10805,
      "이메": 10806,
      "목격": 10807,
      "경우에": 10808,
      "허브": 10809,
      "게다가": 10810,
      "고위급": 10811,
      "걸음": 10812,
      "폭로": 10813,
      "벗어": 10814,
      "구직": 10815,
      "비율을": 10816,
      "의정부": 10817,
      "학생이": 10818,
      "생각합니다": 10819,
      "않았다고": 10820,
      "개시": 10821,
      "대원": 10822,
      "대형마트": 10823,
      "아프": 10824,
      "오름": 10825,
      "중재": 10826,
      "예외": 10827,
      "신조": 10828,
      "여명": 10829,
      "김대중": 10830,
      "거장": 10831,
      "정수": 10832,
      "아이를": 10833,
      "목숨을": 10834,
      "일부를": 10835,
      "링크": 10836,
      "모르는": 10837,
      "브리핑을": 10838,
      "배럴": 10839,
      "행동을": 10840,
      "장례": 10841,
      "출시했다": 10842,
      "만이다": 10843,
      "알게": 10844,
      "아직도": 10845,
      "콘셉": 10846,
      "판단을": 10847,
      "넣어": 10848,
      "부정적": 10849,
      "장려": 10850,
      "질문을": 10851,
      "장악": 10852,
      "제외하고": 10853,
      "기념해": 10854,
      "차익": 10855,
      "님이": 10856,
      "발견된": 10857,
      "눈이": 10858,
      "유한": 10859,
      "복구": 10860,
      "2002년": 10861,
      "확인한": 10862,
      "회관에서": 10863,
      "없었던": 10864,
      "경남도": 10865,
      "약속했다": 10866,
      "무소속": 10867,
      "복무": 10868,
      "이사장은": 10869,
      "토록": 10870,
      "인용해": 10871,
      "건너": 10872,
      "얘기다": 10873,
      "말해": 10874,
      "유일하게": 10875,
      "인테리어": 10876,
      "판매가": 10877,
      "후보자의": 10878,
      "학회": 10879,
      "생각하고": 10880,
      "여유": 10881,
      "박주": 10882,
      "패스트트랙": 10883,
      "졌던": 10884,
      "위치했다": 10885,
      "도움": 10886,
      "해체": 10887,
      "100만원": 10888,
      "행태": 10889,
      "렸고": 10890,
      "에게도": 10891,
      "멘토": 10892,
      "놓치면": 10893,
      "서도": 10894,
      "입장에서는": 10895,
      "자료에": 10896,
      "테이블": 10897,
      "국경": 10898,
      "복을": 10899,
      "yo": 10900,
      "해임": 10901,
      "우승을": 10902,
      "환경이": 10903,
      "어깨": 10904,
      "pro": 10905,
      "체결했다고": 10906,
      "원주": 10907,
      "엑스": 10908,
      "특위": 10909,
      "접어": 10910,
      "기증": 10911,
      "끊임": 10912,
      "독점": 10913,
      "얻은": 10914,
      "자원봉사": 10915,
      "있어요": 10916,
      "캘리포": 10917,
      "중에는": 10918,
      "직장인": 10919,
      "대립": 10920,
      "제안했다": 10921,
      "원천": 10922,
      "파티": 10923,
      "모듈": 10924,
      "내륙": 10925,
      "sc": 10926,
      "았지만": 10927,
      "바람이": 10928,
      "이후에": 10929,
      "차량이": 10930,
      "모델로": 10931,
      "유포": 10932,
      "국내에": 10933,
      "되어야": 10934,
      "컸다": 10935,
      "지적도": 10936,
      "치에": 10937,
      "강화하는": 10938,
      "나간": 10939,
      "시키기": 10940,
      "신축": 10941,
      "법의": 10942,
      "1990": 10943,
      "건설이": 10944,
      "과장은": 10945,
      "아카데미": 10946,
      "1명이": 10947,
      "하였고": 10948,
      "주장하는": 10949,
      "원격": 10950,
      "속도가": 10951,
      "기존에": 10952,
      "공영": 10953,
      "케미": 10954,
      "여부에": 10955,
      "내며": 10956,
      "쌍용": 10957,
      "누릴": 10958,
      "회관": 10959,
      "타자": 10960,
      "에어컨": 10961,
      "신입": 10962,
      "보행": 10963,
      "남도": 10964,
      "보자": 10965,
      "협회는": 10966,
      "나타내고": 10967,
      "한국거래소": 10968,
      "노조는": 10969,
      "론칭": 10970,
      "선수가": 10971,
      "표창": 10972,
      "기까지": 10973,
      "밸리": 10974,
      "이후에도": 10975,
      "생생": 10976,
      "엇갈": 10977,
      "동성": 10978,
      "초점을": 10979,
      "인류": 10980,
      "서울에서": 10981,
      "사물인터넷": 10982,
      "성추행": 10983,
      "사항은": 10984,
      "icbm": 10985,
      "kbo": 10986,
      "이뤄지지": 10987,
      "이병": 10988,
      "콜라": 10989,
      "정권의": 10990,
      "명백": 10991,
      "12시": 10992,
      "방북": 10993,
      "점의": 10994,
      "신의": 10995,
      "때보다": 10996,
      "선착순": 10997,
      "관내": 10998,
      "과태": 10999,
      "여파로": 11000,
      "있느냐": 11001,
      "양이": 11002,
      "은행과": 11003,
      "랍니다": 11004,
      "ver": 11005,
      "정신을": 11006,
      "리니": 11007,
      "사스": 11008,
      "택배": 11009,
      "보면서": 11010,
      "인치": 11011,
      "수지": 11012,
      "신용카드": 11013,
      "서서": 11014,
      "무더": 11015,
      "pp": 11016,
      "과제를": 11017,
      "수천": 11018,
      "해지": 11019,
      "로의": 11020,
      "전했습니다": 11021,
      "렸던": 11022,
      "조건을": 11023,
      "선보이는": 11024,
      "건전": 11025,
      "않아도": 11026,
      "클래식": 11027,
      "먹을": 11028,
      "산은": 11029,
      "내역": 11030,
      "장비를": 11031,
      "국가가": 11032,
      "르노": 11033,
      "보훈": 11034,
      "입장에서": 11035,
      "확보를": 11036,
      "마스터": 11037,
      "3회": 11038,
      "팀장": 11039,
      "선거를": 11040,
      "운영에": 11041,
      "근처": 11042,
      "구성됐다": 11043,
      "말이다": 11044,
      "자유롭게": 11045,
      "나경원": 11046,
      "수험생": 11047,
      "총선에서": 11048,
      "lg화학": 11049,
      "소식이": 11050,
      "국토부": 11051,
      "계획이": 11052,
      "그려": 11053,
      "뿌리": 11054,
      "어떠한": 11055,
      "급격히": 11056,
      "친화": 11057,
      "커버": 11058,
      "필드": 11059,
      "가질": 11060,
      "함과": 11061,
      "10억": 11062,
      "긍정적": 11063,
      "부정적인": 11064,
      "세미나": 11065,
      "1로": 11066,
      "계는": 11067,
      "해킹": 11068,
      "발생해": 11069,
      "관행": 11070,
      "아무리": 11071,
      "맞지": 11072,
      "야권": 11073,
      "모빌": 11074,
      "제이": 11075,
      "방송통신": 11076,
      "영화제": 11077,
      "뉴얼": 11078,
      "발표할": 11079,
      "권익": 11080,
      "모은": 11081,
      "ht": 11082,
      "공직자": 11083,
      "민주당이": 11084,
      "네덜": 11085,
      "역세": 11086,
      "스트리트": 11087,
      "연주": 11088,
      "면에": 11089,
      "나라를": 11090,
      "ae": 11091,
      "규탄": 11092,
      "방송을": 11093,
      "관계자들이": 11094,
      "언급한": 11095,
[...]
